/**
  ******************************************************************************
  * @file    small_words_model_data.c
  * @author  AST Embedded Analytics Research Platform
  * @date    Sat Dec  4 17:22:46 2021
  * @brief   AI Tool Automatic Code Generator for Embedded NN computing
  ******************************************************************************
  * @attention
  *
  * Copyright (c) 2021 STMicroelectronics.
  * All rights reserved.
  *
  * This software component is licensed by ST under Ultimate Liberty license
  * SLA0044, the "License"; You may not use this file except in compliance with
  * the License. You may obtain a copy of the License at:
  *                             www.st.com/SLA0044
  *
  ******************************************************************************
  */
#include "small_words_model_data.h"
#include "ai_platform_interface.h"


AI_ALIGNED(32)
const ai_u64 s_small_words_model_weights_array_u64[ 12708 ] = {
  0xbe2973483e1e162dU, 0xbc7d16ca3d936076U, 0x3e4022653d20a009U, 0xbe1218a83e3f2df2U,
  0x3da94bb5bdd571b4U, 0x3de419d7bdd1f518U, 0xbe2701723e20f642U, 0x3da9831abe1a4b4eU,
  0xbe62a4283e2e7686U, 0xbc8f6c31bbe70e7dU, 0xbe4d93693d4ee800U, 0x3d27587cbe115ab2U,
  0xbd0e8e393d5d879aU, 0xbe85612b3e828431U, 0x3e58b1d5bdd1a450U, 0x3e24e68d3e01bf1eU,
  0xbe23b4453e39e378U, 0xbe1dd37b3e1cc320U, 0x3d0c11c03e0305f2U, 0x3e8761e0be87d12eU,
  0x3bcd3e44be1378c9U, 0xbe11f85f3e296cabU, 0xbe2cc2ff3e385b77U, 0xbda3773a3d692380U,
  0xbd67ab71bdbc85acU, 0x3e6fd207be8a5ce4U, 0xbd55cb9e3db90048U, 0xbe87c6003e04219aU,
  0xbdeb87d73d88ed89U, 0xbe63882f3d19247bU, 0xbd7bad643d3f8a58U, 0x3e0ff2dabdf3f396U,
  0x3db3188b3c47b144U, 0xbe13fca63e1360adU, 0x3da3ce70bd75d3bcU, 0xbd4663ef3e36c5f7U,
  0xbe1522f9bc52424eU, 0x3e0e3d703dbc4d1bU, 0x3e2d8dcdbd8f5edcU, 0xbe2e64fc3c891907U,
  0xbdf2ae653e6846acU, 0x3e55c58c3e1dfa88U, 0x3d75fe6b3d86a19dU, 0xbd85975f3e1feb90U,
  0x3b021c3ebe18a31dU, 0x3db0a5ecbd9d0b2bU, 0x3da59187bdb307d6U, 0xbd19ecddbc246cf5U,
  0xbd99ec21bc796160U, 0xbe263d3b3e3a60e5U, 0xbc8a23d8be159f1dU, 0xbd8060ffbd5d21b3U,
  0x3db15c89be057d87U, 0xbd09f58cbd843fb7U, 0xbe0481733c0a44aaU, 0xbde10e21be0f9a03U,
  0x3da3a3683de60246U, 0x3e1cbb58bd4ee9c0U, 0x3e4efdc5be6d20afU, 0x3d28f50e3d7b3d47U,
  0x3db70dea3dd970deU, 0xbe37eae93b9881eaU, 0xbd89c8f93d30f193U, 0x3bf7097c3c067bceU,
  0xbe584fff3e5c5798U, 0xbe18b3693d677ae2U, 0xbe956230be0d574aU, 0xbe186d563da2588aU,
  0x3e624d9dbd50d900U, 0xbd1d915b3d1193baU, 0xbe80c5d5be59608dU, 0x3e5f9fc7bc1b397cU,
  0x3db60b48bd8680f9U, 0xbe1e25c7bdfc110dU, 0xbea1a1f53e98850dU, 0x3df4c84dbe9ed5ecU,
  0xbdaab49c3ca116f1U, 0x3e87d76cbe36b591U, 0xbe6529763df8bbbaU, 0xbe1b95d0be5783bcU,
  0x3e1ec308bea46e92U, 0x3e3b1cb73d40c841U, 0xbdcc1f54bdff2729U, 0x3e439e063e3846f3U,
  0xbe19177f3c8814e2U, 0xbc35712e3dc0c841U, 0xbc8814e2bce2cd7aU, 0xbd8dc06cbdc0c841U,
  0x3e1ec308bc9ec308U, 0xbda46e923e109631U, 0xbce2cd7abc0814e2U, 0xbe246e923d8dc06cU,
  0x3cb5712e3dc0c841U, 0xbe687903be2a1a1bU, 0x3e329b693de2cd7aU, 0xbdd1cadd3de2cd7aU,
  0xbc0814e2be0814e2U, 0x3e54a0a2be4673caU, 0xbdee248cbc0814e2U, 0xbe2fc5a53dcc1f54U,
  0x3d8dc06cbdee248cU, 0x3d4c1f54bc35712eU, 0x3e053f1ebdaa1a1bU, 0xbe6e248cbd0814e2U,
  0x3cb5712ebdb5712eU, 0x3dd77667bdd77667U, 0xbd2a1a1b00000000U, 0xbe83d43bbd0814e2U,
  0xbd8269593dc0c841U, 0x3d4c1f54bdf3d016U, 0xbdcc1f54bb35712eU, 0x3b35712e3dff2729U,
  0xbd136bf5be2fc5a5U, 0x3df97b9f3dc0c841U, 0x3e5776673e51caddU, 0x3ddd21f0bdb5712eU,
  0xbdafc5a53d1ec308U, 0xbd99177fbe136bf5U, 0x3e2744563d6e248cU, 0xbd936bf5bd1ec308U,
  0x3dff2729bd35712eU, 0x3dc673cabdff2729U, 0xbd1ec308be2198cdU, 0xbdaa1a1b3d62cd7aU,
  0x3cf97b9fbe19177fU, 0x3e40c841be3846f3U, 0x3d8814e2be3846f3U, 0xbd936bf53da46e92U,
  0x3e1641babdc0c841U, 0x3e19177f3d826959U, 0x3e053f1ebcb5712eU, 0x3e35712ebddd21f0U,
  0xbe1bed44bdb5712eU, 0xbdaa1a1bbd826959U, 0xbe3846f33e5ff7b5U, 0x3e1ec308be0aeaa7U,
  0xbd797b9f3dc673caU, 0xbdf3d0163e3b1cb7U, 0x3dd77667bd6e248cU, 0xbc35712e3d2a1a1bU,
  0xbc8814e2be70fa51U, 0x3c8814e2bd40c841U, 0x3eb4064cbdafc5a5U, 0xbd936bf53d99177fU,
  0xbd303dee3e9bae2cU, 0xbe41ddb9U, 0x3cd37d843dc7bda8U, 0xbd76bd1abd871e6aU,
  0x3d537d843d813e7cU, 0x3ceafd3ebb3bfdcbU, 0xbdd95d73bdcd9d96U, 0x3d98be35bd47bda8U,
  0xbc3bfdcbbd98be35U, 0x3d76bd1abceafd3eU, 0xbc3bfdcb3ddf3d61U, 0xbe595d73bda47e12U,
  0x3cbbfdcbbe2a5e00U, 0xbe3bfdcbU, 0xbe7f8d00bb3bfdcbU, 0x3e1e9e23bd813e7cU,
  0xbd3bfdcb3e651d4fU, 0xbeba85cf3d92de47U, 0x3d247e12bd98be35U, 0xbe013e7cbe218e1aU,
  0xbd871e6abd98be35U, 0x3bbbfdcb3e18be35U, 0xbd8cfe58bd92de47U, 0xbcd37d843d98be35U,
  0xbd813e7c3e042e73U, 0x3d813e7c3dbbfdcbU, 0x3c0cfe583db61dddU, 0x3df0dd2c3ca47e12U,
  0x3ceafd3ebda47e12U, 0x3dcd9d963e0a0e61U, 0xbd813e7c3ca47e12U, 0x3daa5e003e247e12U,
  0xbe70dd2cbe2a5e00U, 0xbe247e123e9e9e23U, 0x3d013e7cbe9bae2cU, 0xbe18be35bdeafd3eU,
  0x3ea76e09be1bae2cU, 0xbe537d84bd8cfe58U, 0x3cbbfdcb3e013e7cU, 0x3d813e7cbdb61dddU,
  0xbc0cfe58be247e12U, 0x3e3eedc23ca47e12U, 0x3d247e12bc3bfdcbU, 0x3e95ce3ebe071e6aU,
  0xbd98be35be0a0e61U, 0x3dc7bda83df0dd2cU, 0x3e595d733d303deeU, 0xbe0a0e613db61dddU,
  0xbdf0dd2c3e70dd2cU, 0x3ca47e12be4d9d96U, 0xbe622d58bdf0dd2cU, 0xbdf6bd1abd6afd3eU,
  0x3e44cdb13e41ddb9U, 0xbca47e123d47bda8U, 0xbdbbfdcbbdc7bda8U, 0x3e12de47bd98be35U,
  0x3cd37d84be1e9e23U, 0xbd5f3d613d5f3d61U, 0x3d18be353cbbfdcbU, 0xbe4d9d96be8cfe58U,
  0xbd0cfe583dc1ddb9U, 0x3c3bfdcbbd5f3d61U, 0xbdd95d733e071e6aU, 0x3b3bfdcbbcd37d84U,
  0x3ddc1722bd9a1032U, 0xbe040de23c9a1032U, 0xbc840de23c840de2U, 0xbdbb13aabe9a1032U,
  0x3d898e76be06ce2cU, 0xbe32d2ccbe1f90c6U, 0x3d8f0f0abe0c4ec0U, 0xbcf21973bcf21973U,
  0x3dfd1a9b3dc614d2U, 0x3dec98df3c9a1032U, 0x3dc0943ebc5c1722U, 0x3dd115fa3cf21973U,
  0xbde197b7bdbb13aaU, 0xbd948f9e3d721973U, 0xbe2a91ee3e40943eU, 0xbe06ce2cbdd115faU,
  0x3d1a10323de197b7U, 0xbdb59316bb301282U, 0x3c9a10323d0f0f0aU, 0x3c840de23d721973U,
  0xbd5c17223e0f0f0aU, 0x3c9a10323daa91eeU, 0x3dc0943ebd4614d2U, 0xbc840de2bd7d1a9bU,
  0x3e040de2bd67184bU, 0xbdec98df3e174fe8U, 0x3da5115a3d5c1722U, 0xbd25115abd0f0f0aU,
  0x3d3b13aa3dcb9566U, 0x3db01282bd5115faU, 0xbd9a10323c840de2U, 0x3dfd1a9bbe06ce2cU,
  0x3d0f0f0abdb01282U, 0x3d25115abe1f90c6U, 0xbe0f0f0a00000000U, 0xbdd115fabd9f90c6U,
  0x3e32d2ccbd7d1a9bU, 0xbbb012823e148f9eU, 0x3d0f0f0a3d721973U, 0xbe9e30a13dec98dfU,
  0xbdf219733d0f0f0aU, 0x3e014d973c840de2U, 0x3ddc1722be40943eU, 0x3de197b73dec98dfU,
  0xbd7219733e53d644U, 0x3b3012823da5115aU, 0x3e040de23dc0943eU, 0xbd8f0f0a3dc0943eU,
  0xbda5115abe174fe8U, 0xbd4614d23de197b7U, 0xbd5c1722beaeb25dU, 0x3c9a1032bd4614d2U,
  0x3d040de2bddc1722U, 0xbe435488bdbb13aaU, 0x3d5115fabdfd1a9bU, 0xbdfd1a9bbdf21973U,
  0xbe5ed76dbcb01282U, 0x3e06ce2cbbb01282U, 0xbd3012823d1a1032U, 0x3d5115fa3cb01282U,
  0xbe11cf54bdc614d2U, 0xbcdc1722U, 0xbe7a5a513d9f90c6U, 0xbe1f90c63e435488U,
  0x3d738a5dbe675d0bU, 0xbdf38a5d3cdb2fbaU, 0xbe0f147dbdf38a5dU, 0xbde75d0bbc121fd1U,
  0xbd85f280bd42d517U, 0xbe921fd1be707f08U, 0x3d98367a3d7fb7aeU, 0x3e520dbdbded73b4U,
  0x3cc2d5173c42d517U, 0x3cf38a5dbbc2d517U, 0x3e05f2803dd51911U, 0xbcf38a5dbe6451b7U,
  0xbd2a7a74be79a105U, 0x3e2463cbbdd51911U, 0xbe152b263e02e72bU, 0xbe0c09293e1e4d23U,
  0xbd2a7a743dbcbe6eU, 0xbd9e4d23be8d8ed3U, 0xbe1b41cebde75d0bU, 0x3df38a5dbd7fb7aeU,
  0x3bc2d5173e0c0929U, 0x3d42d517be4bf714U, 0xbe2a7a74bc921fd1U, 0x3e7695b1be4bf714U,
  0xbb42d517be276f20U, 0xbd05f280be39b31aU, 0xbcc2d517bd36a7c6U, 0x3dd51911bdb6a7c6U,
  0xbe48ebc0be99bc24U, 0x3d05f2803cc2d517U, 0xbcf38a5dbcc2d517U, 0xbd4f02683caa7a74U,
  0xbe1b41ce3c121fd1U, 0x3e2d85c83e339c71U, 0x3e6451b73bc2d517U, 0xbdd519113e707f08U,
  0xbdd519113cdb2fbaU, 0x3cf38a5dbd738a5dU, 0x3da463cbbb42d517U, 0x3e05f280bbc2d517U,
  0x3d4f0268bd738a5dU, 0x3d85f280U, 0xbe6451b7bdbcbe6eU, 0x3e0c0929bbc2d517U,
  0x3e5519113dc8ebc0U, 0x3e6a68603dcf0268U, 0xbd675d0bbec14f6dU, 0xbdf9a105bded73b4U,
  0xbdf9a105be614663U, 0x3e276f20bcdb2fbaU, 0x3e36a7c63d738a5dU, 0x3d738a5dbe48ebc0U,
  0xbd8c0929be18367aU, 0xbd8c09293d36a7c6U, 0x3da463cbbe02e72bU, 0xbc42d517bc42d517U,
  0xbd98367abd4f0268U, 0xbde75d0b3c121fd1U, 0xbe5519113df9a105U, 0x3bc2d517bdbcbe6eU,
  0xbd98367a3d1e4d23U, 0x3db6a7c63de14663U, 0x3d05f280bde14663U, 0xbd05f280be0f147dU,
  0x3d9a49fa3e1600d0U, 0x3b092550bcbc934eU, 0x3d8092fbbb892550U, 0x3d0925503e3c934eU,
  0x3e384a243da7257aU, 0x3e294a0f3d4db7f8U, 0xbe0092fb3c9a49faU, 0xbd676ef73d676ef7U,
  0x3e31dc64bccdb7f8U, 0xbcab6ea43d91b7a5U, 0x3e1c6e8f3e881305U, 0xbd0925503b092550U,
  0xbda2dc4f3cdedca2U, 0x3e0b49e5bcf0014cU, 0xbd5edca23d676ef7U, 0xbdb84a24bdf0014cU,
  0xbe5edca2bdda9378U, 0x3ccdb7f8bb092550U, 0x3d0925503cf0014cU, 0x3dab6ea43d4db7f8U,
  0xbe3a6eb9bd3400f9U, 0x3e2b6ea4bb092550U, 0x3c8925503e1e9324U, 0xbd892550bdebb822U,
  0x3d2b6ea4bd8d6e7aU, 0x3bcdb7f8bdf893a1U, 0xbd1a49fabde76ef7U, 0x3d1a49fa3c892550U,
  0x3d092550bdda9378U, 0xbd3400f93e20b7baU, 0xbd676ef7bc892550U, 0x3c70014cbd91b7a5U,
  0x3d564a4d3d676ef7U, 0xbdf893a1bc2b6ea4U, 0xbcab6ea43dc0dc78U, 0xbe1600d0be7225e1U,
  0xbd1a49fabc70014cU, 0xbe384a24bd4db7f8U, 0x3d9e93243d84dc26U, 0xbe1a49fabdd20122U,
  0xbe5425b8bd9600d0U, 0x3d092550be2500e4U, 0x3e1a49fa3d11b7a5U, 0xbe22dc4fbd9a49faU,
  0xbd0092fb3e0d6e7aU, 0x3ccdb7f8bdbc934eU, 0x3e1c6e8f3e3eb7e3U, 0xbe02b7903d9e9324U,
  0xbd8092fbbdb400f9U, 0x3c9a49fabc092550U, 0x3c2b6ea43dd64a4dU, 0xbe4b9363be83c9dbU,
  0xbe0b49e53db400f9U, 0xbe1825653d11b7a5U, 0x3e744a763b892550U, 0x3ccdb7f83da7257aU,
  0xbe1e93243d3c934eU, 0x3de76ef7bcab6ea4U, 0x3d9a49fabe474a38U, 0xbd7893a13da2dc4fU,
  0xbd2b6ea43da2dc4fU, 0xbde76ef7bde325ccU, 0xbe7f01613e2b6ea4U, 0xbd092550bd8092fbU,
  0xbdfce5b7bdccef1dU, 0xbe02cf183d62bc4cU, 0xbe166e283d4892e0U, 0x3d2e69753dae6975U,
  0x3dd5a796bd25b0fcU, 0xbdccef1d3e0b8791U, 0xbdeb74c53e095973U, 0xbc8b8791bdccef1dU,
  0xbd94400a3db2c5b2U, 0xbd62bc4c3e2a0d39U, 0xbd514b5a3cae6975U, 0xbe2e6975bd9cf883U,
  0x3dda03d3bd8b8791U, 0xbe0b8791bd62bc4cU, 0x3e3097943e1211ecU, 0x3ce2bc4cbdbb7e2bU,
  0x3e3dac49be1211ecU, 0xbe0db5afbdb2c5b2U, 0x3d3fda67be5a03d3U, 0xbd3721ee3dbfda67U,
  0x3d4892e03e2154c0U, 0xbdae6975be189c47U, 0x3e2c3b57be0b8791U, 0xbd94400abc742d3eU,
  0x3e4664c23d02cf18U, 0x3d4892e0bc9cf883U, 0xbd4892e0bd742d3eU, 0xbdeb74c5bc514b5aU,
  0x3db721ee3cbfda67U, 0xbe4436a43cf42d3eU, 0x3e3097943daa0d39U, 0x3dc436a43bd14b5aU,
  0x3d7ce5b7bd514b5aU, 0xbe57d5b43b0b8791U, 0xbe27df1a3cd14b5aU, 0xbd62bc4c3d4892e0U,
  0xbe1f26a1bd989c47U, 0xbdf8897abe2a0d39U, 0x3db2c5b2be8a7082U, 0xbe608e2d3e2c3b57U,
  0x3d62bc4c3dc892e0U, 0x3cf42d3ebdb2c5b2U, 0x3d5a03d3bb0b8791U, 0xbbd14b5abc742d3eU,
  0x3d1cf883bd94400aU, 0xbdde600f3c0b8791U, 0x3c8b8791bd82cf18U, 0xbda154c03da5b0fcU,
  0xbd1cf8833d3fda67U, 0xbc2e6975be6fd101U, 0x3da154c0be1cf883U, 0xbd989c47bd62bc4cU,
  0x3e00a0fa3d989c47U, 0x3d7ce5b7bcf42d3eU, 0x3e2382debd02cf18U, 0xbe872b543e2382deU,
  0xbd25b0fc3d8fe3ceU, 0xbd9cf883be3b7e2bU, 0x3dccef1dbdf42d3eU, 0xbd14400a3d989c47U,
  0xbd4892e03d742d3eU, 0x3e1aca653e309794U, 0xbda5b0fc3e04fd36U, 0xbc514b5a3defd101U,
  0x3daadd0e3e7190cdU, 0xbdb6a5aebd8d677eU, 0xbca4f8bebd87832fU, 0xbe134bce3c6bac7eU,
  0xbe07832f3d19301eU, 0xbd77751d3e049107U, 0x3ddfe3debdc26e4eU, 0xbdaadd0ebd019edfU,
  0xbdce36eebd019edfU, 0x3d24f8be3d819edfU, 0x3d819edfbdb6a5aeU, 0x3d3c89febdc26e4eU,
  0xbe2206963db0c15eU, 0xbd77751dbd541b3eU, 0xbdebac7ebe2dcf36U, 0x3dd9ff8ebb3c89feU,
  0x3d541b3ebe134bceU, 0x3df7751dbddfe3deU, 0xbc6bac7e3cd41b3eU, 0x3d87832f3d6bac7eU,
  0xbcebac7ebe8bee6bU, 0xbe163df63e1059a6U, 0x3d934bcebe2add0eU, 0xbd48529e3e33b386U,
  0xbdb6a5ae3ddfe3deU, 0x3cd41b3ebe019edfU, 0xbda4f8bebdce36eeU, 0x3c8d677e3e19301eU,
  0xbdebac7ebbbc89feU, 0xbd99301ebca4f8beU, 0xbd30c15e3df190cdU, 0xbe163df6bcebac7eU,
  0x3e0a75573ebb10eaU, 0xbdb0c15e3d99301eU, 0xbd77751d3e33b386U, 0xbd87832f3d9f146eU,
  0xbe2206963e4e36eeU, 0x3e36a5aebda4f8beU, 0xbd6bac7e3dbc89feU, 0x3e48529e3cbc89feU,
  0xbe1f146ebe07832fU, 0xbe62d6063e07832fU, 0x3e134bce3dbc89feU, 0xbddfe3de3ddfe3deU,
  0x3e3997d63e1059a6U, 0x3d934bcebd24f8beU, 0x3e5fe3de00000000U, 0x3e36a5aebe049107U,
  0xbde5c82e3dbc89feU, 0xbdaadd0e3e33b386U, 0x3daadd0ebdf7751dU, 0x3cd41b3ebe1059a6U,
  0xbcd41b3e3d819edfU, 0xbe59ff8e3d6bac7eU, 0xbe9059a63e33b386U, 0x3d19301e3d934bceU,
  0x3de5c82ebc8d677eU, 0xbe7a67453d0d677eU, 0x3b3c89fe3cbc89feU, 0xbd77751dbc8d677eU,
  0x3d541b3e3e456076U, 0x3e134bce3e5cf1b6U, 0x3e97b70a3e07832fU, 0x3e1f146ebd48529eU,
  0xbd7565a33eb9822bU, 0x3ca399183d7565a3U, 0x3e1dc1573e2684f8U, 0x3d7565a33dcc7f5eU,
  0x3de9b6223daf4899U, 0x3dc6a79dbce9b622U, 0xbb3af81b3e037673U, 0xbd9211d5bcbaf81bU,
  0x3d69b6223d3af81bU, 0x3d8662533d8c3a14U, 0xbe3af81b3cd2571eU, 0xbcd2571e3e094e34U,
  0x3e52571eU, 0x3d5e06a03e17e996U, 0x3dd2571ebcbaf81bU, 0x3d69b622be35205aU,
  0xbdcc7f5ebce9b622U, 0x3e1dc1573d9211d5U, 0xbe3de3fb3d808a93U, 0xbda970d8be7e2945U,
  0xbdc6a79dbe2970d8U, 0x3d7565a3bc69b622U, 0x3d5e06a0bd97e996U, 0xbd46a79dbe1211d5U,
  0xbd8662533d2f4899U, 0x3dcc7f5ebd808a93U, 0xbe46a79d3d97e996U, 0x3dc0cfdc3c69b622U,
  0xbe2684f8be582edfU, 0xbda970d8bd008a93U, 0xbce9b6223d0c3a14U, 0x3d0c3a143d3af81bU,
  0xbc3af81b3e094e34U, 0x3e60f280bd52571eU, 0x3d008a93bd9211d5U, 0xbd46a79d3e995f86U,
  0xbd0c3a143cbaf81bU, 0x3e63de61bce9b622U, 0x3c0c3a143ca39918U, 0x3e0662533d69b622U,
  0x3dc0cfdc3e2f4899U, 0x3c0c3a14bce9b622U, 0xbdd2571ebe32347aU, 0x3e5e06a0bb3af81bU,
  0xbe1dc1573dc6a79dU, 0xbd8c3a14bd9211d5U, 0xbe6ca202be094e34U, 0xbd3af81bbd239918U,
  0xbc8c3a14bdc0cfdcU, 0xbd17e9963e380c3bU, 0xbe1ad576bbbaf81bU, 0x3d0c3a14bea7fae8U,
  0x3d9dc157beb2347aU, 0xbe6ca2023c3af81bU, 0xbd52571e3d9211d5U, 0x3d9dc157bdb5205aU,
  0x3c69b6223d866253U, 0xbd3af81bbd17e996U, 0x3d008a93bdef8de3U, 0xbd808a9300000000U,
  0xbe866253be97e996U, 0xbc69b6223dc0cfdcU, 0x3dd2571e3c0c3a14U, 0xbde9b6223e1211d5U,
  0x3dc9161abd026f34U, 0x3dc9161a3d230b00U, 0x3e1574c0bdd3f4b4U, 0x3d230b00bd79ffcdU,
  0x3d64429abda87a4dU, 0xbcd96400bcc3a6cdU, 0xbc5964003c2de99aU, 0x3d596400bdef2134U,
  0xbdf49081be465e74U, 0xbdade99abd87de80U, 0xbdb8c834be100574U, 0x3e1574c03e0a9627U,
  0x3d79ffcd3c2de99aU, 0x3cade99a3e64429aU, 0x3d9d9bb4bdf9ffcdU, 0x3d64429abe4e8567U,
  0x3d79ffcd3c596400U, 0xbd64429abdded34dU, 0xbe0a9627be53f4b4U, 0x3d2de99abdd3f4b4U,
  0x3e38c834be36108dU, 0xbe9418ed3dade99aU, 0xbe36108dbd43a6cdU, 0x3d230b00bdf49081U,
  0x3d596400bcef2134U, 0x3dd3f4b43d87de80U, 0x3e0a96273da87a4dU, 0xbc026f343d38c834U,
  0x3dd96400be20535aU, 0xbd0d4dcd3cade99aU, 0x3e2de99a3cd96400U, 0xbd92bd1a3c826f34U,
  0xbd2de99abdb8c834U, 0xbcd964003d87de80U, 0xbdd3f4b4be1ae40dU, 0xbd87de80beac8dc7U,
  0xbc2de99abe893a54U, 0xbe9d9bb4bd87de80U, 0xbdc9161a3e182c67U, 0x3c826f34bdc3a6cdU,
  0xbe56ac5a3cade99aU, 0xbdb358e7bd43a6cdU, 0xbd2de99abe49161aU, 0x3e182c673e3b7fdaU,
  0x3d79ffcdbe287a4dU, 0x3dd3f4b43da87a4dU, 0xbc982c673d2de99aU, 0x3d87de80be5ed34dU,
  0xbbade99abe25c2a7U, 0xbe100574bc2de99aU, 0x3d026f343bade99aU, 0x3dade99a3d2de99aU,
  0x3de4429a3d230b00U, 0xbd43a6cd3da30b00U, 0xbb2de99a3d64429aU, 0x3d92bd1a3d6f2134U,
  0xbdb358e73de4429aU, 0x3d026f343e0d4dcdU, 0xbd826f34bd64429aU, 0xbd2de99a3d38c834U,
  0xbd182c673d230b00U, 0xbe38c834be893a54U, 0xbdd964003dff6f1aU, 0x3de4429a3da87a4dU,
  0x3dad51b23cbd134eU, 0xbcd21573bdec5822U, 0x3e15af49bce71798U, 0xbd930f043e521573U,
  0xbe184f8dbc930f04U, 0x3e088df13cd21573U, 0x3d7198abbc281129U, 0x3da81129bd088df1U,
  0xbe2d51b2be2570e4U, 0x3e1aefd23d281129U, 0xbe5755fdbe479461U, 0x3e6c58223d671798U,
  0x3cfc19be3bfc19beU, 0xbb2811293e00ad23U, 0x3db7d2c53ca81129U, 0xbdfc19bebd834d68U,
  0xbbfc19bebe54b5b8U, 0x3e22d0a03d130f04U, 0x3d130f04be3fb393U, 0x3df6d934be59f641U,
  0x3e5f36cabbfc19beU, 0xbd930f04be0b2e36U, 0x3c5215733c281129U, 0x3e034d68bd8dce7bU,
  0x3dd755fd3d888df1U, 0x3e15af49bdf198abU, 0x3d130f043d281129U, 0xbbfc19be3d5c9686U,
  0x3c7c19bebdbd134eU, 0xbe5215733bfc19beU, 0xbda811293da81129U, 0x3c2811293e4cd4eaU,
  0xbdb7d2c5bdc79461U, 0x3cd21573bea6c107U, 0xbd7c19bebc930f04U, 0xbd9d90163e906ebfU,
  0x3d3d134e3c521573U, 0x3db7d2c5be05edadU, 0x3e1aefd2bd834d68U, 0x3e3a7309bba81129U,
  0x3de71798bb281129U, 0x3d7198abbe1aefd2U, 0x3e05edadbd930f04U, 0xbdad51b23d984f8dU,
  0xbba81129bd32923cU, 0xbe184f8d3d088df1U, 0xbe2ff1f7bd834d68U, 0x3db7d2c53d088df1U,
  0xbe1aefd2be2570e4U, 0x3d930f04bd834d68U, 0xbcbd134e3d3d134eU, 0xbdb2923c3d8dce7bU,
  0x3ce71798be6ef866U, 0xbe1aefd2bd130f04U, 0x3e0dce7b3e00ad23U, 0x3d32923c3e32923cU,
  0xbba811293ca81129U, 0xbc7c19be3dbd134eU, 0xbe4253d7be088df1U, 0x3e15af493e0dce7bU,
  0xbdb2923cbb281129U, 0x3c930f043e3fb393U, 0xbe6c58223cbd134eU, 0x3d7198abbc281129U,
  0x3c1a7290bdee1b49U, 0xbdee1b49bcb43053U, 0x3e1a72903bcdee16U, 0xbd5accf7be3a9fc4U,
  0x3ce7abd9bccdee16U, 0x3cb43053bdee1b49U, 0xbe1daa493e275172U, 0xbd343053be173ad8U,
  0x3de7abd9bc9a7290U, 0xbdba9fc4bdadc0e3U, 0xbddaccf7be07243eU, 0xbd410f353dba9fc4U,
  0x3c80b4ce3dfafa2bU, 0x3dadc0e3bd8d93afU, 0x3dcdee163ce7abd9U, 0xbd343053be2dc0e3U,
  0xbde13c68be0a5bf7U, 0xbe3430533b4dee16U, 0xbdcdee16be7afa2bU, 0x3e5accf7bdc10f35U,
  0xbd2751723db43053U, 0xbd67abd93d5accf7U, 0x3dd45d873de7abd9U, 0x3da0e20100000000U,
  0x3e5125ce3d8d93afU, 0x3d940320bdfafa2bU, 0x3db43053bce7abd9U, 0xbccdee163da0e201U,
  0xbdee1b493d748abaU, 0xbe1403203c9a7290U, 0x3e4446edbd343053U, 0x3d5accf73c4dee16U,
  0x3d9a7290bdb43053U, 0xbb4dee16becc523aU, 0x3c9a72903d0d93afU, 0xbce7abd93e88c01bU,
  0xbd80b4ce3e5accf7U, 0x3cb430533c1a7290U, 0x3d2751723d87243eU, 0xbde7abd93e10cb67U,
  0x3e5125ce3e8d93afU, 0x3da0e201bd8d93afU, 0xbc80b4cebe30f89bU, 0xbe5accf7bcb43053U,
  0xbe20e201be0a5bf7U, 0x3ccdee1600000000U, 0xbe2751723e00b4ceU, 0xbdc10f353d410f35U,
  0xbd80b4cebe83ec86U, 0x3e4ab65ebc80b4ceU, 0x3e3a9fc43e410f35U, 0xbd410f35bd275172U,
  0xbdba9fc4bda75172U, 0xbb4dee163d00b4ceU, 0xbd80b4ce3d5accf7U, 0xbde13c683b4dee16U,
  0xbe10cb673d9a7290U, 0x3c4dee16be1daa49U, 0xbb4dee16be83ec86U, 0xbd0d93af3e410f35U,
  0xbd1a72903c80b4ceU, 0x3dba9fc43df48abaU, 0xbe9f4625be2a892aU, 0xbe3dd77c3d343053U,
  0xbdb080e03c10d2c5U, 0x3d10d2c5bb90d2c5U, 0xbd7d70d9bdb98e0cU, 0xbcd93c283d22ed1eU,
  0x3dd02efb3b90d2c5U, 0x3de24954bcd93c28U, 0xbdd4b5913cc721cfU, 0x3ca2ed1e3c593c28U,
  0x3dc29b393cc721cfU, 0xbd10d2c53df463acU, 0xbde6cfea3c10d2c5U, 0xbb10d2c53de6cfeaU,
  0x3c7d70d93e033f03U, 0x3d502efbbd19dff1U, 0x3e05824ebd4721cfU, 0x3cfd70d93c90d2c5U,
  0x3e0c4c2fbd87c599U, 0x3da773b4bd10d2c5U, 0x3db50776be7d70d9U, 0xbd8c4c2f3e29b6ffU,
  0xbe253069bd8c4c2fU, 0xbdb98e0c3de24954U, 0x3e6d99cbbd4721cfU, 0x3d8c4c2fbe3080e0U,
  0x3d6b5680bd502efbU, 0x3e691335bd99dff1U, 0x3e05824ebc350776U, 0x3d3e14a3bc350776U,
  0x3c90d2c5be033f03U, 0xbe66cfeabbd93c28U, 0xbd7d70d9bb90d2c5U, 0xbc10d2c53cfd70d9U,
  0xbe00fbb7bca2ed1eU, 0xbe033f033e8fb11fU, 0xbdc29b39bd2bfa4aU, 0x3d9e66873d99dff1U,
  0x3e033f033e0a08e4U, 0x3dd93c28bde6cfeaU, 0xbd90d2c53defdd16U, 0xbd19dff1bde6cfeaU,
  0xbe1e66873c350776U, 0xbdd93c283d6b5680U, 0x3e0c4c2f3dc29b39U, 0xbe8d6dd4bd90d2c5U,
  0xbda2ed1ebe07c599U, 0xbd87c599be3e14a3U, 0x3c90d2c5bd90d2c5U, 0x3d6b56803da2ed1eU,
  0xbdfd70d93dbe14a3U, 0x3d833f03bd99dff1U, 0x3d99dff1be179ca6U, 0x3e19dff1bd2bfa4aU,
  0xbcd93c28bdfd70d9U, 0xbdeb5680bc593c28U, 0xbe4ba865bcfd70d9U, 0xbdb98e0cbe32c42bU,
  0x3dcba8653e1e6687U, 0xbe179ca63e131610U, 0xbc3507763e66cfeaU, 0xbe3e14a3bd22ed1eU,
  0x3c593c28bdfd70d9U, 0xbe56f8dcbe691335U, 0x3cb507763d87c599U, 0x3e78ea433e07c599U,
  0x3d5f3428bd182f32U, 0xbccae998be0b8099U, 0x3e1d41d6be1ab884U, 0xbd03e4a3bd03e4a3U,
  0x3d8e09eb3dee6c13U, 0xbd22547abdc0c451U, 0x3dc5d6f53e10933dU, 0xbe1fcb283dc0c451U,
  0x3dc5d6f53d9d41d6U, 0xbe61bd7abe3bb1adU, 0x3dbbb1adbc737eb7U, 0xbd69596f3d22547aU,
  0x3d5f34283dc5d6f5U, 0xbde446ccbd03e4a3U, 0xbe3e3aff3d83e4a3U, 0x3ba2547abe0e09ebU,
  0x3e2c79c23e1ab884U, 0xbd2c79c2be2c79c2U, 0xbdc0c4513e08f747U, 0x3e40c4513dc5d6f5U,
  0x3e4ae998bd737eb7U, 0x3e760809bea10fd1U, 0xbdcae998be434da3U, 0xbccae9983d0e09ebU,
  0x3df37eb73d931c8fU, 0xbda7671ebe8cc542U, 0x3e78915b3d2c79c2U, 0xbe369f09bd7da3ffU,
  0x3d931c8fbe27671eU, 0x3c4ae998be52858eU, 0xbdc0c4513df37eb7U, 0x3e24ddcc3d5f3428U,
  0xbdcae998bc22547aU, 0x3d03e4a33e3bb1adU, 0x3e1fcb28bd5f3428U, 0xbd88f747be39285bU,
  0x3cb69f09bd0e09ebU, 0x3dac79c2U, 0x3c4ae9983e6e6c13U, 0x3db69f093cf37eb7U,
  0xbe369f093d83e4a3U, 0xbdc0c451be0b8099U, 0xbe8cc542be85294cU, 0x3c4ae9983d369f09U,
  0xbccae998bd2c79c2U, 0x3c737eb73d931c8fU, 0x3e015b51bd7da3ffU, 0xbe8016a8bcdf3428U,
  0x3d40c4513db18c65U, 0x3e4ae9983dfda3ffU, 0xbd8e09ebbe0b8099U, 0x3de446ccbe03e4a3U,
  0x3d4ae998bd69596fU, 0x3e78915bbc8e09ebU, 0x3c737eb7be015b51U, 0x3db69f09bd369f09U,
  0xbddf3428bdc5d6f5U, 0xbdcae998be7da3ffU, 0x3de446ccbdee6c13U, 0xbba2547abe2c79c2U,
  0xbc737eb7be486047U, 0xbe5798323d4ae998U, 0x3d982f323e15a5e0U, 0xbe4d72eabda7671eU,
  0x3d1af8e43dac30feU, 0x3d711163be307f04U, 0xbe27e2f73d9af8e4U, 0x3cf11163bf08ad49U,
  0x3db4cd0abe4ea130U, 0xbd2c30fe3dc60524U, 0x3d711163bd4ea130U, 0x3d3d6917be642750U,
  0xbdcea1303da394f1U, 0x3cf111633d09c0cbU, 0xbdbd69173dbd6917U, 0x3dbd69173e0124beU,
  0xbc09c0cb3cac30feU, 0xbd4ea130bdcea130U, 0xbe2394f1bddfd94aU, 0x3d2c30fe3d3d6917U,
  0xbdd73d3dbe125cd8U, 0xbe5fd94abe0124beU, 0x3d2c30febe0572c5U, 0x3d925cd8be1f46ebU,
  0x3dac30fe3b89c0cbU, 0xbe307f043d8124beU, 0xbd7111633db4cd0aU, 0x3dc60524bccea130U,
  0x3d3d69173dbd6917U, 0x3dc605243d925cd8U, 0x3da394f1U, 0x3c4ea1303d09c0cbU,
  0x3c09c0cbbd8124beU, 0xbd9af8e4be27e2f7U, 0x3dd73d3d3d2c30feU, 0x3ccea1303c4ea130U,
  0x3ccea130bdb4cd0aU, 0xbe3d69173df11163U, 0x3ccea130bd89c0cbU, 0xbc4ea130be642750U,
  0x3dc60524bd3d6917U, 0x3db4cd0a3e2c30feU, 0x3e16aade3d89c0cbU, 0xbe8572c53ccea130U,
  0xbe41b71dbcac30feU, 0x3d925cd8bb89c0cbU, 0xbe16aadebe0124beU, 0x3d925cd83dc60524U,
  0x3c4ea1303b89c0cbU, 0x3e34cd0a3e9483dbU, 0xbe0124be3da394f1U, 0xbd4ea130bde87557U,
  0x3c09c0cb3c09c0cbU, 0x3dcea1303ccea130U, 0xbe4ea130be09c0cbU, 0x3d2c30febe687557U,
  0x3cac30febd4ea130U, 0xbe34cd0abe27e2f7U, 0x3d5fd94abe2394f1U, 0xbde875573e0572c5U,
  0xbc89c0cbbe09c0cbU, 0x3b89c0cbU, 0x3c09c0cb3dcea130U, 0x3d4ea130be755f6aU,
  0x3d8124be3d1af8e4U, 0xbc89c0cb3cf11163U, 0xbe2394f13de87557U, 0x3d5fd94a3d4ea130U,
  0xbe01fb1ebc8eb963U, 0x3d9e041bbe09a07bU, 0xbe231d03bd7edd55U, 0x3e165ebfbe165ebfU,
  0xbe0eb963bdf4ab84U, 0x3e3c998bbe3c998bU, 0xbe3780a3bcf4ab84U, 0xbdb780a3bd93d24bU,
  0xbd7edd55bdc6cb5cU, 0x3d231d03bd93d24bU, 0x3d7edd55bce047e4U, 0xbd18eb33be18eb33U,
  0xbe13d24b3d848792U, 0x3dcbe444bd231d03U, 0xbb231d03be231d03U, 0x3cb780a3be048792U,
  0x3e4e70b83e34f42fU, 0x3d048792bc74ab84U, 0x3dea79b43ea1d6c9U, 0xbe1145d73db780a3U,
  0x3dcbe444bd18eb33U, 0x3d0eb9633d98eb33U, 0x3d9e041b3e1145d7U, 0x3de560ccbe3780a3U,
  0xbdf9c46d3ca31d03U, 0x3d8487923e1e041bU, 0x3d9e041bbc8eb963U, 0xbdb780a33e18eb33U,
  0x3c74ab843da31d03U, 0x3c231d03bdad4ed3U, 0xbdbc998bbca31d03U, 0x3e1b77a73d98eb33U,
  0x3b231d03be74ab84U, 0xbe0487923e721f10U, 0xbca31d033ccbe444U, 0x3e0487923e01fb1eU,
  0xbcb780a33e2fdb47U, 0x3e2fdb47be58a288U, 0x3e1145d73e4be444U, 0x3e8ae6b53d9e041bU,
  0x3d41b2743e0eb963U, 0xbccbe4443d8eb963U, 0x3dea79b4be41b274U, 0xbcf4ab84bcf4ab84U,
  0xbdbc998bbe50fd2cU, 0xbd8eb963bd231d03U, 0x3dcbe4443d98eb33U, 0xbe5b2efcbdfedd55U,
  0xbda835eb3c74ab84U, 0x3e34f42f3ccbe444U, 0x3da835eb3d561614U, 0xbd6a79b43e3267bbU,
  0x3ddb2efcbdb267bbU, 0x3dbc998bbda31d03U, 0x3da835ebbde047e4U, 0x3e50fd2cbdea79b4U,
  0x3d41b2743d8eb963U, 0x3d6047e43d048792U, 0xbccbe444bd2d4ed3U, 0xbddb2efcbc4be444U,
  0x3c4be444bddb2efcU, 0x3db267bb3d561614U, 0xbd561614be1145d7U, 0x3d93d24b3bf4ab84U,
  0x3cfdbf0bbe907e91U, 0x3d292a073d455bb3U, 0xbbe18d5fbe303672U, 0xbd537489bedfca44U,
  0x3ca92a07be6899caU, 0xbe732c6abe292a07U, 0xbd9b1131bdb742ddU, 0x3dcc681e3da92a07U,
  0xbd618d5fbda21d9cU, 0x3cc55bb3bcc55bb3U, 0x3d537489bc8cf85bU, 0xbd8cf85b3dbe4f48U,
  0xbd7dbf0bbe0265bbU, 0x3e3742dd3da92a07U, 0xbe0265bb3e0265bbU, 0x3d455bb3bd3742ddU,
  0x3be18d5fbe178afcU, 0xbbe18d5fbb618d5fU, 0x3b618d5fbc292a07U, 0xbc618d5f3dda80f4U,
  0xbc292a07bc618d5fU, 0x3e41d57ebce18d5fU, 0x3e618d5f3d292a07U, 0x3c618d5f3e292a07U,
  0xbda92a073e05ebf0U, 0xbd292a07be41d57eU, 0x3c618d5fbd9404c6U, 0x3e178afc3cc55bb3U,
  0xbe1b11313dc55bb3U, 0x3e5a80f4bdefa635U, 0xbe0cf85b3d9b1131U, 0xbe6513943e292a07U,
  0x3dc55bb33be18d5fU, 0xbd7dbf0b3e221d9cU, 0xbe3ac913be1404c6U, 0x3d292a07be4fee54U,
  0x3b618d5fbe8ebb76U, 0xbe5e072a3d6fa635U, 0xbe76b2a03defa635U, 0xbe221d9c3dbe4f48U,
  0x3e0cf85bbd9404c6U, 0xbcc55bb33d6fa635U, 0x3c8cf85b3e0cf85bU, 0xbe1404c63df6b2a0U,
  0x3d537489bd537489U, 0x3e0265bbbbe18d5fU, 0x3e0972263de18d5fU, 0x3d9404c6bdb742ddU,
  0xbca92a073e7dbf0bU, 0xbdfdbf0b3e6899caU, 0x3e0972263defa635U, 0x3d3742dd3defa635U,
  0xbca92a07bdd37489U, 0xbdb03672be107e91U, 0x3d7dbf0b3db03672U, 0x3e994e17bd1b1131U,
  0x3e178afcbda92a07U, 0xbe3e4f48bd455bb3U, 0xbe221d9c3d8cf85bU, 0x3d618d5f3e107e91U,
  0x3d85ebf03d0cf85bU, 0xbe221d9c3d85ebf0U, 0x3e0972263d9404c6U, 0x3e455bb3bd292a07U,
  0xbc914d1fbbd9f3aeU, 0x3d08384d3d2c8b95U, 0xbdd0deddbe1a61f1U, 0xbdcc54743d2376c3U,
  0xbe03ade4be15d788U, 0xbe654db53e05f319U, 0xbd8cc2b63d1a61f1U, 0x3cb5a067be2376c3U,
  0x3dbeb539be1ca725U, 0xbd114d1f3da376c3U, 0xbdd569463df9bc8dU, 0x3dba2ad03e0f07ebU,
  0x3dcc547400000000U, 0x3d83ade43dba2ad0U, 0x3e69d81ebd35a067U, 0xbe15d7883c35a067U,
  0xbd1a61f13e902a85U, 0xbe0f07ebbe1a61f1U, 0xbb114d1fbd7e46f6U, 0xbe15d7883e3c7004U,
  0x3b114d1fbdf9bc8dU, 0xbe50deddbd9eec5aU, 0xbe08384dU, 0x3db5a067bdb5a067U,
  0xbc59f3ae3db5a067U, 0xbd08384d3d83ade4U, 0x3e05f3193d914d1fU, 0xbe40fa6dbe28012cU,
  0xbdfe46f6be3eb539U, 0x3e181cbcbd9eec5aU, 0xbe3eb539bb914d1fU, 0x3c914d1fbd8cc2b6U,
  0xbc114d1fbd88384dU, 0xbd47ca0bbdde7e17U, 0xbbd9f3aebdcc5474U, 0xbd7e46f600000000U,
  0x3c35a067bd7e46f6U, 0x3d83ade4bdd0deddU, 0x3df0a7bbU, 0xbdf53224bdb5a067U,
  0xbdac8b953d9eec5aU, 0x3e2c8b95bd1a61f1U, 0xbc914d1fbdbeb539U, 0xbc914d1fU,
  0x3dbeb539be50deddU, 0xbdd569463e335b32U, 0xbd8cc2b63cc7ca0bU, 0xbda8012cbd50deddU,
  0xbd9eec5abd114d1fU, 0xbe47ca0bbdba2ad0U, 0x3e4a0f3fbcd9f3aeU, 0x3d7e46f6bda376c3U,
  0xbd753224bb114d1fU, 0xbde792e93cc7ca0bU, 0xbd83ade4bdba2ad0U, 0x3dac8b95bbd9f3aeU,
  0xbe1a61f13e3eb539U, 0xbb114d1f3e114d1fU, 0xbc7e46f6bcfe46f6U, 0xbe3eb5393c914d1fU,
  0x3dbeb5393e03ade4U, 0x3d47ca0bbe3a2ad0U, 0x3b114d1fbd47ca0bU, 0x3e2ed0c9bc35a067U,
  0x3bb53bfa3d793278U, 0x3ce28af8be106bcbU, 0xbe0ac1ebbdb53bfaU, 0x3c628af8bd9e947bU,
  0x3dc639993cf93278U, 0xbc07ecfc3dcbe379U, 0xbbb53bfa3d573739U, 0x3c353bfabe1e947bU,
  0x3d573739bd07ecfcU, 0xbddce1193de28af8U, 0xbdc08fba3c353bfaU, 0xbd408fba3deddeb8U,
  0x3d7932783deddeb8U, 0xbe0d96db3da43e5bU, 0x3d1e947b3e463999U, 0x3e6ddeb83ddce119U,
  0xbe573739bd628af8U, 0xbd6ddeb83df93278U, 0x3dc08fbabe518d59U, 0xbdbae5da3e9a5513U,
  0xbccbe3793e0ac1ebU, 0x3e3ae5da3cb53bfaU, 0xbd29e83abe18ea9bU, 0xbe106bcb3ce28af8U,
  0x3c9e947bbdeddeb8U, 0xbdf93278be32670aU, 0xbd8d96db3ccbe379U, 0x3e21696bbda43e5bU,
  0x3dfedc58bccbe379U, 0xbcb53bfabd793278U, 0x3d07ecfcbe18ea9bU, 0xbe4eb869bd9340bbU,
  0xbe9ffef3be2cbd2aU, 0xbc353bfa3e408fbaU, 0x3dc08fbabdfedc58U, 0xbe655fe8bd6ddeb8U,
  0x3e243e5bbe87ecfcU, 0xbe1e947b3e353bfaU, 0x3c07ecfc3dfedc58U, 0x3dfedc583daf921aU,
  0xbea43e5b3d8d96dbU, 0x3e4364aa3cf93278U, 0xbe106bcb3dd18d59U, 0x3de834d83e1e947bU,
  0x3d8d96dbbd29e83aU, 0x3e05180c3eb3d182U, 0xbd793278bd793278U, 0xbea2d3e3bc628af8U,
  0xbda43e5b3e32670aU, 0xbd29e83abd07ecfcU, 0x3dcbe379be1e947bU, 0xbd628af8be4be379U,
  0x3e29e83a3e0ac1ebU, 0x3d5737393df38898U, 0xbe87ecfc3cf93278U, 0x3e07ecfc3d573739U,
  0x3dcbe379bdb53bfaU, 0xbe5a0c29bdf38898U, 0x3d98ea9b3e91d643U, 0x3d408fba3d98ea9bU,
  0xbd793278U, 0x3deddeb8bc9e947bU, 0xbe5fb6093e5ce119U, 0x3e243e5bbe32670aU,
  0xbe14ad3dbd6b1ddeU, 0x3d78f272be182262U, 0xbdf208283d182262U, 0x3c8a4dcebe757d4dU,
  0x3d8a4dcebe113818U, 0xbdbab5d6be488a6aU, 0x3d33cb8b3c25f6f7U, 0x3dc88a6a3d33cb8bU,
  0xbd0a4dcebd25f6f7U, 0x3d78f272bd982262U, 0xbd9138183d6b1ddeU, 0xbcf8f272bdf8f272U,
  0x3dbab5d6bd33cb8bU, 0xbd33cb8b3d836383U, 0x3d41a020bc8a4dceU, 0xbd0a4dce3de43393U,
  0x3cdd49493e9667d0U, 0xbd4f74b4bde43393U, 0x3e5d49493e8c0860U, 0x3db3cb8bbe451545U,
  0x3e52e9da3c8a4dceU, 0xbd6b1ddebd78f272U, 0xbd4f74b43d913818U, 0xbd25f6f7bddd4949U,
  0xbd182262bca5f6f7U, 0xbd4f74b43e305666U, 0xbd9f0cac3c5d4949U, 0x3d25f6f7bd78f272U,
  0xbd8a4dce3d0a4dceU, 0xbd8a4dcebda5f6f7U, 0xbdf208283cf8f272U, 0xbd33cb8b3d33cb8bU,
  0xbdbab5d63e643393U, 0xbda5f6f7bdf8f272U, 0xbd25f6f73bdd4949U, 0x3dffdcbcbcf8f272U,
  0xbe06d8a83e6e9303U, 0x3c5d49493e296c1cU, 0xbe1b9787bd25f6f7U, 0xbe0363833bdd4949U,
  0x3e78f272bbdd4949U, 0xbdace1413da5f6f7U, 0x3e3056663e25f6f7U, 0xbd25f6f73dbab5d6U,
  0x3da5f6f73ebfe58dU, 0xbe2ce141bdf8f272U, 0x3d5d49493d982262U, 0x3e643393bdbab5d6U,
  0xbe1138183d182262U, 0x3d4f74b4bd25f6f7U, 0xbcdd4949bd913818U, 0xbe06d8a83d25f6f7U,
  0xbe9822623c5d4949U, 0x3dffdcbc3d6b1ddeU, 0x3e4bff8fbe0dc2f3U, 0xbedb8eb63de43393U,
  0xbe2281d23cf8f272U, 0x3e25f6f7be52e9daU, 0xbd9f0cacbe92f2aaU, 0x3d8a4dcebbdd4949U,
  0x3e0a4dce3e182262U, 0x3cc1a0203dc88a6aU, 0x3d33cb8bbe99dcf5U, 0xbd836383bd836383U,
  0xbb2f10883d93b5f3U, 0x3e37454ebdf0b6bbU, 0xbd93b5f3bdd55c26U, 0x3d93b5f33dfba7c4U,
  0x3e6dfa793e2c5446U, 0x3e4d275f3d034c66U, 0xbdf0b6bbbe1ea6fbU, 0x3d65c5b2be10f9b1U,
  0xbd834c66bd8e3d6eU, 0x3dd55c263d192e77U, 0xbc5ad4aa3e630970U, 0x3d034c66bde5c5b2U,
  0x3b2f10883c2f1088U, 0xbd3a0190bc5ad4aaU, 0xbc834c663baf1088U, 0xbc034c663d834c66U,
  0xbe6b3e373e529fe4U, 0x3e9ea6fbbe10f9b1U, 0x3ddad4aa3e2f1088U, 0xbe2998043e167235U,
  0xbc2f10883e26dbc2U, 0x3e6881f53dd55c26U, 0x3e529fe4bd2f1088U, 0xbd65c5b23c992e77U,
  0xbc034c66be2f1088U, 0xbe5d90ec3c5ad4aaU, 0xbbaf1088bdf62f3fU, 0xbd88c4eabdb4890cU,
  0xbd7ba7c43da99804U, 0x3d70b6bbbda99804U, 0x3d88c4ea3caf1088U, 0x3dca6b1dbdb4890cU,
  0x3e10f9b13d88c4eaU, 0x3e37454ebe08c4eaU, 0x3d2f10883c5ad4aaU, 0x3d834c66bd0e3d6eU,
  0xbd0e3d6ebc5ad4aaU, 0xbcc4f299bd9ea6fbU, 0x3d88c4ea00000000U, 0x3e034c66be1ea6fbU,
  0x3e2998043e2f1088U, 0x3baf10883db4890cU, 0xbdbf7a153c034c66U, 0xbd5ad4aabe423657U,
  0x3cdad4aa3d192e77U, 0xbd0e3d6ebe299804U, 0x3dc4f299be009024U, 0xbe1ea6fbbd0e3d6eU,
  0x3da41f80bbaf1088U, 0x3e034c66beadb267U, 0xbd7ba7c4bd034c66U, 0xbcf0b6bb3df62f3fU,
  0xbcdad4aabdd55c26U, 0xbd834c663dcfe3a2U, 0x3dcfe3a2bdbf7a15U, 0x3c034c66bc034c66U,
  0xbc834c663daf1088U, 0x3d93b5f3bd834c66U, 0x3cc4f299bddad4aaU, 0x3b2f1088be10f9b1U,
  0x3dcfe3a23ddad4aaU, 0xbddad4aabb2f1088U, 0xbe93b5f3bdf62f3fU, 0x3c834c66bdf0b6bbU,
  0x3df8aaf6bc729a4eU, 0xbdf8aaf6be4b2e08U, 0x3b42150bbcf29a4eU, 0xbd056e78bdce365cU,
  0xbdf29a4e3e026623U, 0xbcf29a4ebca9d26aU, 0x3dda57acbe17a071U, 0xbde068553c118fc8U,
  0xbdfebb9ebd8b7f20U, 0x3b42150bbc918fc8U, 0x3e38fc0e3c118fc8U, 0x3d856e783de06855U,
  0xbe056e78bcc2150bU, 0x3c42150bbe118fc8U, 0x3cc2150b3d35f3baU, 0xbca9d26a3d9db119U,
  0xbd056e783d729a4eU, 0x3c42150b3d29d26aU, 0xbd6678fdbc918fc8U, 0xbd729a4e3d9db119U,
  0xbd1db1193d29d26aU, 0xbdf8aaf6bcda57acU, 0x3e513eb03e0876ccU, 0xbd1db1193d8b7f20U,
  0xbdc2150b3c729a4eU, 0x3d7ebb9e3d29d26aU, 0xbdd44704bd6678fdU, 0xbe0876cc3dce365cU,
  0xbcf29a4e3da3c1c1U, 0x3bc2150bU, 0xbca9d26abe056e78U, 0x3dc825b33e0b7f20U,
  0xbe0876cc3d7ebb9eU, 0xbda9d26a3d5a57acU, 0x3e14981c3c918fc8U, 0xbe1db1193c42150bU,
  0xbcf29a4ebdd44704U, 0x3dfebb9ebb42150bU, 0x3c918fc83d35f3baU, 0x3ea0b96d3e35f3baU,
  0xbd6678fd3d8b7f20U, 0x3e0e87743d6678fdU, 0x3d4e365cbe451d5fU, 0x3e118fc8bd1db119U,
  0xbdf29a4ebd42150bU, 0xbd42150b3da3c1c1U, 0xbd97a071bb42150bU, 0xbd9db119U,
  0x3df8aaf6be0876ccU, 0xbe80e1f9bdd44704U, 0xbd056e78be6678fdU, 0x3e3f0cb7bec090e1U,
  0x3dd44704be8b7f20U, 0xbe729a4ebb42150bU, 0xbe83ea4d3e23c1c1U, 0xbc918fc8be8b7f20U,
  0x3dc2150bbe0876ccU, 0xbda9d26a3df8aaf6U, 0xbd1db119bc729a4eU, 0xbe6370a93d97a071U,
  0x3c918fc8be0b7f20U, 0x3b42150bbe544704U, 0x3d729a4e3e4e365cU, 0x3dec89a5bdb5f3baU,
  0xbcf324253de1c622U, 0xbe3ab29cbe6a7523U, 0x3dadac1abcf32425U, 0x3c0af015be24fd19U,
  0xbd2dac1abd3f0a1dU, 0xbde1c622bdbf0a1dU, 0x3b8af015be3ab29cU, 0xbda4fd193d8af015U,
  0x3e069894bd3f0a1dU, 0x3d61c622bcf32425U, 0x3dbf0a1dbdc7b91eU, 0xbcd06820bd2dac1aU,
  0xbd1c4e183c8af015U, 0xbe0af015be61c622U, 0xbd3f0a1dbd2dac1aU, 0xbb8af0153dd06820U,
  0xbe0af0153e17f697U, 0xbd939f16bd824114U, 0x3d8241143d2dac1aU, 0xbd61c622bda4fd19U,
  0x3d7324253c8af015U, 0xbd1c4e183e365b1cU, 0xbd939f163dea7523U, 0x3d939f16be3ab29cU,
  0xbdc7b91ebcd06820U, 0x3c0af0153df32425U, 0x3dd917213c506820U, 0x3d9c4e183df32425U,
  0xbda4fd19bd2dac1aU, 0xbcadac1a3cf32425U, 0xbd3f0a1d3e024114U, 0x3d61c6223d61c622U,
  0x3b8af015bf09da35U, 0xbe9a22573e1c4e18U, 0x3dbf0a1d3d506820U, 0x3e1c4e18be43619eU,
  0xbdfbd326be0af015U, 0xbec135ddbdb65b1cU, 0xbe43619e3e20a598U, 0x3e61c622be1c4e18U,
  0xbe824114bda4fd19U, 0xbdea75233db65b1cU, 0xbd8af0153cf32425U, 0xbcadac1a3df32425U,
  0x3d506820beb65b1cU, 0x3e5d6ea1U, 0x3c5068203c0af015U, 0xbc0af015be7bd326U,
  0x3d7324253e20a598U, 0xbe5068203e869894U, 0xbebcde5d3d2dac1aU, 0x3e9e79d83e3f0a1dU,
  0x3e0698943e2dac1aU, 0x3dea7523bd939f16U, 0x3d824114bcd06820U, 0xbcadac1abd732425U,
  0x3dc7b91ebd8af015U, 0x3d1c4e183dadac1aU, 0x3e43619e3e661da3U, 0xbe9a2257be069894U,
  0xbe5d6ea1be29549aU, 0xbe9e79d8bea4fd19U, 0x3de1c6223d61c622U, 0x3e47b91e3e069894U,
  0x3e27a7b9bdb6e584U, 0x3c8e40bcbcdf8a4cU, 0x3cb6e584be0bb670U, 0x3d8e40bcbe621498U,
  0x3d84178a3d2cbc52U, 0xbdcb37e8bdda75b3U, 0x3d935555be0e40bcU, 0x3e229320bd84178aU,
  0xbd410eb6U, 0x3e345b383dc10eb6U, 0xbbf3dcb03d73dcb0U, 0x3e4b37e8bd935555U,
  0xbd9869eebd04178aU, 0x3d84178abe10cb08U, 0xbd2293203d9d7e87U, 0xbd1869ee3d84178aU,
  0xbe04178a3d69b37eU, 0x3db6e584be6c3dcaU, 0xbe15dfa2bd73dcb0U, 0x3dacbc523e2a3206U,
  0x3deec817bda29320U, 0x3dacbc523e06a1d6U, 0xbd410eb6bda7a7b9U, 0xbd9355553d8e40bcU,
  0x3d69b37e3e135555U, 0x3ba29320be251d6cU, 0xbbf3dcb0be229320U, 0xbdda75b3be06a1d6U,
  0xbda7a7b9bdb1d0ebU, 0xbd04178abd229320U, 0xbe0bb670bda29320U, 0xbdd04c813d1869eeU,
  0xbd55611a3dbbfa1dU, 0xbdacbc52U, 0x3dd04c813dd04c81U, 0x3d9355553dd5611aU,
  0xbe439902bdbbfa1dU, 0x3d7e05e23e0bb670U, 0xbd84178a3e2a3206U, 0xbcb6e584bda7a7b9U,
  0x3d229320bd4b37e8U, 0x3d1869ee3e892c23U, 0xbdc10eb63d410eb6U, 0xbbf3dcb0bd55611aU,
  0x3d5f8a4c3bf3dcb0U, 0xbcf3dcb0bd9869eeU, 0xbccb37e8be8bb670U, 0x3e6ec817be31d0ebU,
  0xbde9b37ebd892c23U, 0x3d9869ee3c229320U, 0x3d04178a3ca29320U, 0xbe10cb08bd8e40bcU,
  0xbdfe05e2be48ad9cU, 0xbcf3dcb0bdb6e584U, 0xbd8e40bc3e31d0ebU, 0xbcb6e584bde9b37eU,
  0x3d2293203cb6e584U, 0xbde49ee53dd5611aU, 0xbea14dfabdd5611aU, 0x3e04178a3e2f469eU,
  0x3dbbfa1dU, 0x3e018d3ebe04178aU, 0x3bf3dcb0be46234fU, 0x3dc10eb63d892c23U,
  0x3beb6ee23e16d309U, 0x3c93254dbe046e5fU, 0x3c30932a3d21dc3bU, 0x3b6b6ee2bbeb6ee2U,
  0xbe3b9c5c3d8bc9d6U, 0x3d13254dbc30932aU, 0x3c93254dbd13254dU, 0xbe3440e53dbf4a18U,
  0x3c93254d3e4e0106U, 0x3c93254dbdce0106U, 0x3e3f4a183e6065afU, 0x3c93254dbdb0932aU,
  0xbdbf4a183e046e5fU, 0xbe1a80c43d046e5fU, 0xbd3f4a183beb6ee2U, 0x3d4e01063d13254dU,
  0xbdb0932abe2589f7U, 0x3d3f4a183b6b6ee2U, 0x3deb6ee23d846e5fU, 0xbda1dc3bbc6b6ee2U,
  0xbda1dc3bbdf2ca59U, 0x3d13254dbdb7eea1U, 0xbcce0106bd21dc3bU, 0xbe51aec13deb6ee2U,
  0xbe46a58fbd30932aU, 0xbd6b6ee23b6b6ee2U, 0xbe4e0106be3f4a18U, 0xbdb0932a3c30932aU,
  0x3e13254dbdc6a58fU, 0x3deb6ee23e30932aU, 0xbdbf4a18bbeb6ee2U, 0x3c6b6ee2bceb6ee2U,
  0xbe0bc9d6be2ce56eU, 0x3d046e5f3d30932aU, 0x3dce01063d3f4a18U, 0xbe2589f7bdfa25d0U,
  0xbe046e5f3e0f7792U, 0xbc93254d3dbf4a18U, 0xbd3f4a183e6f1c9eU, 0x3c6b6ee23e1e2e80U,
  0xbe5cb7f4bcb0932aU, 0xbdbf4a18bdf2ca59U, 0xbdf2ca59be829781U, 0x3e64136b3d6b6ee2U,
  0x3e4e0106be1a80c4U, 0x3e3440e53e3f4a18U, 0x3dc6a58fbdbf4a18U, 0xbcce0106bd93254dU,
  0x3da937b2bee99804U, 0xbd4e01063e13254dU, 0xbc6b6ee2be3f4a18U, 0x3ddcb7f4be37eea1U,
  0x3beb6ee2be9c57a2U, 0xbe8f7792be00c0a4U, 0xbe4e01063cce0106U, 0xbd7a25d0bea3b319U,
  0x3d9a80c4bd3f4a18U, 0x3d4e01063e21dc3bU, 0x3dd55c7d3ddcb7f4U, 0xbd5cb7f43d846e5fU,
  0x3d13254dbe46a58fU, 0xbb6b6ee23da1dc3bU, 0x3d4e01063df2ca59U, 0x3d7a25d0be72ca59U,
  0xbe36cd0f3dd8a72eU, 0x3df83f8fbd106f74U, 0xbe106f74bde1ae25U, 0xbe00a3433dab845aU,
  0x3d2b845abe19766bU, 0xbdfcc30b3de631a1U, 0x3ceab51c00000000U, 0x3e1df9e73d2b845aU,
  0x3deab51c3c106f74U, 0xbdb48b51be07687dU, 0xbe106f74bd227d62U, 0x3e07687d3deab51cU,
  0xbc348b513e63efe3U, 0x3de1ae253db48b51U, 0xbe6cf6dabe106f74U, 0x3dfcc30b3deab51cU,
  0xbd9df9e7bd07687dU, 0xbdd8a72e3dfcc30bU, 0xbd2b845abe469940U, 0xbda700debe0bebf8U,
  0x3e3b508abdb007d5U, 0xbe09aa3b3d61ae25U, 0xbe5d2aaa3ceab51cU, 0x3e19766bbd87687dU,
  0x3d227d623d58a72eU, 0xbe02e5013d87687dU, 0xbde1ae253dd8a72eU, 0xbd19766bbe19766bU,
  0xbdcb1cbbbe12b132U, 0xbe2700de3d87687dU, 0xbd8bebf8bd2b845aU, 0xbe29429cbd227d62U,
  0xbb906f74be390ecdU, 0xbe3249933d7cc30bU, 0x3e3007d53d9df9e7U, 0x3d07687dbe348b51U,
  0x3cb48b513d07687dU, 0xbdf3bc143dd423b2U, 0x3b106f743e390ecdU, 0xbe1734ad3dab845aU,
  0xbdb007d53d469940U, 0xbcd8a72e3e12b132U, 0xbe106f743d9df9e7U, 0x3e07687d3e6631a1U,
  0x3e8f4e953d73bc14U, 0x3e2dc6183d469940U, 0xbc348b513da700deU, 0xbe106f74bbd8a72eU,
  0x3d348b51bdbd9248U, 0x3bd8a72ebd2b845aU, 0xbe12b132bde1ae25U, 0xbdb48b513de631a1U,
  0xbbd8a72ebde1ae25U, 0x3c58a72ebe1bb829U, 0x3cb48b51be07687dU, 0xbcd8a72e3e09aa3bU,
  0x3d9df9e7bd3d9248U, 0x3e6631a1be58a72eU, 0x3de1ae253d58a72eU, 0x3d227d62bdf83f8fU,
  0x3c906f74be1df9e7U, 0x3da700de3e227d62U, 0xbdab845abd906f74U, 0xbd99766bbd07687dU,
  0x3e38ad093dc38a09U, 0xbe7d7a0c3d763c0cU, 0x3cadd0083d981607U, 0xbe025c063c67c00bU,
  0x3d1f54083c90d807U, 0x3ce7c00b3d4ac80aU, 0xbc67c00b3df63c0cU, 0xbc2dd008bd899a07U,
  0xbd825c06bc2dd008U, 0x3e22f3083cadd008U, 0x3dd2060a3d2dd008U, 0x3d025c06bd825c06U,
  0xbc67c00b3ccac80aU, 0x3d763c0cbe22f308U, 0x3de7c00b3d9f5408U, 0x3dcac80abd899a07U,
  0x3d763c0cbdd9440aU, 0xbed0368a3d4ac80aU, 0x3e0d3907bd025c06U, 0xbe2a31083d9f5408U,
  0xbd90d8073dd2060aU, 0xbe099a073dcac80aU, 0xbcadd0083e181607U, 0xbb67c00b3d825c06U,
  0xbe2a31083d981607U, 0xbe22f308bd025c06U, 0x3d90d807bdeefe0bU, 0xbb67c00b00000000U,
  0x3d899a07bdc38a09U, 0xbdcac80abd67c00bU, 0xbc90d8073c2dd008U, 0x3d2dd008bda69208U,
  0x3db50e09be59440aU, 0xbeb8ad09bdfd7a0cU, 0xbe05fb063d90d807U, 0x3dd9440abde7c00bU,
  0xbe4ac80abdb50e09U, 0xbe0d39073db50e09U, 0xbe181607be842b86U, 0xbe947707bb67c00bU,
  0xbe1bb507be2dd008U, 0xbd4ac80a3d59440aU, 0x3d763c0cbe1f5408U, 0xbdcac80a3c2dd008U,
  0xbd59440abdb50e09U, 0xbe763c0cbdadd008U, 0x3da69208bd67c00bU, 0x3d2dd0083c67c00bU,
  0xbe4e670abdfd7a0cU, 0xbee5f08bbe4ac80aU, 0xbe22f308be67c00bU, 0xbbe7c00b00000000U,
  0xbd3c4c09bd3c4c09U, 0xbe899a07be2dd008U, 0xbd899a07bbe7c00bU, 0xbe22f308be7d7a0cU,
  0x3cadd008bc2dd008U, 0xbe438a09be4ac80aU, 0x3dcac80abe025c06U, 0xbda69208be316f08U,
  0xbe350e093dadd008U, 0xbd4ac80abd1f5408U, 0xbdadd0083db50e09U, 0xbd67c00bbe025c06U,
  0xbcf34394bba22d0dU, 0x3e8b5eb73d03c49bU, 0xbd92f8d43da73e75U, 0xbd4ab8503db16146U,
  0xbe2ed892bc734394U, 0x3e4ab8503c4ab850U, 0x3ca22d0d3dc5a6e8U, 0x3e107020bcdefdf2U,
  0x3d6920c3bc222d0dU, 0xbd6920c33db16146U, 0x3da73e7500000000U, 0x3d6920c33d222d0dU,
  0x3e1581883c4ab850U, 0xbdbb84173dee322bU, 0x3e1d1ba53d0de76bU, 0x3c4ab850bd6920c3U,
  0xbde920c33d222d0dU, 0x3df34394bda22d0dU, 0x3c4ab850be273e75U, 0xbe40957fbe0de76bU,
  0x3c222d0d3e1d1ba5U, 0x3ea0e8b33df854fcU, 0x3cb672afbdac4fdeU, 0xbdb672afbd54db21U,
  0x3e273e75bdac4fdeU, 0xbd222d0d3d92f8d4U, 0xbe29c72abe3672afU, 0x3da22d0d3d54db21U,
  0xbc4ab850bde920c3U, 0xbe4fc9b9bda73e75U, 0x3df854fc3d3672afU, 0x3ba22d0dbd5efdf2U,
  0x3d0de76b3cdefdf2U, 0xbd4ab850be1fa459U, 0xbe03c49b3e33e9faU, 0x3e2c4fde3d92f8d4U,
  0xbccab850bdbb8417U, 0x3c734394be316146U, 0xbde920c3bd2c4fdeU, 0xbd980a3c3e2c4fdeU,
  0x3c4ab850bdbb8417U, 0x3e1a92f0be0b5eb7U, 0x3d7d6664bd3672afU, 0xbccab850bd83c49bU,
  0xbb222d0d3d180a3cU, 0xbdb161463d8de76bU, 0x3dd9ec89bd83c49bU, 0xbe03c49bbba22d0dU,
  0xbb222d0dbc222d0dU, 0xbc8de76bbe158188U, 0xbe59ec893d180a3cU, 0x3cdefdf23e1d1ba5U,
  0x3dcfc9b9bde40f5aU, 0xbd980a3cbe107020U, 0x3de40f5abbf34394U, 0xbd5efdf23de40f5aU,
  0xbdfd66643da73e75U, 0xbd8de76bbe45a6e8U, 0x3da22d0d3ccab850U, 0x3d2c4fde3c4ab850U,
  0xbdac4fde3df34394U, 0xbb222d0d3e4fc9b9U, 0xbe03c49bbc8de76bU, 0xbe5c753e3c222d0dU,
  0xbe11c2c53e40b364U, 0x3d9e1d0a3d31e0abU, 0xbced2b8f3e2a774fU, 0xbe6d2b8f3d5967eeU,
  0xbe0f4a513e11c2c5U, 0x3e394a083dacefc3U, 0x3cd967ee3cd967eeU, 0xbdd477053dde58d6U,
  0xbe192c223cd967eeU, 0x3d8568803c45a44cU, 0xbe2cefc3bd992c22U, 0x3cc5a44cbe07e0f5U,
  0x3d5967eebd992c22U, 0x3db6d1943e16b3aeU, 0xbd45a44cbdc0b364U, 0x3d992c22bdc0b364U,
  0xbe2f6837be87e0f5U, 0x3d770d603d6349beU, 0xbd143b39be683aa7U, 0xbd807798be7bfe48U,
  0x3e1ba496be056880U, 0xbe2cefc33db1e0abU, 0xbdcf861dbda7fedbU, 0x3d27fedbbc6d2b8fU,
  0xbe143b39be230df2U, 0xbced2b8fbe0f4a51U, 0xbd992c223dfbfe48U, 0x3dcf861d3df70d60U,
  0x3d770d60be1ba496U, 0xbe0f4a513d992c22U, 0x3df70d603d8a5969U, 0xbe27fedb3bed2b8fU,
  0xbe1e1d0abe9ce0d0U, 0xbb9e1d0a3e7985d4U, 0x3d3bc27cbd770d60U, 0x3c6d2b8fbe40b364U,
  0xbd8f4a51be56ef7aU, 0xbdc5a44c3d4f861dU, 0xbe20957e3e7985d4U, 0x3e547705bc9e1d0aU,
  0xbb9e1d0a3cd967eeU, 0xbdd477053db6d194U, 0x3c9e1d0abb1e1d0aU, 0x3c1e1d0a3e07e0f5U,
  0x3e5be062bd9e1d0aU, 0x3d770d603db6d194U, 0x3d1e1d0abd807798U, 0x3d27fedb3d6349beU,
  0x3e0f4a51bda7fedbU, 0x3db6d194bd9e1d0aU, 0xbe7bfe48be721c77U, 0x3c6d2b8f3df21c77U,
  0x3e0a59693c8a5969U, 0xbe02f00cbcb1e0abU, 0xbe02f00cbe007798U, 0xbda7fedbbd6349beU,
  0x3e0a5969bd143b39U, 0xbd8f4a513dacefc3U, 0x3cc5a44c3e07e0f5U, 0xbe0f4a51be0f4a51U,
  0xbdca9535bd8f4a51U, 0x3d5967eebe4a9535U, 0x3e7985d43e20957eU, 0xbe02f00cbdfbfe48U,
  0xbdecbac43d64d6acU, 0x3e0a179d3d91fbb4U, 0x3e21c3e43d2d9a07U, 0x3e25b5ef3e3b6930U,
  0xbe19dfcc3c7c82f3U, 0x3d7c82f33c5cf295U, 0x3de4d6ac3dd50e7dU, 0x3afc82f33e318c13U,
  0xbdb9702abcdcf295U, 0x3e11fbb4bc8e09a9U, 0xbd9dd1d8bd8a179dU, 0xbd2d9a073cfc82f3U,
  0x3cad9a07bd8a179dU, 0xbcdcf2953d4d2a65U, 0xbd95edc0be1002afU, 0xbbbd6236be13f4baU,
  0xbc8e09a93dd50e7dU, 0x3e0a179d3e377725U, 0xbe023385bb7c82f3U, 0x3e17e6c63c5cf295U,
  0x3d25b5ef3c7c82f3U, 0xbafc82f3bdecbac4U, 0x3dfc82f33e21c3e4U, 0x3da1c3e43c9dd1d8U,
  0xbafc82f33d9dd1d8U, 0x3d95edc03d550e7dU, 0x3dd900893d9dd1d8U, 0x3d357e1fbc3d6236U,
  0xbcecbac4be0a179dU, 0x3d6cbac4be023385U, 0x3d0625913ddcf295U, 0x3d550e7d3db57e1fU,
  0x3dc154423da5b5efU, 0xbe7890e73dad9a07U, 0xbd8a179d3dad9a07U, 0xbcad9a073d8a179dU,
  0xbda5b5ef3e1002afU, 0x3dc5464e3cecbac4U, 0x3da1c3e4bdb57e1fU, 0x3cdcf295be377725U,
  0x3c9dd1d8be023385U, 0xbd45464e3d357e1fU, 0x3cbd62363da9a7fbU, 0xbcad9a07be749edbU,
  0xbdcd2a653c5cf295U, 0xbdb9702abdd90089U, 0xbdb9702a3d062591U, 0xbe23bceabe318c13U,
  0xbd862591bd3d6236U, 0xbc8e09a9be7a89edU, 0xbafc82f33d062591U, 0xbd99dfccbc7c82f3U,
  0x3e0e09a9be377725U, 0xbd9dd1d8be434d48U, 0xbe11fbb43cbd6236U, 0x3d3d6236be590089U,
  0x3cbd6236bdb9702aU, 0x3d2d9a073d1dd1d8U, 0x3afc82f33dc5464eU, 0xbe17e6c6bdf0acd0U,
  0xbd4d2a65be023385U, 0xbe5eeb9bbafc82f3U, 0xbe0c10a33de4d6acU, 0x3d8e09a93d45464eU,
  0xbded8fd63d8fa45eU, 0x3d30ca4c3d8a1e0bU, 0x3d7e22cdbe152ab0U, 0x3cdcfcdf00000000U,
  0xbdd7768dbe6accadU, 0x3d1ab1023d731628U, 0xbe731628bdc6e396U, 0xbe1d742cbcdcfcdfU,
  0xbdfe22cd3d5cfcdfU, 0x3d0fa45ebc30ca4cU, 0xbdb6509ebd0fa45eU, 0xbe2880d03bb0ca4cU,
  0xbc5cfcdfbe126787U, 0xbe25bda73ded8fd6U, 0xbd30ca4c3c9ab102U, 0xbe0497b93c0497b9U,
  0xbe1d742c3e0497b9U, 0xbd0fa45e3dfe22cdU, 0x3c8497b9be01d490U, 0x3d680984U,
  0xbddcfcdf3eaf68b7U, 0x3d5cfcdf3cb0ca4cU, 0x3dfe22cd3d1ab102U, 0x3cc6e396bdab43faU,
  0x3d8497b9bdf31628U, 0xbd1ab102be152ab0U, 0x3d8a1e0bbd25bda7U, 0xbd7e22cdbbb0ca4cU,
  0x3e152ab0bd5cfcdfU, 0x3e01d4903e203755U, 0x3da03755be152ab0U, 0xbdb6509e3d0fa45eU,
  0xbd46e3963d5cfcdfU, 0xbe0a1e0b3d3bd6f1U, 0xbe6d8fd6bd8fa45eU, 0x3d46e396be9105f2U,
  0x3d46e3963b30ca4cU, 0xbe0497b9be203755U, 0xbc0497b9be44206cU, 0xbd680984be4c69e8U,
  0xbde28331bdc15d43U, 0x3d0fa45e3d46e396U, 0xbdfe22cdbe1ab102U, 0xbdf89c7bbe51f03aU,
  0xbe88bc77bc5cfcdfU, 0xbe25bda7be3bd6f1U, 0x3d1ab1023dfe22cdU, 0xbd8fa45ebe0ce135U,
  0x3da03755bdbbd6f1U, 0x3bb0ca4c3db0ca4cU, 0xbe17edd9bdf31628U, 0xbde809843c0497b9U,
  0x3dbbd6f13c0497b9U, 0xbd0fa45e00000000U, 0xbdc6e396bd8497b9U, 0xbd6809843cdcfcdfU,
  0x3e0ce135bb30ca4cU, 0x3c30ca4c3cdcfcdfU, 0xbde28331be0497b9U, 0x3db6509ebd952ab0U,
  0xbcdcfcdf3e075ae2U, 0xbde28331be36509eU, 0xbd1ab102bdd7768dU, 0x3db0ca4cbd680984U,
  0xbe0c15d5bdd4632aU, 0xbe1e292a3d0790ffU, 0x3d6afb543db4c154U, 0xbdc6d4aa3d3dcaffU,
  0xbd19a4553d4fde54U, 0xbe09d36a3de6767fU, 0x3d951f7fbe0790ffU, 0xbe34c1543d9e292aU,
  0x3e0790ff3de6767fU, 0xbca2adff3e054e95U, 0x3dc24fd4be0c15d5U, 0x3da732d53e151f7fU,
  0xbd19a4553d46d4aaU, 0x3d22adff3c34c154U, 0xbc109aaa3ceafb54U, 0xbe1e292abdc6d4aaU,
  0x3d8c15d5bdbdcaffU, 0xbe80c9bf3e19a455U, 0xbe3b8894bd22adffU, 0x3cd8e7ffbd830c2aU,
  0xbda2adffbdabb7aaU, 0xbdcb597fbdd8e7ffU, 0x3cd8e7ffbd3dcaffU, 0xbdcb597fbd34c154U,
  0xbdf889d4bdd8e7ffU, 0x3e109aaabd99a455U, 0xbe12dd15bd109aaaU, 0x3de6767f3d951f7fU,
  0xbe12dd15bde1f1aaU, 0x3db4c1543e1e292aU, 0xbddd6cd43c58e7ffU, 0xbe327eea3d58e7ffU,
  0x3dfd0eaa3db9462aU, 0x3e206b95bcc6d4aaU, 0x3c58e7ff3c7d0eaaU, 0x3d8c15d53d46d4aaU,
  0x3e8f79753dd8e7ffU, 0x3e12dd153d22adffU, 0xbdcfde543d19a455U, 0x3e81eaf5be327eeaU,
  0xbdb03c7f3d2bb7aaU, 0xbe1e292a3e1be6bfU, 0xbb109aaa3e68b8eaU, 0xbe5220bfbe7acc3fU,
  0xbceafb543e0c15d5U, 0xbdef802abe400d6aU, 0xbe866fca3e2dfa15U, 0xbd2bb7aabd0790ffU,
  0xbdef802a3e56a594U, 0xbdeafb54bd909aaaU, 0x3d58e7ffbd0790ffU, 0xbe00c9bf3da732d5U,
  0xbe61f1aa3e303c7fU, 0xbd58e7ffbcd8e7ffU, 0x3b109aaabd951f7fU, 0xbe5faf3f3e3dcaffU,
  0x3e0e583fbe19a455U, 0xbe424fd43db03c7fU, 0x3dfd0eaabb109aaaU, 0xbc7d0eaabc58e7ffU,
  0x3e2dfa153d61f1aaU, 0x3de1f1aabcfd0eaaU, 0xbe206b953e3b8894U, 0xbd22adffbe5faf3fU,
  0xbe1027cbbd44e52eU, 0x3c8ca3b4bd6f164bU, 0x3d6f164b3d52f58dU, 0xbd859b843d93abe3U,
  0xbd8ca3b4bde105ecU, 0xbe44e52e3e254059U, 0x3b6105ecbe0ca3b4U, 0xbe4f71763d0ca3b4U,
  0x3cfd26aabe1e382aU, 0xbe36d4d03e1027cbU, 0x3c8ca3b43b6105ecU, 0x3e1e382a3dd9fdbdU,
  0x3ce105ecbd28c471U, 0xbcc4e52e3e1ab412U, 0x3dd2f58d3d36d4d0U, 0xbdcbed5ebdafcca0U,
  0x3db6d4d03e02176cU, 0xbe875d90bda8c471U, 0xbe21bc423ca8c471U, 0xbc28c4713e091f9cU,
  0xbdd2f58d3d52f58dU, 0xbe8ae1a8bd7d26aaU, 0x3cc4e52ebcfd26aaU, 0x3dfd26aabe1e382aU,
  0xbcc4e52e3e3350b8U, 0x3e28c471bdcbed5eU, 0xbd28c4713de105ecU, 0xbc28c471bdf61e7aU,
  0xbe52f58dbd1ab412U, 0x3d6f164bbda1bc42U, 0xbd6105ec3da1bc42U, 0x3d93abe33e02176cU,
  0x3d93abe33e486946U, 0xbe2c48893dd2f58dU, 0xbe3a58e7bca8c471U, 0x3de80e1bbd44e52eU,
  0x3dcbed5ebd1ab412U, 0xbcc4e52ebd7d26aaU, 0xbd9ab412bd8ca3b4U, 0x3dd2f58dbd52f58dU,
  0xbce105ecbd8ca3b4U, 0x3e486946bd93abe3U, 0x3d0ca3b4bd52f58dU, 0x3e28c4713d93abe3U,
  0xbda1bc42bd1ab412U, 0x3d44e52e3de105ecU, 0xbd0ca3b43da1bc42U, 0x3d6105ecbca8c471U,
  0xbda8c4713edf43e0U, 0xbd7d26aabe6105ecU, 0xbc6105ec3d36d4d0U, 0xbd93abe33b6105ecU,
  0x3ce105ec3e4f7176U, 0x3dfd26aabd0ca3b4U, 0x3dcbed5ebdf61e7aU, 0x3dcbed5ebe0ca3b4U,
  0xbc6105ec3de105ecU, 0x3d36d4d03e3a58e7U, 0xbe13abe33e21bc42U, 0x3e486946bde105ecU,
  0x3b6105ec3e6b9233U, 0x3dcbed5ebbe105ecU, 0xbe059b843db6d4d0U, 0x3d6105ec3cfd26aaU,
  0x3cd453d2be4ba164U, 0x3e5e2970bba9c448U, 0x3c856db1bd6f18f2U, 0x3b856dc63ba23f98U,
  0xbea22b233bdb42fbU, 0x3c3b809fbd57adfdU, 0xbcc733933d74b2c3U, 0x3ebc57f7bd844a53U,
  0x3df99e9fbcd43c5fU, 0x3d9140eb3d8532e2U, 0xbe966b8fbe95813fU, 0xbe6f2e373ddeaa18U,
  0xbe2114543e8c58b3U, 0xbad1ecbdbcf11191U, 0x3d934f153ea9deebU, 0x3e637b753dc8cc8aU,
  0xbdc88879bd943859U, 0x3de2b088bd2e6069U, 0x3da14c6100000000U, 0xbb8b80543d8fdc57U,
  0x3d1cf05e3c8b8054U, 0xbe1ac25dbd62b088U, 0xbc9cf05e3e64de8aU, 0x3d98945cbe237a62U,
  0xbdb2bc6cbd62b088U, 0x3cf42093be072451U, 0xbe34ea6dbda14c61U, 0x3d7cd8983e1ac25dU,
  0x3d0b805400000000U, 0x3e0724513d488879U, 0xbdde5486bd872451U, 0x3c51407e3cf42093U,
  0xbc2e6069bd37186eU, 0xbc2e60693c2e6069U, 0x3cd1407e3d2e6069U, 0xbdb2bc6c3cf42093U,
  0xbbd1407ebbd1407eU, 0xbd1cf05ebd8b8054U, 0x3cf420933d98945cU, 0xbce2b0883cf42093U,
  0x3cd1407ebd488879U, 0xbd8fdc573d62b088U, 0xbc9cf05ebd59f883U, 0xbe143859bd943859U,
  0xbc8b8054bd82c84fU, 0x3c8b8054bdd9f883U, 0xbdae6069bd59f883U, 0x3c8b80543dcce47bU,
  0x3d9cf05e3d1cf05eU, 0xbb8b8054bda14c61U, 0xbd943859be237a62U, 0xbd488879bdfcd898U,
  0x3d37186e00000000U, 0xbe0dae55be5c2685U, 0xbdb2bc6c3e394670U, 0xbd37186ebe8a6953U,
  0x3de70c8bbdb7186eU, 0x3d488879bdd59c81U, 0xbd82c84f3d8b8054U, 0xbd6b688e3dcce47bU,
  0x3e02c84f3cbfd074U, 0xbc742093bd143859U, 0x3d742093bd25a864U, 0xbe488879bd59f883U,
  0x3dbb7471be2e6069U, 0xbc0b8054bdbfd074U, 0xbdd1407ebdbfd074U, 0xbe237a62bdde5486U,
  0x3daa04663db7186eU, 0xbd1cf05ebd8fdc57U, 0x3cf42093bd0b8054U, 0x3dbb7471bd59f883U,
  0x3c9cf05ebb8b8054U, 0xbd51407e3d488879U, 0x3d37186ebb8b8054U, 0xbc2e60693e214c61U,
  0x3d4888793d2e6069U, 0xbe009a4d3cbfd074U, 0x3d872451bd8fdc57U, 0xbd6b688e3c0b8054U,
  0x3c05892abd5c5585U, 0x3e07347a3cad98b6U, 0x3d55a843bd12e3aeU, 0xbba03e323da03e32U,
  0x3dc1a07d3d5c5585U, 0xbd55a8433d6302c7U, 0xbc92e3ae3dbaf33bU, 0xbe484dbfbd705d4bU,
  0x3db79c9abc92e3aeU, 0x3cad98b6bdf3b3ecU, 0x3d41a07dbdf05d4bU, 0xbe3ff52cbd12e3aeU,
  0xbcad98b63d3445f9U, 0xbd55a843bcbaf33bU, 0x3cad98b63d8f8d0dU, 0xbdc4f71e3c05892aU,
  0xbc85892abd26eb74U, 0x3d770a8dbb55a843U, 0x3cd5a843bb55a843U, 0x3d9ce7913e07347aU,
  0x3ce302c7bd26eb74U, 0x3c85892a3d823289U, 0x3d963a4f3d55a843U, 0x3d3af33bbe12e3aeU,
  0xbda03e323e023289U, 0xbe023289be203e32U, 0xbdaa4215U, 0x3ca03e323d705d4bU,
  0xbe12e3aebd3445f9U, 0xbc85892abc05892aU, 0xbc203e32bd55a843U, 0xbdf05d4bbd3af33bU,
  0x3dc1a07dbd85892aU, 0xbe11385e3ad5a843U, 0xbe2f4407bd3445f9U, 0x3d55a8433c92e3aeU,
  0x3d770a8dbe0c366cU, 0x3d770a8d3d484dbfU, 0x3cbaf33bbd55a843U, 0xbcfdb7d03d3445f9U,
  0xbad5a843bc3af33bU, 0x3dfa612f3d85892aU, 0x3ca03e32bdc84dbfU, 0xbd9ce791bda394d3U,
  0x3d85892a3d5c5585U, 0x3d770a8dbd7db7d0U, 0x3da03e32bdcba460U, 0x3d26eb74bc203e32U,
  0xbda03e32be2a4215U, 0x3c05892a3dfa612fU, 0x3c92e3aebd705d4bU, 0x3dd8fee4bd203e32U,
  0x3cd5a843bde65968U, 0xbddc5585bce302c7U, 0x3e44f71ebd8f8d0dU, 0xbe05892abc3af33bU,
  0xbe21e983bdb0ef57U, 0x3dd5a8433d05892aU, 0x3d0c366cbd203e32U, 0xbe379c9a3d92e3aeU,
  0x3c203e32be0c366cU, 0xbdb0ef573dd251a2U, 0x3e53fcf23e1b3c41U, 0xbca03e32U,
  0x3c9f65f43cacae73U, 0x3d8827163dd487f0U, 0x3e0b7936bd921d75U, 0x3d39f6f23de874aeU,
  0x3d39f6f2bd5487f0U, 0xbd75bd2e3b5487f0U, 0xbdfc616dbdb00093U, 0xbd75bd2ebd84d4f6U,
  0x3d61d06f3bd487f0U, 0xbcacae73be424441U, 0x3c84d4f6bd9c13d4U, 0x3d409b323e107465U,
  0x3c6f18eebc6f18eeU, 0x3c84d4f63c6f18eeU, 0x3d8b7936bd39f6f2U, 0xbe52dee03e43ed51U,
  0xbd6874ae3d61d06fU, 0xbdb00093be4de3b0U, 0xbcacae73bc5487f0U, 0xbd9f65f4bd18c1b4U,
  0x3e0b7936bd121d75U, 0x3d1f65f4bcc73f71U, 0x3d0b7936be1a6ac4U, 0xbd3352b2bd3352b2U,
  0xbe2cae73bdc09b32U, 0x3c5487f0bcc73f71U, 0xbd9f65f43e0b7936U, 0xbe1718a53c5487f0U,
  0x3d121d75be0182d6U, 0x3cc73f713dc09b32U, 0x3c84d4f6bd2cae73U, 0xbc5487f0bc1f65f4U,
  0x3dd135d0be27b343U, 0x3c6f18eebd882716U, 0xbe0ecb55bdef18eeU, 0x3cc73f713d61d06fU,
  0x3ce1d06fbdde7e4fU, 0x3c921d75bd18c1b4U, 0x3db000933da60a34U, 0xbd473f713d2cae73U,
  0x3b5487f03db352b2U, 0xbd8182d63d8b7936U, 0x3dc09b32bd1f65f4U, 0xbdb6a4d2bde5228fU,
  0xbbd487f0bd6f18eeU, 0x3cb9f6f23da2b814U, 0xbe0ecb553d473f71U, 0xbd8ecb553e36a4d2U,
  0xbad487f0bd0b7936U, 0xbe3352b2bd882716U, 0xbd260a34bdd487f0U, 0x3df26b0e3d1f65f4U,
  0xbdf5bd2ebd84d4f6U, 0xbd409b323dacae73U, 0x3dd7da10bcacae73U, 0x3d7c616d3dd487f0U,
  0x3d4de3b03b5487f0U, 0x3d98c1b4bdb6a4d2U, 0x3cc73f713db9f6f2U, 0xbdcde3b0bc39f6f2U,
  0x3db9f6f2be5135d0U, 0x3cef18ee3cfc616dU, 0x3dcde3b0bc84d4f6U, 0xbd921d75bcb9f6f2U,
  0x3d8a6d29be195ad0U, 0xbd5e9165bdb06d02U, 0xbe02489fbdf9b5dbU, 0xbd4e4851bd63ff16U,
  0xbb2db629bda84878U, 0xbdadb6293d284878U, 0x3c97ff64bdb06d02U, 0xbd8d24013d84ff77U,
  0xbc6eda783d74482aU, 0xbc02489f3dce4851U, 0xbd97ff64bda2dac6U, 0x3b82489fbce3ff16U,
  0x3d696cc7bcadb629U, 0x3dbdff3d3db06d02U, 0xbdb323dabb82489fU, 0xbbd923b33d3323daU,
  0xbd79b5dbbe15488bU, 0xbaadb6293daaff50U, 0xbd07b650bdcb9178U, 0xbd696cc73badb629U,
  0xbe03a40bbdf6ff02U, 0xbd07b6503d9ab63dU, 0xbdc36cee3d2db629U, 0xbe13ed1f3d1291b3U,
  0xbdd923b3be0d2401U, 0x3c02489f3d5923b3U, 0x3d5e9165bddbda8cU, 0xbdd66cdbbe065ae4U,
  0x3d436cee3d17ff64U, 0x3d82489f3d63ff16U, 0x3d5e91653d436ceeU, 0x3d82489fbb2db629U,
  0x3db8918cbcf9b5dbU, 0xbe13ed1fbda5919fU, 0xbda84878bc5923b3U, 0xbdd923b3bdc8da9fU,
  0xbdbdff3d3dd0ff29U, 0x3dadb629bdaaff50U, 0xbdde9165bdd3b602U, 0x3c97ff64bd1291b3U,
  0xbc6eda783d84ff77U, 0xbaadb629bdce4851U, 0xbd02489f3c82489fU, 0x3d5923b33d696cc7U,
  0x3d8d2401be243633U, 0xbd2db629be0911bcU, 0xbe0a6d293cc36ceeU, 0xbdd3b602bc82489fU,
  0xbe00ed32U, 0xbd5923b33d7f238cU, 0xbdb8918cbd284878U, 0x3dc623c73bd923b3U,
  0x3cf9b5db3dd0ff29U, 0xbd82489f3d8d2401U, 0x3da2dac6bd02489fU, 0xbd696cc73dbdff3dU,
  0xbceeda783dd3b602U, 0xbe2c5abd3cd923b3U, 0xbe2aff503c436ceeU, 0xbd8d2401bd1d6d15U,
  0xbd63ff16bc17ff64U, 0xbe0d24013da5919fU, 0x3d9ab63dbe0e7f6eU, 0xbda2dac6bb2db629U,
  0x3cccaa68bd85085dU, 0x3da8d962bd05085dU, 0xbd4caa683de63fb4U, 0x3d197fcebd05085dU,
  0xbde63fb43bf59949U, 0x3dbd50d3be0cb527U, 0xbd9461f13e707b6dU, 0x3c8f4415bd8a2639U,
  0x3cb832f73dadf73eU, 0x3e16f0e0be264a74U, 0xbcb832f7bbf59949U, 0xbe1e9daabdadf73eU,
  0xbd997fcebea2740fU, 0xbd3832f73c8f4415U, 0x3d56e6203d197fceU, 0xbd2df73e3ba3bb86U,
  0x3c23bb86be197fceU, 0xbd8f4415bde63fb4U, 0xbe28d9623ce121d8U, 0x3d56e6203dadf73eU,
  0xbcb832f73d197fceU, 0xbdb3151bbdadf73eU, 0xbdb3151bbb23bb86U, 0x3d4caa683ca3bb86U,
  0x3ce121d83d759949U, 0x3c759949bd197fceU, 0xbe1461f13da3bb86U, 0xbd8f4415be3ac1e5U,
  0x3d9e9daabbf59949U, 0x3da3bb86bdb3151bU, 0x3d2df73ebda8d962U, 0xbc759949bc8f4415U,
  0xbdbd50d33db3151bU, 0xbc4caa683dadf73eU, 0x3da8d9623de63fb4U, 0x3ce121d8be426eafU,
  0xbdf59949be545732U, 0x3dd6e620bd9e9daaU, 0xbe197fcebc8f4415U, 0xbdc78c8bbe1e9daaU,
  0xbe02796fbd2df73eU, 0x3e30862c3cccaa68U, 0x3e16f0e0bba3bb86U, 0x3d85085dbd6121d8U,
  0xbd8a26393b23bb86U, 0xbe11d303bcccaa68U, 0xbcb832f7bdadf73eU, 0x3ddc03fc3e0a2639U,
  0xbdc78c8bbd23bb86U, 0x3d05085dbd3832f7U, 0x3c759949bdb832f7U, 0x3c759949be0f4415U,
  0xbdf59949bd197fceU, 0xbe0f4415bd426eafU, 0xbdffd5013ddc03fcU, 0xbe197fcebdd1c844U,
  0xbbf59949bdb832f7U, 0xbb23bb86bd197fceU, 0xbd997fce3c8f4415U, 0x3de121d8bd23bb86U,
  0xbc8f4415be478c8bU, 0x3da3bb863de63fb4U, 0x3d7fd5013e05085dU, 0xbdd1c844bba3bb86U,
  0xbd096be93dce21deU, 0xbbb73a8cbd4e21deU, 0xbe345da2bd94df92U, 0xbd8f25bdbd373a8cU,
  0x3dd3dbb2bd42ae35U, 0xbdd995863d2bc6e3U, 0xbdbcf460be7636acU, 0x3cb73a8c3d83b215U,
  0x3da60d0fbe2bc6e3U, 0xbe2330253dc2ae35U, 0x3da60d0f3dc86809U, 0x3d42ae353c896be9U,
  0xbdbcf4603c65092fU, 0x3da60d0fbd8f25bdU, 0x3e0c48d33db180b8U, 0xbe0c48d3be8db748U,
  0x3d8f25bdbd94df92U, 0xbda0533abcce21deU, 0xbdb180b83ce5092fU, 0x3cfbf080bcfbf080U,
  0xbe03b215bc096be9U, 0x3e17bc7c3cce21deU, 0x3c373a8cbdf07cd8U, 0x3d896be9be0c48d3U,
  0x3e3fd14bbdeac303U, 0xbe0f25bdbeb5cc17U, 0x3d65092fbcce21deU, 0x3d42ae35bda60d0fU,
  0xbdbcf4603da60d0fU, 0x3d2bc6e3be233025U, 0xbd599586bda60d0fU, 0x3dc2ae35bc096be9U,
  0xbd373a8c3ce5092fU, 0xbbb73a8c3d42ae35U, 0x3c096be93cce21deU, 0x3df636ac3dfbf080U,
  0x3e83b215be17bc7cU, 0xbda0533a3e0f25bdU, 0xbd14df923e14df92U, 0x3d4e21de3c373a8cU,
  0xbe4b44f3bbb73a8cU, 0x3e20533abe5f4f5bU, 0x3e345da23e1202a8U, 0x3d42ae35bc373a8cU,
  0xbd096be93e096be9U, 0x3ddf4f5bU, 0xbe3180b83d20533aU, 0x3d7bf0803de5092fU,
  0xbd373a8c3d707cd8U, 0x3e0f25bd3d65092fU, 0x3dc2ae35be1202a8U, 0xbe4e21debe458b1fU,
  0xbc096be93d20533aU, 0xbe80d52a3db180b8U, 0x3dc2ae353db73a8cU, 0xbdfbf080be2ea3cdU,
  0xbe707cd8bd096be9U, 0xbe096be93ce5092fU, 0xbc373a8c3c896be9U, 0xbd14df923e599586U,
  0x3c373a8cbd599586U, 0xbd4e21de3b373a8cU, 0x3d8f25bdbd707cd8U, 0xbcb73a8cbd42ae35U,
  0xbdcb78e8bdaa7a0eU, 0x3e5bf8543dbaf97bU, 0xbe27ba27U, 0xbe40794abd50f8b6U,
  0xbd83fb66bcf1f790U, 0xbe66f7f2bde17823U, 0x3daa7a0ebe19faa1U, 0xbcc5f9193c03fb66U,
  0x3e1cba893d50f8b6U, 0xbdf1f7903d5bf854U, 0x3cc5f919bd2ff9ddU, 0x3d45f9193e1cba89U,
  0xbde6f7f2bd45f919U, 0x3e1f7a70be2a7a0eU, 0x3caff9ddbe617823U, 0xbdc0794a3d50f8b6U,
  0x3e32b9c43c5bf854U, 0xbdaff9dd3daa7a0eU, 0x3d3af97bbd50f8b6U, 0x3d19faa13c2ff9ddU,
  0xbd3af97bbe829b72U, 0x3dfcf72ebdbaf97bU, 0x3d3af97bbc2ff9ddU, 0xbdf1f7903cc5f919U,
  0xbe7cf72ebd9f7a70U, 0xbcc5f9193d19faa1U, 0x3e5bf8543dd0f8b6U, 0xbe24fa3fbe19faa1U,
  0x3df7775fbd2ff9ddU, 0xbdfcf72ebd897b35U, 0xbcf1f790bd0efb04U, 0xbd2ff9ddbe03fb66U,
  0x3e2d39f63e433931U, 0xbbaff9ddbdd0f8b6U, 0x3daa7a0e3d7cf72eU, 0xbd3af97bbde6f7f2U,
  0xbcf1f79000000000U, 0xbd0efb043e40794aU, 0xbd24fa3fbe06bb4dU, 0xbe6178233b2ff9ddU,
  0x3de6f7f23d0efb04U, 0x3baff9ddbe0c3b1cU, 0xbde17823bd03fb66U, 0xbd24fa3f3e24fa3fU,
  0x3d71f7903d8efb04U, 0xbdaa7a0e3e897b35U, 0xbc99faa13d7cf72eU, 0xbcdbf8543e19faa1U,
  0xbc2ff9dd3e5eb83cU, 0x3d0efb043d66f7f2U, 0x3d03fb663e3af97bU, 0xbe24fa3fbcf1f790U,
  0x3d5bf854bc83fb66U, 0xbd9f7a703ddbf854U, 0x3d19faa13e989aaeU, 0x3d8efb043c5bf854U,
  0x3c99faa1beae99e9U, 0xbe7a3746bd5bf854U, 0x3c5bf854bc99faa1U, 0x3d2ff9dd3e40794aU,
  0xbd03fb663dd67885U, 0x3cf1f790bde17823U, 0xbdfcf72eU, 0xbdcb78e8bc99faa1U,
  0xbe2013fd3d2abffdU, 0xbd072d533d91d953U, 0xbc9c8553bda3a2a8U, 0x3e000ffe3dee56a7U,
  0x3be3aaa73caabffdU, 0x3da013fdbdf573fcU, 0x3e01d7533df902a7U, 0x3dd8fea7be356bfdU,
  0xbd5c8d523dd56ffdU, 0x3d9567febcc73552U, 0xbdc017fdbe1e4ca8U, 0x3b63aaa73deac7fcU,
  0x3d9c85533d072d53U, 0x3b63aaa73cd56ffdU, 0xbdf573fcbdae4ea8U, 0xbc2abffd3baabffdU,
  0x3d556ffd3e2569fdU, 0xbdb8faa83e000ffeU, 0x3b63aaa73e31dd52U, 0xbe21db53be3015fdU,
  0x3c2abffdbe1c8553U, 0x3be3aaa7be0565feU, 0xbe21db533cc73552U, 0xbe4e52a7bd9567feU,
  0x3de73952bd9c8553U, 0x3dc73552bda73153U, 0xbc0e4aa8bddc8d52U, 0x3d4017fdbcc73552U,
  0xbe1c85533e13a0a8U, 0xbe356bfdbdbc8952U, 0xbd473552bd38faa8U, 0xbbaabffdbdcac3fdU,
  0xbc2abffd3d63aaa7U, 0xbd4e52a7be373352U, 0xbd91d953bd4017fdU, 0xbe1011fe3d71e551U,
  0xbdd56ffd3e23a2a8U, 0x3c800ffebd072d53U, 0x3d8e4aa83d7902a7U, 0x3e18f6a8be373352U,
  0x3d38faa83da73153U, 0xbe31dd52bdf573fcU, 0xbde739523d31dd52U, 0xbdb1dd523cc73552U,
  0x3dd56ffdbe1c8553U, 0xbda3a2a83d800ffeU, 0xbd072d533de3aaa7U, 0x3da73153bdb8faa8U,
  0xbda013fdbc473552U, 0x3d1567fe3d1567feU, 0xbddc8d52bd072d53U, 0x3e2e4ea83d23a2a8U,
  0x3d0e4aa8bd63aaa7U, 0xbdf1e551be473552U, 0xbe3e50a83e13a0a8U, 0x3d63aaa73b63aaa7U,
  0xbd91d953bdb1dd52U, 0xbe61e352bd872d53U, 0x3ce3aaa7bc0e4aa8U, 0xbc63aaa73be3aaa7U,
  0x3d7902a7be3c8952U, 0xbdc3a6a83c9c8553U, 0x3d98f6a8bc0e4aa8U, 0xbd8e4aa8bbaabffdU,
  0xbdc1c69a3e4614f8U, 0xbd09cbcebd812f11U, 0xbd4eb1b5bd2c3ec2U, 0xbe3f9f6a3dc614f8U,
  0x3e035640bd92688bU, 0xbe308d20be2c3ec2U, 0x3d3d783bbe2c3ec2U, 0x3d812f11be1d2c77U,
  0xbcceb1b53bceb1b5U, 0x3d34db7e3e057d70U, 0xbe2c3ec2bb09cbceU, 0xbd2c3ec2bd3d783bU,
  0xbddfeb2fbcbd783bU, 0x3e035640bdb4db7eU, 0x3da3a205bd92688bU, 0xbe4a6357bb09cbceU,
  0x3d857d70bde887ecU, 0x3bceb1b5bb89cbceU, 0xbcbd783bbd2c3ec2U, 0xbe07a49fbcf124a8U,
  0xbe18de193d96b6e9U, 0xbcbd783bbe035640U, 0xbd12688b3e07a49fU, 0x3c4eb1b53c09cbceU,
  0x3e12688b3d3d783bU, 0x3d92688bbdd30013U, 0xbdc1c69a3db4db7eU, 0x3d9b0548bdceb1b5U,
  0xbd574e72bbceb1b5U, 0x3d4614f8bcf124a8U, 0x3e0e1a2cbc9b0548U, 0xbd89cbcebcf124a8U,
  0xbe09cbce3d7124a8U, 0x3dc614f83e0e1a2cU, 0x3e4614f8bdfe0fc4U, 0x3d34db7e3da3a205U,
  0xbc2c3ec23b09cbceU, 0x3da7f063bcceb1b5U, 0x3e857d70be1d2c77U, 0xbc7124a83c9b0548U,
  0xbdbd783b3e4eb1b5U, 0xbe0e1a2cbd92688bU, 0x3df9c165bcdfeb2fU, 0xbde4398d3d857d70U,
  0x3e0356403d4eb1b5U, 0x3d23a2053e3702aeU, 0xbd9b05483b09cbceU, 0x3d9b0548bdceb1b5U,
  0x3d857d703dac3ec2U, 0x3c7124a83dfe0fc4U, 0xbd1b0548bdd74e72U, 0x3cac3ec2be88b836U,
  0xbddfeb2f3cbd783bU, 0x3d4eb1b5bde4398dU, 0x3e1f53a6be18de19U, 0xbdb4db7ebc7124a8U,
  0xbe3f9f6a3d3d783bU, 0xbe483c27bdc1c69aU, 0xbd23a205be07a49fU, 0xbde4398dbd7124a8U,
  0xbd34db7ebd012f11U, 0xbd812f11bcceb1b5U, 0xbe012f11bc2c3ec2U, 0x3dc1c69a3e12688bU,
  0xbd06f0f53d77646cU, 0x3da12e083dc2ea46U, 0x3d95ef493d6fe542U, 0x3d5967c43defe542U,
  0x3d24ed9dbd0e701fU, 0x3aefe542bd77646cU, 0x3dc2ea463e3b6b1cU, 0x3e1b8ea9bd06f0f5U,
  0xbcefe5423d42ea46U, 0x3d8331603d6fe542U, 0xbc86f0f5U, 0xbdefe5423cb3ebf2U,
  0xbd9d6e73be1d6e73U, 0xbd922fb43d0e701fU, 0xbd86f0f5bd42ea46U, 0xbd922fb4bde86618U,
  0x3d3b6b1cbdc2ea46U, 0xbdc6a9dbbcc2ea46U, 0x3b6fe542bd7ee396U, 0x3d33ebf2bd9d6e73U,
  0xbd1d6e73be06f0f5U, 0x3d3b6b1c3b6fe542U, 0x3d86f0f5bd06f0f5U, 0xbd51e89a3d2c6cc7U,
  0x3c6fe542bdbf2ab1U, 0x3d06f0f53d33ebf2U, 0xbe230dd33d42ea46U, 0x3c33ebf2bd0e701fU,
  0x3d42ea46be410a7bU, 0x3d95ef493d99aedeU, 0xbd9d6e73be122fb4U, 0x3c15ef493db02c5cU,
  0x3dc6a9dbbde86618U, 0x3d922fb43d686618U, 0xbdb7ab873cb3ebf2U, 0xbdd967c4bd77646cU,
  0xbbb3ebf2be122fb4U, 0xbc51e89a3ce0e6eeU, 0x3d4a6970bdd1e89aU, 0x3c86f0f5be17cf14U,
  0xbe15ef493cefe542U, 0xbcc2ea463c6fe542U, 0xbd0e701fbc33ebf2U, 0xbdbb6b1c3cefe542U,
  0x3c15ef49bd95ef49U, 0x3d8e701f3c6fe542U, 0x3cfee3963cefe542U, 0xbe6c25adbd60e6eeU,
  0xbe230dd3bd833160U, 0x3aefe542bde4a683U, 0x3d06f0f53d95ef49U, 0xbd5967c43cd1e89aU,
  0xbd8ab08a3db02c5cU, 0xbdd5a82fbdb3ebf2U, 0x3e3d4ae6bdfb2401U, 0x3cfee396be6e0577U,
  0x3d5967c4bd86f0f5U, 0xbe122fb43e1b8ea9U, 0x3d95ef49bd86f0f5U, 0x3db02c5cbdbb6b1cU,
  0xbd6866183cd1e89aU, 0xbb6fe5423c15ef49U, 0x3defe542bdd1e89aU, 0xbbefe542bd42ea46U,
  0xbd3c74863dd40316U, 0x3d6b91a73b96c39eU, 0xbd62256dbd3c7486U, 0x3d45e0bf3e0d5764U,
  0xbccf4cf9bc16c39eU, 0xbd0d57643da02fd8U, 0x3de2256dbd88a147U, 0x3c62256dbdbc7486U,
  0x3ddd6f503dca96dcU, 0xbce2256dbce2256dU, 0xbd3c7486bcbc7486U, 0x3b96c39ebdb3084cU,
  0x3c16c39ebb16c39eU, 0xbc16c39ebc83eb2aU, 0xbca99c12bcf4fde1U, 0xbdf047c43cf4fde1U,
  0xbe2bf7203d16c39eU, 0x3e1dd4c9bc62256dU, 0x3d7e6a1bbc83eb2aU, 0x3da02fd8bd74fde1U,
  0x3d03eb2abe1dd4c9U, 0x3ca99c12bde2256dU, 0xbd96c39e3d7e6a1bU, 0x3d8d5764bddd6f50U,
  0x3e202fd83d74fde1U, 0x3e4cf1eb3e064639U, 0xbdcf4cf93d202fd8U, 0xbda99c12bd03eb2aU,
  0xbdca96dc3da99c12U, 0x3e54031600000000U, 0x3e959617bd7e6a1bU, 0xbd920d813ca99c12U,
  0x3df047c4bd88a147U, 0x3ce2256d3e01901cU, 0x3d74fde1bc16c39eU, 0xbd62256dbe3a1977U,
  0xbe51a808bc83eb2aU, 0xbc3c7486be1dd4c9U, 0x3d58b9333b16c39eU, 0x3ca99c123d96c39eU,
  0xbe1dd4c9bc62256dU, 0x3cf4fde1bd83eb2aU, 0xbd0d5764bc96c39eU, 0xbe3ecf943e7e6a1bU,
  0x3d9b79bbbd202fd8U, 0xbe66db8a3deb91a7U, 0x3dd40316bd8d5764U, 0xbca99c12bdf047c4U,
  0xbdae522f3c16c39eU, 0xbe16c39ebd299c12U, 0x3e6decb5bd74fde1U, 0x3be2256dbd96c39eU,
  0x3d299c12bdc5e0bfU, 0x3d45e0bf3d62256dU, 0x3e146890bd9b79bbU, 0x3d45e0bfbc62256dU,
  0xbe64807b3e0fb273U, 0xbe2741033dca96dcU, 0xbe16c39ebe16c39eU, 0xbe3ecf943e1b79bbU,
  0x3d45e0bfbc96c39eU, 0xbe74fde13d58b933U, 0xbe03eb2abddd6f50U, 0x3cbc74863ccf4cf9U,
  0xbdcbd0213d48ad6bU, 0x3b48ad6bbdee4defU, 0xbc48ad6b3ca30ce7U, 0xbe1cc77c3d968210U,
  0xbd6e4def3d7ad8c6U, 0x3d86d484bce1c318U, 0xbd61c318bdb5dd29U, 0x3cee4defbdee4defU,
  0x3e03b1ce3d103ca5U, 0x3d2f97be3cc8ad6bU, 0xbcc8ad6bbcee4defU, 0xbe27c0f7be03b1ceU,
  0x3b968210bddea063U, 0xbd9cc77c3d9fea31U, 0xbdb8ffdf3d61c318U, 0xbe32ba73bd9fea31U,
  0x3c48ad6b3c7ad8c6U, 0x3ce1c3183d2f97beU, 0xbddea063be3db3efU, 0x3c7ad8c6bdb5dd29U,
  0xbe103ca5be11ce00U, 0xbd680884be103ca5U, 0x3d426800be18136bU, 0xbdeb2b393deb2b39U,
  0xbddea0633d295252U, 0x3c168210bbfad8c6U, 0x3dd85af73db5dd29U, 0xbdb2ba73bdd85af7U,
  0x3d426800be19a4c6U, 0x3d9fea31bbfad8c6U, 0x3de1c318bdbc2294U, 0xbbfad8c63d9fea31U,
  0xbd935f5b3dc8ad6bU, 0x3e32ba73bc48ad6bU, 0x3ce1c318bd230ce7U, 0xbdf4935a3d230ce7U,
  0x3e19a4c6bcc8ad6bU, 0xbd99a4c6bd6e4defU, 0xbd5538423e426800U, 0xbd61c318bd2f97beU,
  0xbda95252be09f73aU, 0xbe471c103c89f73aU, 0x3c48ad6bbe11ce00U, 0xbdcef2d63db2ba73U,
  0xbcaf97bebe0b8894U, 0x3c968210be295252U, 0xbd295252bcfad8c6U, 0xbe008f193d89f73aU,
  0x3dac7508bc48ad6bU, 0x3daf97bebc7ad8c6U, 0x3d935f5bbd35dd29U, 0xbe0b8894U,
  0x3d7ad8c63d1cc77cU, 0xbd168210bc89f73aU, 0x3d1682103c7ad8c6U, 0xbc168210bdcef2d6U,
  0xbdfad8c63d4ef2d6U, 0xbd9682103d3c2294U, 0xbdf170a53d83b1ceU, 0x3b968210bd808f19U,
  0xbdf4935abe022073U, 0x3dac7508bac8ad6bU, 0xbd03b1cebd99a4c6U, 0xbd48ad6b3dd85af7U,
  0xbd16d09d3e074a33U, 0xbd8981f9bb8df185U, 0x3d85126dbcf866a9U, 0x3c54ea483e6d4fcaU,
  0xbcb16de6bd9b4029U, 0x3cc32c173cc32c17U, 0x3b0df185bc0df185U, 0x3cd4ea48bd80a2e1U,
  0x3d4c0b2f3d80a2e1U, 0xbe16d09dbd05126dU, 0xbd8981f93e265708U, 0x3e0981f93def8790U,
  0xbd5dc9603d05126dU, 0x3d316de63d85126dU, 0x3ce6a878bc7866a9U, 0x3d1fafb6bde6a878U,
  0xbd6f87903c0df185U, 0xbd9b4029bd85126dU, 0xbd3a4cffbde238ecU, 0xbd432c17bc7866a9U,
  0xbdacfe5abcd4ea48U, 0x3c9fafb63cc32c17U, 0x3d54ea48be0981f9U, 0xbcf866a9bd3a4cffU,
  0x3c316de63d80a2e1U, 0x3d288eceU, 0x3cc32c17bd66a878U, 0xbd4c0b2fU,
  0x3cd4ea483b0df185U, 0x3e0bb9bfbd54ea48U, 0x3da41f42bd8981f9U, 0x3c0df185be68e03eU,
  0xbdf866a93d9b4029U, 0x3d5dc9603de238ecU, 0x3e316de6bd54ea48U, 0xbe33a5acbe507abbU,
  0xbc7866a9bdb16de6U, 0xbd9b4029be1498d7U, 0x3e0df185bd4c0b2fU, 0x3c7866a9be0981f9U,
  0xbe0981f93d3a4cffU, 0xbcd4ea48bd8df185U, 0xbd7866a9be66a878U, 0xbd7866a93dfcd635U,
  0xbd5dc960bda88eceU, 0xbc9fafb63ce6a878U, 0x3b8df185bd316de6U, 0xbe10294b3d3a4cffU,
  0xbe5959d43e05126dU, 0x3d5dc9603deb1804U, 0xbb0df185be8cd5a2U, 0xbc54ea483d05126dU,
  0xbd1fafb6bda41f42U, 0xbc0df1853d85126dU, 0x3cd4ea483cb16de6U, 0xbd9b40293dc79ba3U,
  0xbd80a2e1bd316de6U, 0xbd9fafb6be35dd72U, 0xbc7866a93d432c17U, 0xbd4c0b2fbd8981f9U,
  0xbdd07abb3d0df185U, 0x3dc79ba33cd4ea48U, 0x3d6f87903d288eceU, 0x3ce6a878be80a2e1U,
  0x3e34dd293c0ee7a2U, 0x3b8ee7a2bb0ee7a2U, 0x3d05f928be1e88f8U, 0xbcb2a18a3c8ee7a2U,
  0xbe7126e1be253bd3U, 0xbdd65b73be1c4d59U, 0xbd447e7f3cb2a18aU, 0x3dc47e7f3e46ba1dU,
  0xbd6838673de3c12aU, 0x3c32a18a3e1e88f8U, 0x3d8181ebbd447e7fU, 0x3cd65b73bda9b310U,
  0xbcb2a18abe17d61cU, 0x3d5f49ed3c0ee7a2U, 0x3dc00742be589712U, 0xbe0181eb3cfa155cU,
  0x3cb2a18abdcd6cf9U, 0xbe20c496be230035U, 0x3b0ee7a2bc565b73U, 0x3e0ee7a2bc7a155cU,
  0xbce83867bd683867U, 0x3d85f928bd85f928U, 0x3da53bd3be159a7eU, 0x3ca0c496bdc00742U,
  0x3ce838673decafa4U, 0xbe230035bdf126e1U, 0xbe0181ebbcd65b73U, 0xbd683867bce83867U,
  0xbdc8f5bcbcb2a18aU, 0xbd8181eb3dd65b73U, 0xbdcd6cf9be0a7065U, 0xbda53bd33bd65b73U,
  0x3cb2a18abc32a18aU, 0xbe253bd3bd5f49edU, 0x3dc8f5bcbce83867U, 0xbdc007423c8ee7a2U,
  0xbe20c4963de3c12aU, 0xbe17d61cbdd1e436U, 0x3db2a18a3da53bd3U, 0xbcfa155cbe8dc9d3U,
  0x3d05f9283ce83867U, 0xbe1e88f83c8ee7a2U, 0xbcc47e7f3dcd6cf9U, 0x3cd65b73bcd65b73U,
  0xbdbb90053d447e7fU, 0x3dbb9005bd683867U, 0xbe447e7fbd05f928U, 0x3c565b733e0ee7a2U,
  0xbe253bd33e4b315aU, 0x3b0ee7a2bd7126e1U, 0x3dc8f5bc3c8ee7a2U, 0x3e0a70653d29b310U,
  0x3dcd6cf93e0ee7a2U, 0x3d5f49edbd565b73U, 0x3e0a7065bdb718c8U, 0xbb8ee7a23d3b9005U,
  0x3b0ee7a2bd565b73U, 0x3cc47e7fbd20c496U, 0x3e3954663c565b73U, 0x3e48f5bc3cfa155cU,
  0x3d6838673d05f928U, 0x3e4242e0bd05f928U, 0xbca0c4963d7126e1U, 0xbd5f49edbd935edfU,
  0xbd558ce03df03e7dU, 0xbdeae7c4be22d505U, 0x3e2029a83daad71aU, 0xbe2029a800000000U,
  0xbdc588b63d35848cU, 0x3c558ce03c802154U, 0x3d4adf6fbdb5848cU, 0xbcc031fdbe2d8276U,
  0xbdb02dd3bd9ad2f0U, 0xbe12d0dabe10257eU, 0xbd35848cbdb5848cU, 0xbcc031fdbd2ad71aU,
  0x3baad71abea9816cU, 0x3d6ae7c43dd58ce0U, 0xbe2029a83d759535U, 0xbc2ad71aU,
  0x3dbadb443e3d86a1U, 0x3c8021543d603a52U, 0xbd90257ebe1d7e4cU, 0xbd603a52be05780cU,
  0x3db02dd3be02ccb0U, 0x3d90257e00000000U, 0xbde5910bbc558ce0U, 0xbe1d7e4c3baad71aU,
  0xbc558ce0bc558ce0U, 0xbc002154bd4adf6fU, 0xbc957c373dd03628U, 0xbe22d505bd802154U,
  0xbceae7c43dc031fdU, 0xbb2ad71abe603a52U, 0xbcaad71abe2ad71aU, 0x3d4031fdbbaad71aU,
  0xbe6d93203ea6d60fU, 0xbd4031fdbddae399U, 0x3d35848cbbaad71aU, 0x3e0d7a223dfaebeeU,
  0x3c0021543c957c37U, 0xbe558ce03e683c67U, 0xbd8acec5be1d7e4cU, 0xbdaad71abcc031fdU,
  0x3cc031fd3e4adf6fU, 0xbdb02dd3bd90257eU, 0x3df595353e759535U, 0x3db5848c3e2d8276U,
  0x3cc031fdbdf59535U, 0x3d802154bd90257eU, 0x3dc588b6bc002154U, 0x3ceae7c4be982793U,
  0xbe52e1843dbadb44U, 0x3ceae7c4bdd03628U, 0x3caad71abdd03628U, 0x3e8c2473bbaad71aU,
  0xbe817702be002154U, 0xbcd58ce03d2ad71aU, 0xbe58383dbe182793U, 0xbe05780cbdf03e7dU,
  0x3d0021543e282bbeU, 0x3cc031fdbe9ad2f0U, 0x3dfaebeebd0acec5U, 0x3da58061bdeae7c4U,
  0xbcaad71a3cc031fdU, 0x3e3adb443e58383dU, 0x3dd036283d802154U, 0xbdfaebeebd85780cU,
  0xbccb17b8be054790U, 0x3d647aae3cfddda5U, 0xbd5c045cbdf9a27cU, 0x3d8765253ddc045cU,
  0x3dbe663cbdcb17b8U, 0xbd42a165bdfddda5U, 0x3db5efeabb876525U, 0x3df567533cdc045cU,
  0xbdba2b133e0fdb77U, 0xbe4d354cbcba2b13U, 0x3ccb17b8bda0c81cU, 0x3d20c81cbccb17b8U,
  0xbd538e0a00000000U, 0x3df12c2abda50345U, 0xbd9851cabdc2a165U, 0xbdfddda53e0982baU,
  0x3d9416a03d8329fcU, 0x3cfddda53df56753U, 0xbb0765253d4b17b8U, 0xbd8ba04ebde8b5d8U,
  0x3c6cf101be1eaa87U, 0xbda0c81c3d42a165U, 0x3db1b4c1bc9851caU, 0x3c9851cabd647aaeU,
  0x3c6cf101bdb1b4c1U, 0x3d8ba04e3cfddda5U, 0x3e20c81c3d293e6eU, 0x3d3a2b133d31b4c1U,
  0xbd9c8cf3bd1851caU, 0x3d6cf101bd8fdb77U, 0x3e0fdb77bdad7997U, 0x3d20c81cbda93e6eU,
  0xbdcb17b83dcb17b8U, 0xbc876525bd9416a0U, 0xbcfddda5bda50345U, 0xbc6cf101be647aaeU,
  0xbdd7c9333d6cf101U, 0xbda5034500000000U, 0xbde03f853dc2a165U, 0xbd8ba04ebda50345U,
  0xbdd7c933bd076525U, 0xbcba2b133d8329fcU, 0xbdd38e0abddc045cU, 0xbda0c81cbd31b4c1U,
  0x3d0765253e0dbde3U, 0xbe86565b3d9851caU, 0x3e010c67bd1851caU, 0x3d6cf101bd31b4c1U,
  0xbe46dc8e3d8fdb77U, 0x3e3c48a73d756753U, 0x3c293e6ebe2d7997U, 0x3d31b4c1bcecf101U,
  0xbda0c81cbd756753U, 0x3d42a1653da50345U, 0x3ccb17b83e1416a0U, 0xbe11f90c3dcb17b8U,
  0xbde47aaebd8fdb77U, 0xbe2f972cbe054790U, 0xbd9851cabe4b17b8U, 0xbe22e5b1bd20c81cU,
  0x3cfddda53e010c67U, 0x3dc2a1653de8b5d8U, 0xbd3a2b133d7ddda5U, 0xbe22e5b1bd9416a0U,
  0xbdce3955be100788U, 0x3d30c36dbd1d1f7eU, 0xbd723b37bd44675dU, 0x3de523423d097b8eU,
  0xbdde97473d82ef93U, 0x3dde9747bcb74f68U, 0x3dc4675d3dc7ad5aU, 0xbd44675dbdb0c36dU,
  0x3d02ef933de8693fU, 0x3d30c36dbde52342U, 0xbd723b37bd1d1f7eU, 0x3d8cc18b3b517f52U,
  0xbdba95653e19d980U, 0x3de8693f3cb74f68U, 0x3cde9747bddb514aU, 0x3ad17f52bcd17f52U,
  0xbe220879bd934d86U, 0x3c1d1f7e3dad7d70U, 0xbe097b8e3c1d1f7eU, 0xbd99d980be0b1e8cU,
  0xbe02ef93bd02ef93U, 0xbd02ef93bd517f52U, 0x3dbddb623dd4c54fU, 0x3d02ef93bdebaf3cU,
  0x3c1d1f7e3d4af357U, 0xbe049292bda0657bU, 0xbd934d86bd723b37U, 0xbcde97473db0c36dU,
  0xbd1d1f7e3dba9565U, 0xbdb0c36dbdfc0d2fU, 0xbc517f52bdfc0d2fU, 0xbdff532cbd863591U,
  0xbd900788bd934d86U, 0x3cb74f68bda0657bU, 0xbdb4096a3e0b1e8cU, 0x3e07d88fbdde9747U,
  0xbe4fdc533d78c731U, 0x3e1d1f7ebdb0c36dU, 0x3d1007883d374f68U, 0xbdde9747be049292U,
  0x3d78c731bc82ef93U, 0xbcb74f68bda0657bU, 0xbda6f1753cb74f68U, 0x3d5e9747bc517f52U,
  0xbcd17f52be11aa87U, 0x3d723b373d23ab78U, 0xbd9d1f7e3cc4675dU, 0x3d3ddb623e254e77U,
  0x3d82ef933d100788U, 0x3cde9747bd863591U, 0x3da0657b3d863591U, 0xbdb0c36dbe1ec27cU,
  0x3d02ef93bdc7ad5aU, 0xbdc121603d897b8eU, 0xbda0657bbcc4675dU, 0xbde52342bd82ef93U,
  0xbc1d1f7ebe134d86U, 0xbdad7d703c82ef93U, 0xbd580b4dbd652342U, 0xbcd17f52bcb74f68U,
  0xbd82ef933d863591U, 0xbde52342bd169383U, 0x3c517f52bcaa3773U, 0xbcde9747be4af357U,
  0xbcf43f86be76cadaU, 0xbca2d504bda7ebacU, 0xbe34a4503d5fe4e6U, 0x3c4b8a45bddace3dU,
  0xbc743f863da2d504U, 0xbd044d13bc4b8a45U, 0xbe161c60be3ed1a1U, 0xbc4b8a453ddfe4e6U,
  0xbe044d133ba2d504U, 0xbd98a7b4bdb218fcU, 0x3d743f86bc22d504U, 0x3d6a12363d8e7a64U,
  0xbe3c464dbd18a7b4U, 0xbc8e7a64bc4b8a45U, 0x3dd5b7953d22d504U, 0xbd8e7a64be48fef1U,
  0x3e01c1bfbe2f8da8U, 0xbbf43f86bd2d0254U, 0x3e044d13bd98a7b4U, 0x3c8e7a64bdb72fa4U,
  0x3cf43f86bcb72fa4U, 0xbcdfe4e6bc743f86U, 0x3e1dbe5cbe532c41U, 0xbda7ebac3ea18f5aU,
  0x3c22d504be0963bbU, 0xbdc15cf5bc8e7a64U, 0x3de4fb8e3ccb8a45U, 0x3ca2d5043ddace3dU,
  0x3dd0a0ed3dbc464dU, 0xbd372fa43c743f86U, 0xbd8e7a643d6a1236U, 0xbdbc464d3ca2d504U,
  0x3c743f86bdf43f86U, 0x3c8e7a64bba2d504U, 0xbe4b8a45bca2d504U, 0xbd0e7a64bca2d504U,
  0x3d743f86bdb218fcU, 0xbd415cf5be0963bbU, 0xbe27ebac3dd5b795U, 0xbdad02543dfe6cd6U,
  0xbc4b8a45bd98a7b4U, 0x3dd5b7953c743f86U, 0xbd044d13bd0e7a64U, 0x3c4b8a45bd18a7b4U,
  0xbd6a1236be5842e9U, 0xbd7e6cd6bb22d504U, 0xbcdfe4e6bc743f86U, 0xbd372fa4bd22d504U,
  0xbca2d5043c743f86U, 0xbc4b8a453d415cf5U, 0xbd844d133ccb8a45U, 0x3e256058bdb72fa4U,
  0x3d844d133ba2d504U, 0xbc4b8a45bd9dbe5cU, 0xbd0e7a6400000000U, 0xbd415cf5bdea1236U,
  0x3e13910cbccb8a45U, 0xbd5fe4e63d6a1236U, 0x3ca2d5043ca2d504U, 0x3ccb8a453e22d504U,
  0x3d8963bb3d372fa4U, 0x3cdfe4e63d4b8a45U, 0x3e7e6cd63cdfe4e6U, 0xbe4e15993e22d504U,
  0x3cefeeb4bd97f50cU, 0xbcbff22a3caff351U, 0xbddfefdb00000000U, 0x3cffed8d3d07f633U,
  0xbd9bf4c2bbffed8dU, 0xbdcff1033d1ff478U, 0x3dbff22abdebeefeU, 0xbe09f60e3b7fed8dU,
  0xbd3ff22abd3ff22aU, 0xbdefeeb4bcaff351U, 0xbd67ef48bd9ff478U, 0xbe13f5563d9ff478U,
  0xbd1ff478be7dedb2U, 0x3dabf39bbc5fefdbU, 0x3d93f5563cffed8dU, 0xbd2ff351bcffed8dU,
  0xbd3ff22a3d6feeb4U, 0x3daff351bcffed8dU, 0xbbffed8d3dcbf14cU, 0xbdffed8dbaffed8dU,
  0xbd87f6333c3ff22aU, 0xbd7fed8dbdcbf14cU, 0x3dcff1033de3ef92U, 0x3affed8d3d9bf4c2U,
  0xbe01f6a2bdf7ee21U, 0x3dc7f1963affed8dU, 0xbdf7ee213cffed8dU, 0xbdbbf2743dbbf274U,
  0x3d27f3e5bd57f06fU, 0x3c9ff478bd9bf4c2U, 0x3caff351bddbf025U, 0xbd87f6333d0ff59fU,
  0xbdbbf274be29f3c0U, 0xbd4ff103bcbff22aU, 0xbd93f556bde3ef92U, 0x3c3ff22abddfefdbU,
  0x3cbff22a3df7ee21U, 0x3c3ff22abd1ff478U, 0xbc5fefdbbe19f4e7U, 0xbd93f556bda7f3e5U,
  0xbde7ef483df3ee6aU, 0xbdb3f307bd93f556U, 0xbe37f2bdbe0ff59fU, 0x3affed8dbd17f50cU,
  0xbde3ef92bc7fed8dU, 0xbe01f6a23d47f196U, 0x3e03f67dbda7f3e5U, 0x3c9ff478be21f453U,
  0x3d67ef4800000000U, 0x3bbff22a3b7fed8dU, 0xbdefeeb4bbbff22aU, 0xbd8ff59f3cefeeb4U,
  0xbda7f3e5bdb7f2bdU, 0x3d83f67d3d77ee21U, 0xbe03f67d3dcff103U, 0xbd47f196bb7fed8dU,
  0xbe15f531bdbff22aU, 0xbe05f658be03f67dU, 0x3d6feeb4bc1ff478U, 0xbc8ff59fbd8bf5e9U,
  0xbd9ff478bdc3f1e0U, 0xbd27f3e53bffed8dU, 0x3cbff22a00000000U, 0x3d6feeb4bdcbf14cU,
  0xbdcf56cabc384d26U, 0x3db84d26bd0102ceU, 0xbddd2960bdaf1617U, 0xbd9ca7fabde1c4e8U,
  0x3d4184343df43305U, 0x3cb84d263d1ca7faU, 0x3e07ec193d8102ceU, 0x3daa7a90bdb84d26U,
  0xbd8102ce3dcabb43U, 0xbdf8ce8dbbdd2960U, 0x3b9370ebbde1c4e8U, 0xbdbce8ad3d4abb43U,
  0x3d1370eb3d1370ebU, 0xbe239145bc5d2960U, 0xbd8a39dcbd8ed564U, 0xbca5df083b9370ebU,
  0xbd384d26bcef977eU, 0x3d0102cebcef977eU, 0xbdaf16173e035091U, 0xbdc61fbcbdd88dd9U,
  0xbddd2960bd418434U, 0x3bdd2960bdaf1617U, 0xbe3163db3e1370ebU, 0x3d8a39dcbe1ca7faU,
  0x3c9370ebbe4abb43U, 0x3d2f16173cb84d26U, 0x3dcf56cabd1370ebU, 0x3d8a39dc3d4abb43U,
  0xbd1ca7fabd53f252U, 0x3e0c87a03e035091U, 0x3d6f977ebde1c4e8U, 0x3db3b19e3c8102ceU,
  0x3c5d29603d1ca7faU, 0x3d9370ebbe035091U, 0x3d980c72bdaa7a90U, 0x3b1370ebbd5d2960U,
  0xbdc184343b9370ebU, 0xbd66606f3d2f1617U, 0x3d2f16173d1370ebU, 0x3b9370ebbd9ca7faU,
  0x3e112327bdb84d26U, 0xbe8ffc45bde1c4e8U, 0xbdeafbf73bdd2960U, 0x3d2f1617bccabb43U,
  0x3da5df083d1ca7faU, 0x3dd88dd9bde1c4e8U, 0x3d384d26be461fbcU, 0xbe059e55be0c87a0U,
  0x3c9370eb3b1370ebU, 0x3e8102cebd66606fU, 0x3c5d296000000000U, 0x3ddd29603d384d26U,
  0x3d9ca7fa3c5d2960U, 0xbe6afbf7bd384d26U, 0xbd1370eb3e239145U, 0x3de1c4e8bd418434U,
  0x3daf16173d384d26U, 0xbd0a39dc3d418434U, 0xbe1ca7fa3d25df08U, 0xbb1370eb3e035091U,
  0x3d0102cebca5df08U, 0xbe282cccbdcf56caU, 0x3d2f1617be924a09U, 0xbca5df08be4f56caU,
  0x3e1c932bbe26c94aU, 0x3d4c3a65be2a30a9U, 0xbe3b3587bc2361eaU, 0x3e1c932b3e0ef5adU,
  0x3d95c46cbc59d7e3U, 0xbe15c46c3d3e9ce7U, 0xbc2361eabd4c3a65U, 0xbd2361eabdf512dfU,
  0x3e30ff683cbe9ce7U, 0xbe48d3053d15c46cU, 0x3d8826eebd95c46cU, 0xbde0a6a23d8826eeU,
  0xbe2361eabd8826eeU, 0x3e640e02bd59d7e3U, 0xbe59d7e3bd95c46cU, 0x3dee44203db0ff68U,
  0xbe6e4420bd59d7e3U, 0xbd3e9ce7bdd9d7e3U, 0x3e04bf8ebe2361eaU, 0x3e26c94abd9c932bU,
  0xbe71ab803c59d7e3U, 0x3d81582fbe60a6a2U, 0xbdbe9ce73e2a30a9U, 0xbd81582fbe0b8e4dU,
  0xbdb7ce28bdbe9ce7U, 0xbd30ff68be0b8e4dU, 0x3e01582fbe30ff68U, 0xbe0b8e4dbe81582fU,
  0xbd7512dfbdaa30a9U, 0x3d30ff68be37ce28U, 0xbd81582f3d677561U, 0x3d81582fbd15c46cU,
  0x3c59d7e33cf512dfU, 0x3ca361ea3d2361eaU, 0xbdcc3a653dee4420U, 0xbdee4420bc59d7e3U,
  0xbcf512dfbd4c3a65U, 0x3d81582fbe530924U, 0x3ca361eabe567083U, 0xbdd30924be95c46cU,
  0x3d2361eabed82433U, 0x3d3e9ce73e2a30a9U, 0xbb59d7e33e125d0dU, 0x3d8826ee3e9c932bU,
  0xbd8826ee3db0ff68U, 0x3de0a6a23d8ef5adU, 0x3bd9d7e33e2a30a9U, 0x3d81582f3e4fa1c4U,
  0xbde77561be0b8e4dU, 0xbe26c94abe15c46cU, 0xbde0a6a2bbd9d7e3U, 0x3d15c46c3d0826eeU,
  0xbe2a30a9bc8826eeU, 0xbd4c3a65bd677561U, 0xbdfbe19e3d4c3a65U, 0xbcf512dfbd0826eeU,
  0x3b59d7e3be992bccU, 0xbd3e9ce7bd95c46cU, 0xbda361eabdaa30a9U, 0x3dfbe19ebe8d41fdU,
  0x3d8826eebe4c3a65U, 0xbd3e9ce7bdd30924U, 0x3db7ce28bd81582fU, 0xbdfbe19ebd4c3a65U,
  0x3d476c5d3d2cd562U, 0xbd0b98a83b9f89e4U, 0x3dce121cbd5b5d9aU, 0xbdcabf3dbe1a8d95U,
  0x3dba20e03d8845c8U, 0xbd2cd562bd18e425U, 0x3d81a009bd1f89e4U, 0xbdebfbf7bd18e425U,
  0x3d5b5d9a3d4e121cU, 0xbdacd562be173ab6U, 0xbe0d4217bda62fa3U, 0xbe0d42173da98283U,
  0x3cd4b7db3d5b5d9aU, 0x3d8845c8bdef4ed6U, 0xbc9f89e43c6f4ed6U, 0xbe1c3705be0b98a8U,
  0x3d68a918be1a8d95U, 0xbdd164fcbd6f4ed6U, 0xbdc4197ebd75f495U, 0x3d84f2e9bc3a20e0U,
  0xbd18e4253c6f4ed6U, 0xbd262fa3bce20359U, 0xbddb5d9abd923e67U, 0xbe123e673c9f89e4U,
  0x3cacd562bc04f2e9U, 0xbd81a0093cef4ed6U, 0xbd8b98a8bdce121cU, 0xbd9f89e4bd2cd562U,
  0x3ad4b7db3dcabf3dU, 0x3dba20e0bd7c9a54U, 0x3d75f4953c923e67U, 0xbda2dcc4bdfc9a54U,
  0x3d18e425bc6f4ed6U, 0x3c9f89e4bd4e121cU, 0x3da62fa33c84f2e9U, 0xbdba20e03d84f2e9U,
  0xbdf5f4953dacd562U, 0xbdb02841bc923e67U, 0x3d5b5d9abd04f2e9U, 0xbddeb079bcfc9a54U,
  0xbe13e7d63debfbf7U, 0xbb54b7dbbd4e121cU, 0xbe123e67bc3a20e0U, 0xbd8eeb87bd923e67U,
  0x3cc76c5dbd8845c8U, 0x3d4e121cbd5b5d9aU, 0x3dacd562bdf5f495U, 0xbdacd562bd620359U,
  0xbd1f89e4bdb6ce00U, 0xbdebfbf7bd3a20e0U, 0xbcef4ed6bd04f2e9U, 0xbc923e673d7c9a54U,
  0xbdc76c5dbe0845c8U, 0xbd6f4ed63d923e67U, 0xbd0b98a8bd923e67U, 0xbe18e425be034979U,
  0x3ad4b7db3c3a20e0U, 0xbd0b98a8bcd4b7dbU, 0xbdc0c69e3d5b5d9aU, 0xbe1094f73dce121cU,
  0xbd04f2e9be530e6bU, 0x3d81a009bd04f2e9U, 0x3ce203593d18e425U, 0xbe337b213d75f495U,
  0xbd7077d9bda7483eU, 0x3e8a87d33e36f704U, 0xbd3c3146bd27483eU, 0xbde0c913bdeb3d97U,
  0x3d5b8ed13da20dfcU, 0xbe3994253e179978U, 0xbe14fc573d82b070U, 0x3d31bcc2bdcbe00cU,
  0x3ba7483e3c27483eU, 0xbe784f3cbe02b070U, 0xbde60355be2c8280U, 0x3e220dfcbcbc3146U,
  0xbd82b0703de0c913U, 0x3db1bcc23ddb8ed1U, 0xbdac8280be87eab2U, 0xbd7aec5dbe179978U,
  0x3dcbe00c3d07eab2U, 0xbcbc31463d31bcc2U, 0xbdf5b21bbd27483eU, 0x3e054d91be68a076U,
  0xbe636634bd82b070U, 0xbe925f36be2f1fa1U, 0x3d6603553dcbe00cU, 0xbe511a4e3c925f36U,
  0xbd9cd3ba3d9cd3baU, 0x3e75b21bbdac8280U, 0xbe2c8280bd07eab2U, 0x3d511a4ebcbc3146U,
  0x3ce603553dc6a5caU, 0xbdfaec5dbdb1bcc2U, 0x3dbc3146bde60355U, 0xbc27483ebd07eab2U,
  0xbd125f36bd31bcc2U, 0xbe36f704be4942ebU, 0xbe00134f3c27483eU, 0x3d5b8ed13d925f36U,
  0xbe00134fbd1cd3baU, 0xbda7483e3e1a3699U, 0xbe6b3d973ea5f9aeU, 0xbe1cd3babdfaec5dU,
  0x3e1cd3ba3e3c3146U, 0xbdeb3d97bdbc3146U, 0xbe1a3699bd511a4eU, 0x3ddb8ed1be4e7d2dU,
  0xbda7483ebcd11a4eU, 0x3e58f1b03e5b8ed1U, 0x3d07eab2be14fc57U, 0x3d7077d93e511a4eU,
  0x3d979978be660355U, 0x3e220dfc3d87eab2U, 0xbda7483ebe9e224bU, 0x3e0d24f4be02b070U,
  0x3dc6a5cabe2c8280U, 0x3ce60355bdc16b88U, 0xbde0c9133d31bcc2U, 0x3d7077d9bd27483eU,
  0xbd46a5ca3c7aec5dU, 0x3d3c3146bda7483eU, 0xbe1a3699be75b21bU, 0xbd511a4ebb27483eU,
  0xbbfaec5d3d925f36U, 0xbc925f36be53b76eU, 0x3cd11a4eU, 0xbce60355bdd6548fU,
  0x3c56eb25bbd6eb25U, 0xbdaa24d33d0f476eU, 0xbd13c1a9U, 0xbe0acd333d33194aU,
  0xbddda27ebc983be5U, 0xbdd92843bdb9d0a3U, 0xbb0f476ebdd270eaU, 0xbe0771863dd4ae07U,
  0xbd9a79033c8652f7U, 0xbd8652f7bd8d0a50U, 0x3d0652f7bd5fdf9cU, 0xbe0415d9bde21cbaU,
  0xbc21305cbcb3194aU, 0xbd56eb25bcd6eb25U, 0x3dac61f0bd7abd00U, 0xbd9a79033cb3194aU,
  0x3c7abd003ccdf6aeU, 0xbcdfdf9c3d81d8bcU, 0xbd9a79033caa24d3U, 0x3dcbb990bd4087fcU,
  0x3d889015bdf642c5U, 0xbe01d8bcbd8f476eU, 0x3daa24d3bd3c0dc0U, 0x3da1305cbd0acd33U,
  0xbdf405a7bdc2c51aU, 0xbcdfdf9cbc983be5U, 0xbd6459d7bc33194aU, 0xbdfabd00bdd270eaU,
  0xbcb3194abc450237U, 0x3d4087fc3d9ef33eU, 0xbdb79385bd8acd33U, 0xbdcbb990bd91848cU,
  0xbd5b65603db79385U, 0x3ce8d413bb0f476eU, 0x3dcdf6aebe0e28dfU, 0x3d9cb620bde21cbaU,
  0xbd983be5bb0f476eU, 0xbbd6eb253cc50237U, 0xbd8652f73d25aa97U, 0x3dc50237bc983be5U,
  0xbde696f5bd8d0a50U, 0x3daa24d33d7f373cU, 0x3d7642c53d7642c5U, 0xbde21cbabd81d8bcU,
  0x3bfabd003dbc0dc0U, 0xbdfcfa1ebd2a24d3U, 0x3e0415d93db0dc2cU, 0x3b8f476ebd33194aU,
  0xbce8d4133cd6eb25U, 0xbddfdf9c3da36d79U, 0xbd13c1a93c450237U, 0xbdeb1130bddfdf9cU,
  0x3d497c73bd4df6aeU, 0x3d7f373c3dbc0dc0U, 0xbdf1c88aba8f476eU, 0xbdc087fcbdae9f0eU,
  0xbdc087fcbdaa24d3U, 0xbdb79385bc68d413U, 0x3d81d8bc3cd6eb25U, 0x3d9cb620bcc50237U,
  0xbd93c1a9bdc73f55U, 0xbd8652f73dc50237U, 0xbd889015be01d8bcU, 0xbbfabd003d33194aU,
  0xbdc3f609bd6b273eU, 0xbdf6e9343dc3f609U, 0x3d72fde2be2c721cU, 0xbbfad4863b7ad486U,
  0x3d249b78bc5b79f5U, 0xbcfad486bb7ad486U, 0xbde73bec3d815595U, 0x3d892c393d14ee30U,
  0xbdac721c3da886caU, 0xbd5b79f5bda0b026U, 0x3c3c1f64bd2c721cU, 0x3e0d178b3d9cc4d4U,
  0xbd5b79f5bcbc1f64U, 0x3d8d178b3d0d178bU, 0xbd0d178bbe43f609U, 0xbddf6547bcbc1f64U,
  0xbb7ad486bd72fde2U, 0xbe6b273ebda0b026U, 0xbd7ad486bcbc1f64U, 0x3c5b79f53bbc1f64U,
  0xbdc7e15b3d9cc4d4U, 0x3c5b79f5bc7ad486U, 0x3bbc1f64be22a5cfU, 0x3d8540e73d0540e7U,
  0xbb7ad4863c5b79f5U, 0x3cfad4863dc3f609U, 0xbdcbccadbdeb273eU, 0xbda49b78bccbccadU,
  0x3dd78ea3bdb05d6eU, 0x3d3448c03da0b026U, 0x3d815595bd98d982U, 0xbd98d9823cdb79f5U,
  0x3dac721cbd8d178bU, 0xbe383412be3e150eU, 0xbe0d178bbcbc1f64U, 0x3ceb273e3de73becU,
  0x3dcfb7ff3dcfb7ffU, 0xbdf2fde2bdef1290U, 0xbe325317be015595U, 0xbdd78ea3be269121U,
  0xbdd3a3513cac721cU, 0xbc5b79f53d5b79f5U, 0x3ceb273ebd53a351U, 0xbd8540e73d53a351U,
  0xbe034b3ebd0d178bU, 0xbdc00ab7bdb05d6eU, 0xbc1cc4d4bd14ee30U, 0xbdb448c0be1eba7dU,
  0xbd0d178b3e305d6eU, 0x3d5b79f53e1eba7dU, 0x3e1eba7d3c8d178bU, 0x3c8d178bbe1cc4d4U,
  0xbc8d178b3d43f609U, 0x3da886ca3e1cc4d4U, 0x3cac721c3cbc1f64U, 0x3e12f8873da886caU,
  0xbdb448c0be1102ddU, 0xbc9cc4d43e59844cU, 0x3db448c0bdc7e15bU, 0xbdf2fde23bbc1f64U,
  0xbdf6e9343d3448c0U, 0x3d0d178b3bbc1f64U, 0x3e78dedd3da886caU, 0x3e3834123e1eba7dU,
  0x3d6ae741bda0294fU, 0x3d558c6abd8577c2U, 0x3e157be4bcd58c6aU, 0xbd20294fbe2ad6bbU,
  0x3d90252e3de5908bU, 0x3d403192bd80210cU, 0xbcc03192bc00210cU, 0xbe42dcedbe1d7df4U,
  0xbe22d4aabdaad6bbU, 0xbcc03192bdaad6bbU, 0x3d9ad29900000000U, 0xbd403192bddae320U,
  0x3c80210cbe7594adU, 0x3d0ace78bbaad6bbU, 0x3d2ad6bbbcaad6bbU, 0xbd7594ad00000000U,
  0xbd957be43e4833a3U, 0xbdcadefe3c80210cU, 0xbc957be4be4833a3U, 0xbda580053d4adefeU,
  0xbd4adefebd0ace78U, 0x3db584273d2ad6bbU, 0x3ceae741be88231dU, 0xbc2ad6bbbc00210cU,
  0xbd9ad299bd8577c2U, 0xbd403192bd957be4U, 0xbe10252e3da0294fU, 0xbd9ad2993cc03192U,
  0x3cd58c6abbaad6bbU, 0xbdc588483baad6bbU, 0xbd7594adbe00210cU, 0xbd80210c3deae741U,
  0x3c00210c3d9ad299U, 0x3baad6bb3d2ad6bbU, 0x3baad6bb3d00210cU, 0xbda580053e08231dU,
  0x3de5908b3c00210cU, 0x3d403192be02cc67U, 0xbe0d79d33e1d7df4U, 0x3db584273db58427U,
  0x3dc588483d2ad6bbU, 0xbe5035b43c558c6aU, 0xbdaad6bb3d80210cU, 0xbd20294f3d20294fU,
  0x3d00210cbe5ae320U, 0x3cc03192bddae320U, 0xbe0577c2bd558c6aU, 0x3d558c6abd2ad6bbU,
  0x3e282b60bc2ad6bbU, 0x3cd58c6a3d80210cU, 0x3cd58c6a3cd58c6aU, 0x3d6ae7413c957be4U,
  0x3db02d71bea9810eU, 0xbdeae7413dcadefeU, 0x3d8ace783d00210cU, 0x3c558c6a3d00210cU,
  0x3d957be4bceae741U, 0xbbaad6bbbd558c6aU, 0xbd9ad299bddae320U, 0x3c2ad6bbbdc03192U,
  0xbceae741bceae741U, 0x3caad6bb3db58427U, 0xbceae741bd403192U, 0xbe4adefebe2ad6bbU,
  0x3ce71e57bda3b57eU, 0x3cfa60de3c671e57U, 0x3d2d56c1bdfa60deU, 0xbdbbc8a7bd5d7d13U,
  0xbdbbc8a7bdcf0b2eU, 0x3da3b57ebd06d1b3U, 0xbcfa60de3d1072f6U, 0x3cc099483c409948U,
  0x3d5d7d133d23b57eU, 0x3d9072f6bde24db5U, 0xbde24db53dca3a8cU, 0x3de24db5bda3b57eU,
  0x3c1a143a3d53dbd0U, 0xbd671e573d820111U, 0xbd9a143abb9a143aU, 0x3cd3dbd03ddd7d13U,
  0xbdf0bf9bbe17abe9U, 0x3cfa60debdebeef9U, 0x3d4a3a8cbd1a143aU, 0x3be71e57U,
  0xbcc09948bbe71e57U, 0xbc4099483dcf0b2eU, 0x3dca3a8c3d409948U, 0xbc9a143abcad56c1U,
  0xbcad56c1bc9a143aU, 0x3dd3dbd0bdc569eaU, 0xbdb6f805bd86d1b3U, 0x3e214d2dbd409948U,
  0x3c671e57be98e012U, 0x3dfa60debe214d2dU, 0xbda8861f3d9072f6U, 0xbe75903c3d2d56c1U,
  0xbc86d1b3bbe71e57U, 0xbc86d1b33be71e57U, 0xbb1a143a3c9a143aU, 0xbd5d7d13bbe71e57U,
  0xbd06d1b3bd9a143aU, 0x3d8201113dff3180U, 0xbdb6f8053d1072f6U, 0xbd8ba2553e020111U,
  0xbe06d1b3bc671e57U, 0xbd5d7d133da3b57eU, 0xbe23b57e3e2aee70U, 0xbd671e57bb9a143aU,
  0xbe0ba255bdc09948U, 0xbbe71e57bd53dbd0U, 0xbdd8ac72bc1a143aU, 0xbd53dbd0bd820111U,
  0x3cfa60de3e06d1b3U, 0x3cd3dbd03e4ca2ddU, 0x3db6f8053cfa60deU, 0x3d8ba255bdd3dbd0U,
  0x3dcf0b2ebd9a143aU, 0xbc409948bc1a143aU, 0xbc86d1b33dcf0b2eU, 0xbe2fbf12be2aee70U,
  0xbce71e57bd9ee4dcU, 0xbcc09948bd2d56c1U, 0x3d671e573b1a143aU, 0xbc671e57bd820111U,
  0x3dd3dbd0bd7a60deU, 0xbb1a143a3dad56c1U, 0xbe1ee4dc3df5903cU, 0xbda8861fbd954398U,
  0x3cee2cc8bdac03e6U, 0xbe07a09cbd982ad5U, 0xbb53b607bd393f46U, 0xbc1ec8853d0451c4U,
  0x3cd3b6073d467aa7U, 0xbd53b607bb53b607U, 0xbcb93f46bdac03e6U, 0x3d982ad53d9ec885U,
  0x3d393f463e2c03e6U, 0x3d0451c4bd0451c4U, 0xbd118d253dcd1857U, 0xbe182ad53dcd1857U,
  0x3d118d25bbd3b607U, 0x3db2a1963dd3b607U, 0xbcb93f46U, 0x3e6addf03dbfdcf6U,
  0xbdb93f46bd8aef75U, 0xbe8c96e1bcee2cc8U, 0x3d982ad53bd3b607U, 0xbc1ec885bcee2cc8U,
  0xbd467aa7bc8451c4U, 0x3e2c03e6bd393f46U, 0x3d6e2cc83dd3b607U, 0xbe1ec885be432bceU,
  0x3d53b607bb53b607U, 0xbd118d253dee2cc8U, 0x3dcd1857bd9ec885U, 0x3de78f183c9ec885U,
  0xbdbfdcf63d9ec885U, 0x3c8451c4bdda53b7U, 0xbdb2a196bb53b607U, 0x3e7b68283c9ec885U,
  0xbd8451c4be678f18U, 0xbde78f18be0451c4U, 0xbdf4ca78be256635U, 0xbbd3b6073c1ec885U,
  0xbd918d253dbfdcf6U, 0xbda56635bdb2a196U, 0xbdd3b607bdcd1857U, 0xbd6e2cc83de0f167U,
  0x3d6e2cc8be0e3e4dU, 0xbdfb6828bbd3b607U, 0xbe1b79adbe07a09cU, 0xbdac03e6be4d1857U,
  0x3d393f46be1b79adU, 0x3e1b79adbed20e9bU, 0xbe982ad5be50672fU, 0xbe6e2cc8be22175dU,
  0x3de78f18be393f46U, 0xbe1b79ad3c8451c4U, 0xbd467aa73d393f46U, 0xbc1ec8853d6e2cc8U,
  0x3db2a1963e968369U, 0xbdc67aa7be2f52beU, 0xbe0451c4be1b79adU, 0xbdb93f463e1b79adU,
  0x3c1ec885bdb93f46U, 0x3e1b79ad3d60f167U, 0x3d53b6073c53b607U, 0x3e0451c4bd6e2cc8U,
  0x3c1ec8853d1ec885U, 0x3e32a196be781950U, 0xbe53b607be1b79adU, 0xbe0aef753e118d25U,
  0xbcca95cb3d97f058U, 0x3d905787bd88beb6U, 0x3c5ed7f9bda721faU, 0xbdfab2f8bc83ae2aU,
  0xbdb8dbe33aa2116fU, 0xbdd9c76dbd12dfcdU, 0x3d45853f3c5ed7f9U, 0xbe03ae2abdb3cb57U,
  0xbdffc3833d92dfcdU, 0xbdaebaccbe0f1364U, 0xbdc2fcfa3d45853fU, 0xbd63e884bcfd3b3dU,
  0x3d9d00e4be20cd4cU, 0xbdca95cb3dc80d85U, 0x3d8dcf41baa2116fU, 0x3dcd1e10bdd73f27U,
  0x3bca95cbbdc5853fU, 0xbc97f058bd59c76dU, 0xbd782ab2be0a02d9U, 0xbd03ae2a3dca95cbU,
  0x3da2116fbd4fa656U, 0x3cd4b6e23d03ae2aU, 0xbe063670bd88beb6U, 0x3bca95cbbd782ab2U,
  0xbdb6539d3db8dbe3U, 0xbc4a95cb3da721faU, 0xbdb8dbe33d956812U, 0xbdded7f9bd731a26U,
  0xbcf31a26bd956812U, 0xbd54b6e23c97f058U, 0x3cb6539d3d63e884U, 0x3d83ae2abdd73f27U,
  0x3da721fabc731a26U, 0x3d88beb6bdbdec6eU, 0xbe077a933dd73f27U, 0x3c4a95cb3dc80d85U,
  0xbdd22e9cbde3e884U, 0x3d03ae2a3cb6539dU, 0xbdb14311bd863670U, 0x3cac3286bcac3286U,
  0x3d956812bdded7f9U, 0x3d782ab2bd863670U, 0xbd314311bc83ae2aU, 0xbe0a02d9bd2c3286U,
  0xbd9f8929bc4a95cbU, 0xbde3e884bda9aa40U, 0xbc22116fbdf091e1U, 0xbcac3286bd8dcf41U,
  0xbe0c8b1e3d12dfcdU, 0x3dffc383bca2116fU, 0x3d8dcf41bbca95cbU, 0x3dbb64283d68f910U,
  0xbd8b46fbbd782ab2U, 0x3bf31a26be0125e4U, 0x3c0dcf41be119baaU, 0xbdd9c76dbdb3cb57U,
  0xbc731a263da499b5U, 0xbdb14311bda499b5U, 0xbcfd3b3dbdeb8155U, 0xbe0c8b1ebd68f910U,
  0x3dd73f27be03ae2aU, 0x3d9568123c0dcf41U, 0x3c5ed7f9be026a07U, 0xbe16ac35bd6e099bU,
  0xbd24b2423c03c1ceU, 0x3c83c1cebdbd6698U, 0x3da4b24200000000U, 0x3ce69328U,
  0x3e0bfdebbc83c1ceU, 0xbdacee5e3e209433U, 0xbd352a7bbe39488aU, 0xbda4b2423d143a08U,
  0x3c83c1cebc03c1ceU, 0xbd669328be3d6698U, 0x3cc5a2b500000000U, 0x3d83c1cebe352a7bU,
  0xbe3d6698U, 0x3dacee5ebca4b242U, 0x3ca4b2423ca4b242U, 0xbd143a083deecf45U,
  0xbc83c1cebd561aefU, 0x3e1c76253e62751aU, 0x3db52a7b3c03c1ceU, 0x3de693283d943a08U,
  0x3c45a2b5be143a08U, 0x3dcdded2bb83c1ceU, 0x3cc5a2b5bb83c1ceU, 0xbcc5a2b53e49c0c3U,
  0xbdbd66983dde570cU, 0x3da4b2423e352a7bU, 0x3cc5a2b5bd8bfdebU, 0xbe561aef3dbd6698U,
  0xbdacee5ebce69328U, 0xbdc5a2b5bd561aefU, 0xbd561aefbe352a7bU, 0xbca4b242bdd61aefU,
  0xbdb52a7bbe24b242U, 0x3e45a2b5U, 0x3c45a2b5bdbd6698U, 0xbdcdded2bdd61aefU,
  0xbe143a08be81b2c7U, 0x3d03c1cebd03c1ceU, 0xbc03c1cebdff477fU, 0x3e07dfdc3ce69328U,
  0xbe352a7b3e4dded2U, 0x3df70b6200000000U, 0x3e0bfdebbd561aefU, 0xbe89eee43c83c1ceU,
  0xbd143a08be28d050U, 0xbe87dfdc3c45a2b5U, 0xbda4b24200000000U, 0x3ce693283ce69328U,
  0xbd9c7625be209433U, 0x3da4b242be03c1ceU, 0xbc03c1ce3d24b242U, 0xbc45a2b53ca4b242U,
  0xbd03c1cebe83c1ceU, 0xbdd61aef3c83c1ceU, 0x3c83c1ce3e4dded2U, 0x3ca4b242bf02ba4aU,
  0x3d561aefbe5e570cU, 0xbe143a08bc03c1ceU, 0xbe1c7625bd8bfdebU, 0xbe51fce03dbd6698U,
  0xbdeecf45bd9c7625U, 0xbdde570cbe39488aU, 0xbd352a7bbd83c1ceU, 0xbe9e852c3d83c1ceU,
  0xbd4cd4653d8e3e2aU, 0xbda5006ebd13eebbU, 0x3daab0ffbd583587U, 0xbe417343be27d8b6U,
  0xbe5b0dd03e088d99U, 0x3e4cd465bb361221U, 0x3d088d99be4723d4U, 0xbe25006ebb361221U,
  0xbe2d8947be25006eU, 0xbd088d99bd1f4fddU, 0x3d583587bde9473aU, 0x3cb612213d583587U,
  0x3c361221beb1cdb4U, 0xbe0004bf3e0004bfU, 0x3dc173433e0004bfU, 0xbd888d99bd417343U,
  0xbd1f4fdd3e1c7794U, 0xbdf4a85c3dc17343U, 0x3c6396a9bdb06190U, 0xbe25006e3d361221U,
  0x3d583587be222825U, 0xbd8e3e2a3b361221U, 0xbd4cd465bd4cd465U, 0xbe5835873d6396a9U,
  0xbdd83587be306190U, 0xbd9f4fdd3dd83587U, 0xbda5006ebd8e3e2aU, 0x3d1f4fddbbb61221U,
  0xbe555d3f3d7a58edU, 0xbdc723d4bcccd465U, 0xbe1f4fddbe5de618U, 0xbdaab0ff3d417343U,
  0xbe1f4fdd3dd83587U, 0x3e2228253e0b65e1U, 0x3e13eebbbd361221U, 0x3deef7cbbd888d99U,
  0x3e1c7794bd088d99U, 0xbe9833283cfa58edU, 0xbda5006ebcfa58edU, 0xbe16c7033de9473aU,
  0x3d2ab0ffbe84492cU, 0xbe3bc2b23de396a9U, 0xbd088d993e199f4cU, 0x3e2228253d13eebbU,
  0xbdd284f6bbb61221U, 0xbdbbc2b2bde9473aU, 0x3b361221be02dd08U, 0xbd13eebbbdb06190U,
  0x3e85b5503d13eebbU, 0xbdaab0ff3d7a58edU, 0xbe1116723d1f4fddU, 0x3e13eebb3d417343U,
  0x3d583587beb4a5fdU, 0x3d13eebbbc888d99U, 0xbe3e9afbbd93eebbU, 0xbd2ab0ff3e02dd08U,
  0x3e983328be38ea6aU, 0x3c9f4fddbd417343U, 0x3dc723d43e69473aU, 0x3c6396a9be417343U,
  0xbc9f4fddbe222825U, 0xbde9473abce396a9U, 0x3dfa58edbd2ab0ffU, 0xbdd835873d088d99U,
  0xbc9206883d7f8b6eU, 0xbc1206883d120688U, 0xbc9206883e48c8fbU, 0xbdf975d3bdf36038U,
  0x3e611f67bd673502U, 0xbcc2b360bd42b360U, 0xbdbc9dc53e0bf0edU, 0x3d736038bdf36038U,
  0xbdc8c8fbbd120688U, 0x3db0728fbd7f8b6eU, 0xbdcede96be4bd3c8U, 0x3c120688bd7f8b6eU,
  0xbdaa5cf4bd673502U, 0xbd05db52be42b360U, 0x3d7f8b6e3db0728fU, 0xbde73502be673502U,
  0x3d05db52U, 0xbde11f673ddb09ccU, 0xbc1206883cc2b360U, 0xbd920688bddb09ccU,
  0x3d85db52bd4ede96U, 0xbdf360383d8bf0edU, 0x3e0efbba3d7f8b6eU, 0xbc9206883dc8c8fbU,
  0xbe244759bdf36038U, 0xbd42b360be45be2eU, 0xbdb0728f3df975d3U, 0xbd2a5cf4bd120688U,
  0xbe1b26f03caa5cf4U, 0xbdf36038bdaa5cf4U, 0x3ddb09cc3c736038U, 0xbd920688bd736038U,
  0x3cf360383bc2b360U, 0xbda447593d8bf0edU, 0x3e2a5cf4bde11f67U, 0xbd85db523e0efbbaU,
  0xbc42b3603d673502U, 0x3b42b3603d42b360U, 0x3dd4f431bdb0728fU, 0x3e611f67be70556aU,
  0xbdc8c8fbbd673502U, 0xbe1206883e0efbbaU, 0xbd7f8b6e3de11f67U, 0xbdf360383e275226U,
  0xbd12068800000000U, 0x3bc2b3603e7f8b6eU, 0xbde11f67be05db52U, 0xbd05db52bd4ede96U,
  0xbd1e31be3e1e31beU, 0xbdc8c8fb3daa5cf4U, 0xbb42b360be337d5cU, 0xbdb6882a3c42b360U,
  0xbe0efbbabd36882aU, 0xbc736038bc736038U, 0x3d120688bdcede96U, 0x3df36038bec12df9U,
  0x3d05db5200000000U, 0xbe2d67c2bbc2b360U, 0x3dc8c8fb3c42b360U, 0x3d36882a3df36038U,
  0xbde735023d05db52U, 0xbd673502bd920688U, 0xbc42b360bd1e31beU, 0xbd36882abe0bf0edU,
  0xbcd5c03ebcc8643aU, 0x3c8598273ce31c42U, 0xbd964b2cbc55c03eU, 0x3d19a22d3c059827U,
  0x3d2dac32bdcbbb3bU, 0xbdb10333bd707846U, 0xbdcbbb3bbe0a9aa8U, 0xbd631c423db10333U,
  0xbd55c03ebdd9173fU, 0x3d7078463cbb0836U, 0x3ce31c42U, 0x3dbe5f37bde31c42U,
  0xbc059827U, 0xbd0598273d345a34U, 0x3d19a22dbe1cf92eU, 0xbe149fab3d345a34U,
  0xbe0743a7bdd5c03eU, 0x3dbb0836bbd5c03eU, 0x3d99a22dbdd9173fU, 0x3dcf123cbde67343U,
  0x3cf07846bd19a22dU, 0xbd3b0836bcfdd44aU, 0x3db7b1353cf07846U, 0x3da0502ebd69ca44U,
  0x3d5c6e40bd059827U, 0x3da6fe303c55c03eU, 0x3d92f42bbd5c6e40U, 0xbda6fe30bcc8643aU,
  0xbda3a72fbdadac32U, 0x3d964b2c3dbb0836U, 0x3c859827bddfc541U, 0x3dadac323dc8643aU,
  0xbde9ca443c55c03eU, 0x3d859827bc92f42bU, 0xbd26fe30be4f123cU, 0x3d707846bdcf123cU,
  0xbd707846bbd5c03eU, 0xbd345a34bdaa5531U, 0xbdaa55313ba0502eU, 0xbde31c42bd19a22dU,
  0xbdcbbb3b3db7b135U, 0xbd8c4629bddfc541U, 0x3ad5c03ebbd5c03eU, 0xbe0743a73d0c4629U,
  0xbda6fe303de9ca44U, 0xbd859827bb55c03eU, 0xbd48643abad5c03eU, 0xbdf726483c859827U,
  0xbdd5c03ebcadac32U, 0xbdd9173f3cf07846U, 0xbe20502e3bd5c03eU, 0xbc059827be1cf92eU,
  0xbda3a72fbd9cf92eU, 0xbd41b638be149fabU, 0xbd20502ebd7dd44aU, 0xbddc6e403ce31c42U,
  0xbc7078463ddfc541U, 0x3dadac32be2f57b3U, 0xbe0df1a9bc55c03eU, 0xbe08ef283cd5c03eU,
  0x3d8241263e059827U, 0x3c0598273d772648U, 0x3e5414bebe164b2cU, 0xbe1ea4aebbd5c03eU,
  0x3c241217bdb373c9U, 0xbdfb3bb33d8a6f43U, 0xbd42d57bbdb373c9U, 0xbe241217be1740adU,
  0xbe054eb33d4d169dU, 0x3db373c9be3373c9U, 0xbdebda01bd854eb3U, 0x3cf61b223d854eb3U,
  0x3d4d169d3d241217U, 0xbdcd169dbe2932a8U, 0xbd0f8fd4U, 0xbba412173ccd169dU,
  0x3d6198e0bdcd169dU, 0xbd4d169dbc8f8fd4U, 0x3d2e5338bd6198e0U, 0xbca41217bd8f8fd4U,
  0x3d94b065bc4d169dU, 0xbda412173e0cff8cU, 0xbdc7f60c3c241217U, 0xbe2bc2f0be38945aU,
  0xbcb8945abd761b22U, 0xbde198e0be07defbU, 0xbdb373c93d0f8fd4U, 0x3d854eb33debda01U,
  0x3d802e223c4d169dU, 0x3dae53383d6bda01U, 0x3ddc784f3d4d169dU, 0xbd0f8fd4be4d169dU,
  0x3db373c900000000U, 0x3d8f8fd43dfb3bb3U, 0x3d19d0f6be002e22U, 0xbcb8945abcf61b22U,
  0x3d9ef1863cb8945aU, 0x3d5757bebddc784fU, 0x3b241217bdc7f60cU, 0xbd054eb3bd99d0f6U,
  0xbdcd169dbca41217U, 0x3cb8945a3c4d169dU, 0xbe12201cU, 0xbce198e0bea2c9f3U,
  0xbdb8945abbf61b22U, 0xbd5757bebe47f60cU, 0xbd8f8fd43c4d169dU, 0xbcf61b22bdebda01U,
  0x3d38945abd8f8fd4U, 0xbdae5338bd2e5338U, 0xbda932a83d241217U, 0xbc2412173da932a8U,
  0x3d9ef186bd38945aU, 0x3e241217be054eb3U, 0xbcb8945a3d054eb3U, 0xbce198e0bd054eb3U,
  0x3e54c7763db8945aU, 0xbd0f8fd43df0fa92U, 0xbd8f8fd43d054eb3U, 0x3da412173ea2c9f3U,
  0xbe0cff8cbe38945aU, 0xbc2412173c4d169dU, 0xbd761b223b241217U, 0xbe14b065bd0f8fd4U,
  0xbdebda01bde198e0U, 0x3da932a8bdb8945aU, 0x3d94b0653da41217U, 0x3c241217be3b24a2U,
  0xbdc44a9abc175b74U, 0xbd54d89bbdf139c1U, 0x3de0abc0bcf5f49cU, 0x3d20d12bbe021298U,
  0xbcbd3251bd99b8e2U, 0x3c75f49c3d1c1650U, 0x3dcdc0523d0de5bdU, 0xbcec7ee5bdd27b2dU,
  0xbd12a0983dd27b2dU, 0x3d501dc03c047006U, 0xbcd01dc03d047006U, 0x3c175b743c975b74U,
  0x3d92a0983c975b74U, 0xbdd01dc03d33bc9aU, 0xbb175b74be162cbdU, 0xbdd99377bd12a098U,
  0xbe0a5998bdd4d89bU, 0x3d99b8e2bd599377U, 0x3d86cd73bdc44a9aU, 0x3dd4d89bbcc6a808U,
  0x3d6c7ee53d0de5bdU, 0xbdb15f2cbd501dc0U, 0xbc501dc03d847006U, 0xbdbd3251bdf8520aU,
  0xbc501dc03de0abc0U, 0x3c75f49c3d90432bU, 0xbd7139c1bda7e975U, 0xbdfd0ce63d46a808U,
  0x3b975b74bd2f01beU, 0xbd46a8083d0de5bdU, 0xbdaa46e2bdf139c1U, 0xbd0470063d63092eU,
  0x3d599377bd258c07U, 0xbd54d89b3d99b8e2U, 0xbdff6a54be092ae1U, 0x3dc1ed2d3d46a808U,
  0x3cbd3251bb975b74U, 0x3cec7ee53df3972fU, 0xbd9e73bd3d4b62e4U, 0xbb175b74bd8de5bdU,
  0xbd092ae13d63092eU, 0xbdb87775bdfaaf78U, 0xbd8212983c175b74U, 0xbd5e4e52bc047006U,
  0x3d2a46e23dbad4e3U, 0xbd2a46e23c75f49cU, 0xbd7aaf78bd46a808U, 0x3caa46e2bddbf0e5U,
  0xbdcdc052be12a098U, 0xbdf8520abca0d12bU, 0xbc847006bd0de5bdU, 0xbb175b74be047006U,
  0x3be3092ebd7139c1U, 0x3d6c7ee53da0d12bU, 0x3dbf8fbfbe021298U, 0xbdd27b2dbdaca450U,
  0xbde7c40a3c3d3251U, 0xbdaa46e23d8de5bdU, 0x3bbd32513daca450U, 0x3d258c073d092ae1U,
  0x3cf5f49cbc75f49cU, 0xbd892ae1bb63092eU, 0x3dcb62e4bd2f01beU, 0x3db15f2cbd41ed2dU,
  0x3b3536533d1e8f89U, 0xbd87e8be3cb53653U, 0x3d87e8be3ce283e8U, 0xbe80d49f3e0d9271U,
  0x3d792ab2bd8d9271U, 0x3d6283e8bda4393bU, 0xbb353653bdfed465U, 0xbdf92ab2be573083U,
  0x3d4089b8be3db4dfU, 0x3e29e2ee3dc6336bU, 0xbd87e8bebd29e2eeU, 0x3e0d92713d6dd74dU,
  0xbb3536533d98e5d6U, 0xbc6283e8bd133c23U, 0xbe380b2cbdc089b8U, 0x3bb53653bdc6336bU,
  0xbd1e8f893da9e2eeU, 0xbdd730833d823f0cU, 0xbe0abd983e46336bU, 0xbd6dd74d3d1e8f89U,
  0x3bb53653bd4bdd1dU, 0xbdc089b8be3ae006U, 0xbd8d9271bd792ab2U, 0xbd823f0c3cf92ab2U,
  0x3d9e8f893eb3cbe6U, 0x3d4089b8be6283e8U, 0xbd4bdd1dbccbdd1dU, 0x3d4089b8be545ba9U,
  0xbe792ab2bce283e8U, 0xbe4eb1f7be24393bU, 0xbc87e8be3dd186d0U, 0xbd933c23be435e91U,
  0x3d6283e8bb353653U, 0xbce283e83e6558c1U, 0x3ccbdd1dbd8d9271U, 0x3e89532bbc9e8f89U,
  0x3cf92ab23ea5a3a8U, 0x3d4bdd1dbde283e8U, 0x3daf8ca0bd4089b8U, 0x3daf8ca03ccbdd1dU,
  0xbe823f0c3e1e8f89U, 0x3d4089b83d8d9271U, 0x3d29e2ee3da4393bU, 0x3cb53653bc9e8f89U,
  0x3d98e5d6bde283e8U, 0x3e07e8be3daf8ca0U, 0x3d07e8be3d8d9271U, 0xbd9e8f89bd1e8f89U,
  0xbd98e5d63d98e5d6U, 0x3d07e8be3d8d9271U, 0x3dedd74dbe353653U, 0x3ddcda35be216462U,
  0x3c87e8bebdedd74dU, 0x3da9e2eebdc6336bU, 0xbd4bdd1dbde82d9aU, 0xbd823f0cbe8efcddU,
  0xbe8513e53daf8ca0U, 0xbe545ba93d07e8beU, 0xbdaf8ca03d133c23U, 0xbdc089b83dfed465U,
  0xbd573083bdd186d0U, 0x3d6283e83d98e5d6U, 0xbd9e8f893d6283e8U, 0x3ce283e8bce283e8U,
  0xbe0de8d7bd9acf77U, 0xbe3bfbebbdcaba58U, 0x3d971fdbbe010238U, 0xbd55c92a3db84c50U,
  0xbc9370403d0c110aU, 0xbd810238bd0c110aU, 0x3d937040bdc35b22U, 0xbde48797bd971fdbU,
  0xbd971fdb3c84b1d3U, 0xbdc35b22be1ca744U, 0x3d8fc0a5be119873U, 0xbda22ead3cbfab87U,
  0x3d88616f3aebe6cdU, 0x3d470abd3dad3d7fU, 0x3d810238be6a0effU, 0x3c137040bda98de3U,
  0xbd1370403cfaa53aU, 0xbd55c92abd137040U, 0xbd7346033d734603U, 0xbd298de3bd5d2860U,
  0x3c30ed1abe08616fU, 0xbaebe6cd3d4e69f3U, 0xbd1acf77bd04b1d3U, 0xbd298de33d7aa53aU,
  0x3d9370403d55c92aU, 0x3d0c110abdc70abdU, 0x3c1370403da98de3U, 0x3bebe6cd3d30ed1aU,
  0x3da98de3bcebe6cdU, 0xbd7346033da5de48U, 0x3d84b1d3be2d3d7fU, 0x3c30ed1abda98de3U,
  0xbd88616f3e02da06U, 0x3cdd28603c4e69f3U, 0x3d8fc0a53cfaa53aU, 0xbc84b1d3bd3fab87U,
  0x3d734603bd5d2860U, 0xbe30ed1abd648797U, 0x3dcaba58be32c4e7U, 0x3c30ed1a3c137040U,
  0xbddd28603d8fc0a5U, 0x3d30ed1abd971fdbU, 0xbe04b1d33dbfab87U, 0xbd84b1d33dad3d7fU,
  0x3bebe6cd3db84c50U, 0x3cb0ed1a3dc35b22U, 0xbd137040bda5de48U, 0xbe32c4e7bd137040U,
  0x3da22ead3dce69f3U, 0x3dd5c92a3c937040U, 0xbd88616fbdfaa53aU, 0xbddd2860bcbfab87U,
  0x3aebe6cdbcce69f3U, 0x3d04b1d3bbebe6cdU, 0xbdf34603be2d3d7fU, 0xbe02da063d648797U,
  0x3d04b1d3bc4e69f3U, 0xbdc70abdbe0689a1U, 0x3cebe6cdbdb49cb5U, 0xbc84b1d3bdfaa53aU,
  0xbb6be6cdbdbfab87U, 0xbc30ed1abc4e69f3U, 0x3c84b1d33d222eadU, 0x3c30ed1abcfaa53aU,
  0x3c824b67bd1294d4U, 0xbc824b673d6403f4U, 0x3ddbdf3ebd9ab98aU, 0xbc024b673d8a701dU,
  0xbcc3711a3b824b67U, 0xbda2de41bb824b67U, 0x3d024b67be53ba87U, 0x3c024b67bcc3711aU,
  0x3e478376bce403f4U, 0xbe3f5ebf3e1ecbe6U, 0xbe53ba873d6403f4U, 0xbce403f43e373a09U,
  0xbc824b67bd43711aU, 0xbd024b6700000000U, 0xbdfc7218be065dc2U, 0xbdcb95d13dcb95d1U,
  0x3ca2de413db327aeU, 0xbdc3711a3d744d61U, 0xbd9ab98abdec28abU, 0xbe2f1552bd6403f4U,
  0xbdc3711aU, 0x3d824b67U, 0x3dcb95d13e3b4c64U, 0xbe3f5ebfbca2de41U,
  0xbe26f09cbd3327aeU, 0xbd43711abdb327aeU, 0x3e9cc2b8bcc3711aU, 0xbd9294d4be373a09U,
  0x3d024b673dc3711aU, 0x3c824b673d8a701dU, 0xbc43711abcc3711aU, 0xbdfc72183d024b67U,
  0xbe16a72fbc824b67U, 0xbde403f43dbb4c64U, 0x3dc3711abce403f4U, 0xbe57cce3bdec28abU,
  0x3d22de413e1ecbe6U, 0x3dab02f7be065dc2U, 0xbdd3ba87bdbb4c64U, 0xbe1ecbe63e22de41U,
  0xbe22de41bddbdf3eU, 0x3d8a701d3db327aeU, 0xbd53ba87be478376U, 0x3d6403f4bd024b67U,
  0xbdc3711abda2de41U, 0xbd9ab98a3d824b67U, 0xbca2de413ce403f4U, 0x3d8a701dbdab02f7U,
  0xbe4783763e4fa82cU, 0x3dec28ab3e2b02f7U, 0x3d9294d43d1294d4U, 0x3cc3711a3d22de41U,
  0x3e744d61be1ab98aU, 0xbe3f5ebf3e3f5ebfU, 0xbe1ab98abd53ba87U, 0xbd22de413e0a701dU,
  0xbe373a09bc824b67U, 0xbd6403f4bd6403f4U, 0xbe9294d43d744d61U, 0xbdcb95d1bc43711aU,
  0x3d8a701dbd53ba87U, 0xbebb4c643d53ba87U, 0x3d9294d4bd3327aeU, 0xbd9ab98abf0146d0U,
  0xbe9451053e6cc935U, 0x3dd029dabd1c1f64U, 0x3dc5c15cbe3df2feU, 0x3cd029da3d3b58deU,
  0x3cbb58de3c79cbd3U, 0xbe1c1f643ddfc698U, 0xbdff0012bdb6249fU, 0xbb2687e23ce4fad7U,
  0xbe1eb9833e11b6e6U, 0xbe4d8fbbbe30f060U, 0x3d2687e23e074e68U, 0x3e1c1f643dabbc21U,
  0xbd1c1f643df49794U, 0xbd45c15cbdcaf59bU, 0x3e074e68be52c3faU, 0xbe408d1dbd2687e2U,
  0x3e5029da3df9cbd3U, 0xbdc5c15cbca687e2U, 0xbe38bebfbe2bbc21U, 0xbbf9cbd3be860158U,
  0x3dd029dabe43273dU, 0x3d30f0603e96eb25U, 0x3d9c1f643da687e2U, 0xbe2153a33e3b58deU,
  0xbd11b6e6bdea2f16U, 0xbcbb58debdf9cbd3U, 0x3ea53ad2bd1c1f64U, 0xbd91b6e63d9c1f64U,
  0xbd074e68bd874e68U, 0xbe1c1f643e021a29U, 0xbd8c82a7bd9c1f64U, 0xbe0c82a73dd55e1aU,
  0xbe11b6e63e7731b3U, 0x3bf9cbd3be16eb25U, 0x3e09e8873e2687e2U, 0xbe2bbc21be09e887U,
  0xbe0f1cc63e485b7cU, 0x3d3b58debe3df2feU, 0xbe1eb9833e5fc698U, 0xbcd029dabdc5c15cU,
  0xbd30f0603e8dcfb6U, 0x3e64fad7be71fd74U, 0x3dbb58debdea2f16U, 0xbbf9cbd3bdda9259U,
