/**
  ******************************************************************************
  * @file    small_words_model_data.c
  * @author  AST Embedded Analytics Research Platform
  * @date    Mon Nov 15 17:10:39 2021
  * @brief   AI Tool Automatic Code Generator for Embedded NN computing
  ******************************************************************************
  * @attention
  *
  * Copyright (c) 2021 STMicroelectronics.
  * All rights reserved.
  *
  * This software component is licensed by ST under Ultimate Liberty license
  * SLA0044, the "License"; You may not use this file except in compliance with
  * the License. You may obtain a copy of the License at:
  *                             www.st.com/SLA0044
  *
  ******************************************************************************
  */
#include "small_words_model_data.h"
#include "ai_platform_interface.h"


AI_ALIGNED(32)
const ai_u64 s_small_words_model_weights_array_u64[ 12708 ] = {
  0x3e497fabbda848c5U, 0xbe0178333db88bb4U, 0xbdc4ac12bcf1d085U, 0x3d36d2aebd8eec56U,
  0x3e0f5a4cbdf2168fU, 0x3dfd1bd73de121ecU, 0x3dea92c2bddaf311U, 0x3d41bf4e3a48937aU,
  0x3de9b061bddcbe7bU, 0xbe92a9903e985c8bU, 0x3e07360ebd988bdaU, 0xbcc69faabe3f9978U,
  0x3e42b97dbe5c8f66U, 0x3c09f061bdf1bcc5U, 0x3d42a257bd991d0eU, 0x3e37aa9c3e330eefU,
  0x3e6cd565bcea424bU, 0x3d797209bd0a1663U, 0x3cbb28a73d3bf8ffU, 0xbc9090543daabe36U,
  0xbca95ec2bdb451f8U, 0xbe2ef1cf3d97a20fU, 0xbd685720bdc996dcU, 0xbe595cebbe467702U,
  0xbe15b2b93e0dac72U, 0x3dce30f1be4487d4U, 0x3df67da9be1aba7aU, 0x3d9848c9bd90d15bU,
  0xbe7c6ed03e863138U, 0xbe6fdd603e7a6fb8U, 0xbda57e88bdf1fff1U, 0x3da20a02bd77066dU,
  0x3e089a1dbe40c43dU, 0x3e8cb6febe9708d4U, 0x3e0952553d5cc917U, 0xbe856046bbfe7d2dU,
  0x3c4f7dab3b68de61U, 0xbda47a123ddaaef2U, 0x3caa31b7bd9c2b3dU, 0xbe0b53623e0005f9U,
  0xbdec83273d634fa1U, 0x3d3fa488bcc88279U, 0xbb99f7a3bd84d0e1U, 0xbe672a453e413547U,
  0x3e0eeb05bdd8a894U, 0x3d0eadadbdcd55a6U, 0x3d253999bd9729e5U, 0x3e39e174be499caeU,
  0x3e35e2b4be382574U, 0xbdfe6d633d9341ccU, 0xbe0bdc42bdc92558U, 0xbd35c0e2bdc1ca82U,
  0x3e123328be194027U, 0x3e13aba6be3c9757U, 0x3e13bc09be415b01U, 0xbcdd84d63e2b8ffaU,
  0xbdfbe9c43e6805e7U, 0xba69b2e23e00ed85U, 0x3e7461f7be83ca2bU, 0xbdef932d3e148310U,
  0xbd0f4c883e180654U, 0xbd4ea0773cff160eU, 0xbe216ac93d8a7c2cU, 0x3e189a1ebe10f86fU,
  0xbea8863fbdb54cd3U, 0xbd96baab3d396754U, 0xbe029418bd80b896U, 0xbc35e126be33621bU,
  0xbe8da280bcb363a3U, 0xbe6487983e2013a2U, 0xbdf4f01dbe1a1dfcU, 0x3d08b884baa0f414U,
  0xbe2c4ac63deab9b4U, 0xbe15a479be2111b2U, 0x3d623e5abe67f9b6U, 0x3de3337b3c35f9dfU,
  0xbe700df5bdda46efU, 0xbdb340fbbe772696U, 0xbd1fd3af3e857035U, 0xbe1a34233e1a4bf1U,
  0x3d9803a03e1803a0U, 0x3d8849dfbd3cb50dU, 0x3e27bd61bd1d418bU, 0xbba7bd61bb27bd61U,
  0x3ce6a465bd8d87caU, 0xbe1564aa3de1667aU, 0xbe1803a0be2cfb4cU, 0x3df1203bbe377722U,
  0x3d5c288f3e12c5b5U, 0x3bfb9c12bddc288fU, 0x3d323937bd9803a0U, 0xbdfb9c123da7bd61U,
  0x3dc1f2f83ba7bd61U, 0x3df65e26bd92c5b5U, 0x3dacfb4cbd8d87caU, 0x3d7b9c12be1564aaU,
  0xbc51acb9be3a1618U, 0xbd4730e33cfb9c12U, 0xbd8849dfbe9564aaU, 0x3db777223dd6eaa4U,
  0xbdc1f2f83db77722U, 0x3cfb9c12bd4730e3U, 0x3e030bf4bd1d418bU, 0x3da7bd61bdfb9c12U,
  0xbe05aae9bd9d418bU, 0xbde1667a3d8d87caU, 0x3e2cfb4cbd92c5b5U, 0x3ddc288fbdacfb4cU,
  0xbd323937be377722U, 0xbe1fe080bda27f76U, 0xbe41f2f8bdc730e3U, 0x3d71203bbdb77722U,
  0x3d830bf4bd1d418bU, 0x3ca7bd613db77722U, 0x3e1026bf3b27bd61U, 0xbe0d87ca3de6a465U,
  0xbc27bd613dcc6eceU, 0x3e1803a03c92c5b5U, 0x3e006cfebce6a465U, 0x3bfb9c12be0d87caU,
  0xbe1fe080U, 0x3d5c288fbe89995aU, 0x3e3a1618bb27bd61U, 0xbd3cb50dbba7bd61U,
  0xbd51acb93dc730e3U, 0x3d323937bd8849dfU, 0xbdd6eaa4bd8d87caU, 0x3e05aae9bd8d87caU,
  0x3dacfb4cbe12c5b5U, 0x3ba7bd61be3cb50dU, 0x3e1fe080be3cb50dU, 0xbe0849df3e3f5403U,
  0xbe030bf4be3cb50dU, 0xbce6a4653e27bd61U, 0x3b27bd613e1803a0U, 0x3dfb9c12bea66de6U,
  0x3da27f763d8849dfU, 0x3d27bd61bd71203bU, 0xbd5c288fbd4730e3U, 0x3db239373e1026bfU,
  0xbca7bd613ce6a465U, 0xbda27f76bca7bd61U, 0xbe3777223db77722U, 0xbe640570bdebe250U,
  0xbdcf93803ddcd362U, 0xbe11beb73d0d5416U, 0xbce5a8a43d397e5dU, 0x3e401e4ebe3de8feU,
  0xbc30a91cbe11beb7U, 0xbdc6be3fbe48f38fU, 0xbe51c8d1bd9a93f8U, 0x3c8d54163c775326U,
  0xbd397e5dbd9a93f8U, 0x3d047ed53e5a9e12U, 0xbdfbbdc7bd847ed5U, 0x3db513bcbe48f38fU,
  0xbc0d54163d30a91cU, 0xbd88e975be1a93f8U, 0xbc30a91c3da36939U, 0x3ddcd3623cc2539eU,
  0x3c9efe993d847ed5U, 0x3dbde8febe37490dU, 0x3dea13443e1a93f8U, 0xbe2e73cbbdf75326U,
  0xbe047ed5bd162957U, 0x3c0d54163d6e7de5U, 0x3dbde8fe3e185ea8U, 0xbdea13443e27d3daU,
  0x3e37490d3d88e975U, 0xbd1efe993e13f407U, 0xbd962957bde5a8a4U, 0xbd53fe21be259e8aU,
  0x3d047ed5bbd3fe21U, 0xbcd3fe21be024984U, 0x3d8d5416bdb0a91cU, 0xbd397e5d3d1efe99U,
  0x3d88e9753d5cd362U, 0x3df75326bd0d5416U, 0x3c0d5416bd9efe99U, 0xbdf2e8863e06b425U,
  0xbd65a8a4bcd3fe21U, 0xbd047ed5bd162957U, 0x3e13f4073e4f9380U, 0x3dfbbdc73dee7de5U,
  0xbd8d54163e8c396eU, 0xbddcd362bd962957U, 0xbdea13443d91beb7U, 0x3e6c4895bcc2539eU,
  0x3dd3fe213cb0a91cU, 0x3c30a91c3db97e5dU, 0xbddcd362bdac3e7bU, 0x3e259e8a3dc2539eU,
  0x3de13e03be11beb7U, 0x3d4b28e03e563371U, 0xbe5a9e123c53fe21U, 0x3ddcd3623d30a91cU,
  0x3ce5a8a4bdfbbdc7U, 0xbd1efe99bdfbbdc7U, 0x3e06b4253cf75326U, 0x3dd3fe213e613e03U,
  0xbe2e73cbbcf75326U, 0xbe0b1ec63d5cd362U, 0xbcd3fe213d42539eU, 0x3d5cd362be4f9380U,
  0xbcf75326bdb0a91cU, 0x3dfbbdc7bcc2539eU, 0x3cb0a91cbd65a8a4U, 0x3dcb28e0bde13e03U,
  0x3dfd7fc9be0cd537U, 0xbb9638c33d28ffdbU, 0x3d8cd537bd615524U, 0x3da8ffdbbd0371abU,
  0x3d4e8e0cbd28ffdbU, 0x3e0cd537be082371U, 0x3d0371abbd3bc6f4U, 0xbdc52a80bf150c51U,
  0xbd741c3dbd9f9c4fU, 0xbe1aea893d3bc6f4U, 0xbd3bc6f43dce8e0cU, 0xbd4e8e0c00000000U,
  0x3deab8b13b9638c3U, 0xbdc52a803e37152eU, 0xbdf41c3d3b9638c3U, 0x3b9638c33d0371abU,
  0x3d8371abbe0371abU, 0xbda8ffdb3cbbc6f4U, 0xbc9638c3be4078baU, 0x3e0823713dbbc6f4U,
  0xbc6155243deab8b1U, 0xbe28ffdbbe244e15U, 0x3d0371abbdeab8b1U, 0x3dfd7fc9be3bc6f4U,
  0x3dd7f198bc9638c3U, 0x3d28ffdb3dfd7fc9U, 0xbe533fd23ce15524U, 0x3ce155243df41c3dU,
  0xbdce8e0c3d4e8e0cU, 0x3e0371abbd3bc6f4U, 0x3d741c3dbd28ffdbU, 0xbdbbc6f4be1186fdU,
  0xbde155243df41c3dU, 0x3e3bc6f43d8cd537U, 0x3df41c3d3da8ffdbU, 0xbd8cd5373d9638c3U,
  0x3ce155243e1aea89U, 0x3c9638c33d3bc6f4U, 0x3dd7f198bc9638c3U, 0xbdbbc6f43e0371abU,
  0xbcbbc6f4bd9f9c4fU, 0xbce15524bd28ffdbU, 0x3e1aea89bd3bc6f4U, 0xbe1186fd3d0371abU,
  0xbc1638c33d8cd537U, 0x3c9638c3bdeab8b1U, 0xbc9638c33dfd7fc9U, 0xbd6155243dbbc6f4U,
  0xbe0371ab3ce15524U, 0xbb9638c3bd3bc6f4U, 0x3d3bc6f4bdfd7fc9U, 0xbe5ca35e3d0371abU,
  0x3db263683dd7f198U, 0x3e28ffdbbde15524U, 0xbe3bc6f4bd8cd537U, 0xbd9f9c4fbe452a80U,
  0x3d8cd537bd9f9c4fU, 0xbde15524bd741c3dU, 0xbda8ffdbbe4078baU, 0xbb9638c33d1638c3U,
  0x3d8371ab3e1aea89U, 0xbd4e8e0cbe1aea89U, 0x3d8371ab3d4e8e0cU, 0xbc615524bd3bc6f4U,
  0xbd08f12bbe16a2e2U, 0xbd6d5dc2be3b2776U, 0xbd8d81be3bdb1b78U, 0x3cb696e4bd846098U,
  0xbe28e52c3d643c9dU, 0x3d96a2e2bd96a2e2U, 0xbe16a2e23e02184fU, 0x3dbfb809be0d81beU,
  0xbc921250be16a2e2U, 0xbe08f12b3d5b1b78U, 0xbe269ce33d767ee7U, 0x3e06a8e2be344e9bU,
  0xbe08f12b3b921250U, 0x3d08f12b3c5b1b78U, 0x3d5b1b78be0b3974U, 0xbd8d81bebe16a2e2U,
  0xbd9b3375bdcd69c0U, 0xbcb696e4bcdb1b78U, 0xbc7fa00cbdd68ae6U, 0xbd5b1b783d6d5dc2U,
  0x3d643c9d3df67ee7U, 0xbdf1ee543d08f12bU, 0xbd1b3375bd5b1b78U, 0xbd88f12bbe0fca07U,
  0xbde8cd303cc8d92eU, 0x3d24549a3d121250U, 0xbe28e52cbe1d7bbeU, 0xbdbb2776bc5b1b78U,
  0x3dbb2776bd921250U, 0x3d5b1b783ca4549aU, 0x3e02184f3d3fb809U, 0x3de43c9d3d643c9dU,
  0x3d96a2e23db696e4U, 0xbdd68ae63d8d81beU, 0xbe420052bd9b3375U, 0xbe3206523c121250U,
  0x3d9b3375bddfac0aU, 0xbdb20652be121250U, 0xbcdb1b783c121250U, 0xbcffa00c3df1ee54U,
  0x3d5b1b7800000000U, 0xbd2d75bf3e02184fU, 0xbdd1fa533c3696e4U, 0x3c7fa00cbe1fc408U,
  0xbde43c9d3d846098U, 0xbdcd69c03e0b3974U, 0xbdf67ee7bd9fc408U, 0xbdd1fa533cb696e4U,
  0x3d88f12b3c5b1b78U, 0x3d51fa533c921250U, 0xbd846098bd121250U, 0x3ddfac0a3e2b2d76U,
  0x3e06a8e23d2d75bfU, 0xbe7fa00cbda8e52cU, 0x3e08f12bbe420052U, 0xbd6d5dc2be90ee2bU,
  0xbde8cd303e16a2e2U, 0xbe08f12bbe3b2776U, 0xbdc8d92e3dbfb809U, 0x3ddfac0abcdb1b78U,
  0xbe2d75bf3e1fc408U, 0xbd3696e43e06a8e2U, 0xbd846098bd51fa53U, 0xbdf1ee54bd88f12bU,
  0xbde67b2d3d326fe1U, 0x3d5f0bd93e2748e3U, 0x3bedea81bdfcc929U, 0xbcedea81bd9c21e5U,
  0x3e2b008d3cd02d31U, 0x3d7cc929be326fe1U, 0xbe098b93bd9c21e5U, 0xbdd79c85be1c21e5U,
  0x3e414e89be4c7587U, 0x3dedea81bc94b291U, 0x3d326fe1bd326fe1U, 0xbe79117fbe3d96dfU,
  0x3d05d3e9bd94b291U, 0xbd502d31be53e4dbU, 0xbc326fe1bc94b291U, 0xbcd02d31bd239139U,
  0x3e186a3bbd326fe1U, 0xbe1c21e5bdc14e89U, 0x3db9df35beec0eacU, 0x3cd02d31bc326fe1U,
  0xbd9c21e53d239139U, 0xbdd02d31bd6dea81U, 0xbcb26fe1bd414e89U, 0x3ddf0bd9be3d96dfU,
  0x3b6dea81be2b008dU, 0x3cd02d313d239139U, 0xbdc14e893e05d3e9U, 0xbd9c21e5be186a3bU,
  0xbcd02d31bd5f0bd9U, 0x3d85d3e9bdab008dU, 0xbea39139bd326fe1U, 0x3e14b291bb6dea81U,
  0x3c94b291bd85d3e9U, 0xbbedea8100000000U, 0xbd8d433dbda39139U, 0x3d14b2913d05d3e9U,
  0xbea748e33bedea81U, 0x3dfcc9293d9c21e5U, 0x3c6dea813e098b93U, 0x3d85d3e9be579c85U,
  0xbc6dea813ea56d0eU, 0x3c6dea81bdfcc929U, 0xbe6a32d73d9c21e5U, 0x3e53e4dbbd7cc929U,
  0x3e39df353d326fe1U, 0xbe4c75873d94b291U, 0xbda39139beaeb837U, 0x3e53e4dbbe8d433dU,
  0xbdab008d3cd02d31U, 0x3e62c3833ebbbb0aU, 0xbda39139bde67b2dU, 0x3e414e893d414e89U,
  0x3e0d433d3e85d3e9U, 0xbe94b291bde67b2dU, 0xbd14b291beaeb837U, 0xbd8d433d3cb26fe1U,
  0x3da391393e6dea81U, 0xbdedea813b6dea81U, 0xbe7cc929be186a3bU, 0x3e021c3fbda39139U,
  0xbdab008d3d9c21e5U, 0x3e4506333ddf0bd9U, 0xbc94b2913d85d3e9U, 0xbbedea813e05d3e9U,
  0xbe006a8bbd836711U, 0x3dc51a993de8f0e4U, 0x3e0663973e006a8bU, 0x3d7adc093d1b4b43U,
  0x3db32f743dad3668U, 0xbd9b4b433dbf218dU, 0xbe006a8b3de2f7d7U, 0x3d89601dbe09601dU,
  0x3d3f218dbe421e13U, 0x3e2d366800000000U, 0x3da73d5bbde8f0e4U, 0xbd89601dbceee9f0U,
  0x3ca73d5bU, 0x3da73d5bbe1255b0U, 0xbd8f592a3d4b13a6U, 0xbd5705bf3deee9f0U,
  0xbe0f592abe332f74U, 0xbe6ee9f03d955236U, 0x3cbf218d3e9b4b43U, 0x3da73d5b3d3f218dU,
  0xbe21444fbe74e2fdU, 0x3d6ee9f03e6bed6aU, 0xbdeee9f0bd955236U, 0x3dbf218d3e273d5bU,
  0xbe540938bebda34aU, 0xbcd705bf3e09601dU, 0x3ddcfecbbe2440d5U, 0xbe4e102cbe510cb2U,
  0xbc6ee9f0be3c2507U, 0xbd8367113dd10cb2U, 0xbd9b4b433e2a39e2U, 0xbe451a99bd332f74U,
  0x3dad3668bceee9f0U, 0x3d9b4b433df4e2fdU, 0x3e540938bc0f592aU, 0xbdc51a993c0f592aU,
  0x3d4b13a6bd62f7d7U, 0x3dcb13a6bddcfecbU, 0xbc3f218d3df4e2fdU, 0xbd955236be9e47c9U,
  0x3da1444fbd5705bfU, 0xbc0f592abe68f0e4U, 0x3e0663973db32f74U, 0x3e2440d53e510cb2U,
  0x3d4b13a63e89601dU, 0x3d7adc0900000000U, 0x3e8ddae73dcb13a6U, 0xbe2440d5be1b4b43U,
  0xbdb32f74bd0f592aU, 0x3ca73d5bbdf4e2fdU, 0xbd3f218dbe984ebcU, 0xbd6ee9f03c3f218dU,
  0x3e273d5bbcd705bfU, 0xbe1e47c9be1b4b43U, 0x3da73d5b3df4e2fdU, 0xbda73d5bbca73d5bU,
  0xbc3f218dbd332f74U, 0xbe62f7d73e09601dU, 0xbea73d5b3bbf218dU, 0x3e09601d3da1444fU,
  0xbe68f0e4bd273d5bU, 0xbd62f7d73c8f592aU, 0xbe21444f3e184ebcU, 0xbdd10cb2bc3f218dU,
  0xbe4173233d0a2dabU, 0x3e0344fc3d9c9a29U, 0x3e15b17abdeae73dU, 0xbdaf06a6be7fa14aU,
  0xbdaf06a6bc9363eaU, 0xbe0a2dab3da5d067U, 0xbb1363ea3e8906e4U, 0x3d383ce4bdcf4481U,
  0xbdc173233d0a2dabU, 0x3cef825c3d78b89bU, 0x3d6f825c3ccaa962U, 0x3cb83ce4bbdd15dfU,
  0xbdd3dfa0be43c0b3U, 0xbc80f76dbda5d067U, 0x3e07e01cbd417323U, 0xbdf8b89b3b9363eaU,
  0xbd383ce43cef825cU, 0x3c1363ea3ddd15dfU, 0xbdeae73d3c383ce4U, 0xbd5d15dfbd9363eaU,
  0x3dc173233dcaa962U, 0xbe2cb9163d383ce4U, 0x3d383ce4be3cd804U, 0x3d4173233d5d15dfU,
  0xbdcf44813e281df7U, 0xbd00f76d3df41d7cU, 0xbe281df7bdaa6b87U, 0x3e383ce4bc383ce4U,
  0xbe3cd804bdcf4481U, 0x3d80f76dbdcaa962U, 0xbc5d15df3e923d22U, 0xbe17ff093d9c9a29U,
  0x3e1a4c993d80f76dU, 0x3db3a1c53de64c1eU, 0x3d97ff09bb9363eaU, 0xbda5d067bda13548U,
  0xbe1ee7b83dbcd804U, 0x3ccaa962bddd15dfU, 0x3d25d067be11165aU, 0x3db3a1c53d8ec8cbU,
  0x3d1c9a29bca5d067U, 0xbe4173233e07e01cU, 0xbd8a2dab3d4aa962U, 0xbd2f06a6bbdd15dfU,
  0xbe1363ea3e3cd804U, 0x3e562d303da5d067U, 0x3e485bd2bc1363eaU, 0xbe17ff093bdd15dfU,
  0xbdaf06a63e33a1c5U, 0x3daa6b873c9363eaU, 0xbe25d0673cef825cU, 0xbe0c7b3b3c5d15dfU,
  0xbcef825c3dd3dfa0U, 0xbdc17323bd53dfa0U, 0xbe4aa962be3cd804U, 0xbd9363ea3d9363eaU,
  0x3e2cb916bd9c9a29U, 0x3c5d15dfbdc17323U, 0x3de1b0febe7b062bU, 0xbe11165abd6f825cU,
  0x3de64c1e3e281df7U, 0xbe664c1ebdbcd804U, 0x3de1b0febdef825cU, 0xbe846bc43da13548U,
  0xbc65b0b6bdc0c699U, 0x3e0f8e72bd6de4bcU, 0xbda82a85bcf618c3U, 0x3e46ed9ebd65b0b6U,
  0x3e3a9f94bb834068U, 0xbe261d84bde5b0b6U, 0x3c034068bd7618c3U, 0x3e34788fbc93a875U,
  0xbc93a8753dede4bcU, 0xbc44e09c3e1ff67fU, 0xbcb4788fbd0b746eU, 0x3e0d8170bdb4788fU,
  0x3d65b0b6bd93a875U, 0x3e3cac96be46ed9eU, 0x3d834068bb034068U, 0x3c65b0b63cb4788fU,
  0xbdede4bc3de9cab9U, 0xbd2c44883dcd14a2U, 0x3e054d6a3d8f8e72U, 0xbddd7cb0be1bdc7cU,
  0xbdcd14a2bb034068U, 0xbc0340683d4d14a2U, 0xbd93a8753d34788fU, 0xbdede4bc3db89292U,
  0x3d97c278be34788fU, 0x3cf618c33d8f8e72U, 0x3e013366bd44e09cU, 0xbe261d84bd3cac96U,
  0xbd7618c3bd7618c3U, 0xbd13a8753cf618c3U, 0x3e15b577bc834068U, 0xbe46ed9ebdb89292U,
  0x3e15b5773ce5b0b6U, 0xbd875a6b3d034068U, 0x3d5d7cb03d9bdc7cU, 0xbb034068bcd548a9U,
  0xbd7618c3bc44e09cU, 0x3e48fa9f3e09676dU, 0xbca410823ddd7cb0U, 0x3cf618c3be13a875U,
  0xbd1bdc7cbe054d6aU, 0xbd8340683d834068U, 0x3cd548a93d8b746eU, 0xbc834068be8239e7U,
  0x3da41082be034068U, 0xbdf1fec0bdc4e09cU, 0xbdc8fa9fbdc4e09cU, 0x3d8340683e0f8e72U,
  0x3dbcac96bb034068U, 0x3c834068bd834068U, 0x3c834068bd5d7cb0U, 0xbd9ff67f3d97c278U,
  0x3e075a6bbd93a875U, 0xbd13a875bd241082U, 0x3e0f8e72bca41082U, 0x3d034068bd834068U,
  0xbc93a875bb834068U, 0xbd0b746ebce5b0b6U, 0x3ce5b0b63e34788fU, 0xbd13a875be1de97dU,
  0x3c44e09c3d4d14a2U, 0x3cf618c33e13a875U, 0x3d0b746ebe802ce6U, 0x3e0d8170be034068U,
  0xbde4521a3c8eb350U, 0xbd72973c3deb74abU, 0xbd0eb350bdd60cf8U, 0xbda41b03bd560cf8U,
  0x3da41b033d47c7d7U, 0xbd006e2fbdeb74abU, 0xbd8eb350bddd2f89U, 0xbdeb74abbe0eb350U,
  0x3d8eb3503df9b9ccU, 0xbddd2f89bdb982b5U, 0xbe0790bfbda41b03U, 0x3d560cf83d2b3d94U,
  0xbdd60cf8bce4521aU, 0x3d0eb3503d47c7d7U, 0x3d95d5e13d8790bfU, 0x3deb74abbcc7c7d7U,
  0xbcab3d94bc2b3d94U, 0xbd2b3d94bd9cf872U, 0x3df2973cbeb5f16dU, 0x3e40a5463e3d13feU,
  0xbdb26024bb64521aU, 0xbd47c7d73e15d5e1U, 0xbe241b03be85c81bU, 0x3db982b53e6b74abU,
  0x3d72973cbe326024U, 0x3e15d5e1U, 0x3cc7c7d73e27ac4bU, 0x3d72973c3e006e2fU,
  0x3de4521a3c64521aU, 0xbdd60cf83dab3d94U, 0xbee28976bd806e2fU, 0x3e47c7d7bd0eb350U,
  0x3cc7c7d73e326024U, 0xbe241b03bc64521aU, 0xbd560cf8bd72973cU, 0x3d64521abdceea68U,
  0x3d64521abd47c7d7U, 0xbd560cf83d64521aU, 0xbc2b3d943d806e2fU, 0xbbe4521a3d3982b5U,
  0x3d8790bfbdc0a546U, 0x3e196729bdd60cf8U, 0xbdb982b53d0eb350U, 0x3d72973c3dab3d94U,
  0x3d006e2fbb64521aU, 0x3ce4521abe326024U, 0xbe4eea683c8eb350U, 0xbd006e2f3d2b3d94U,
  0x3e006e2fbe6b74abU, 0x3e527bb03d806e2fU, 0x3d95d5e1be4eea68U, 0xbce4521abd806e2fU,
  0xbdf9b9cc3d9cf872U, 0x3ce4521abd8790bfU, 0x3e599e41be15d5e1U, 0xbd8eb350bdf9b9ccU,
  0xbe40a546bd8eb350U, 0xbdb26024bd8eb350U, 0xbdceea683db26024U, 0x3e1cf872bd47c7d7U,
  0xbdc7c7d7bdceea68U, 0xbd2b3d943b64521aU, 0xbd47c7d7bc64521aU, 0x3db260243d006e2fU,
  0x3d718f3bbd82120cU, 0xbe431b12bd82120cU, 0xbd5efa5e3e308635U, 0x3d308635be377e08U,
  0x3dc7c049bd308635U, 0x3d4c65803d82120cU, 0xbd431b12bdbe75dbU, 0xbe1df1583d8b5c7aU,
  0xbd0b5c7abe65f230U, 0x3c39d0a33d9df158U, 0x3c94a6e93d273bc6U, 0xbe2043f3U,
  0x3dda5526be6cea03U, 0x3db52b6c3d273bc6U, 0x3db9d0a3bc82120cU, 0xbd994c203e273bc6U,
  0x3e0b5c7abe377e08U, 0xbb14a6e9bc82120cU, 0x3d14a6e9bd0b5c7aU, 0xbd6844ccbe06b743U,
  0xbe78870ebe510ab8U, 0xbc5efa5e3d994c20U, 0xbd431b123d273bc6U, 0xbda2968fbd39d0a3U,
  0xbd86b7433d6844ccU, 0x3d273bc63d86b743U, 0xbd5efa5e3d718f3bU, 0x3d994c20be4a12e5U,
  0x3dcc6580bdfad9a9U, 0x3dc31b123d55afefU, 0xbd02120cbe0909dfU, 0x3d02120cbe2043f3U,
  0x3e858df5be1df158U, 0x3e32d8d0be4c6580U, 0x3b14a6e9bd0b5c7aU, 0xbd94a6e93e3e75dbU,
  0x3cb9d0a3be273bc6U, 0x3de39f953d9df158U, 0x3d8b5c7a3e0b5c7aU, 0xbc39d0a33dd5afefU,
  0xbd9df1583d718f3bU, 0xbcf18f3bbe06b743U, 0x3d718f3b3e0b5c7aU, 0x3d0b5c7a3db52b6cU,
  0x3e6a97683dcc6580U, 0x3dff7ee0bcdefa5eU, 0xbd7ad9a9be937d9bU, 0x3e24e92abe3c233fU,
  0xbdb9d0a3bd273bc6U, 0xbe273bc63d55afefU, 0x3da2968fbd431b12U, 0x3d6844ccbdb08635U,
  0x3da73bc63de39f95U, 0xbd994c20be24e92aU, 0x3cf18f3b3cf18f3bU, 0x3c5efa5ebe8a332dU,
  0x3d86b7433e02120cU, 0xbe0464a83c82120cU, 0xbe431b123cdefa5eU, 0xbb14a6e9bdf18f3bU,
  0x3dd5afefbdb08635U, 0xbdf18f3b3bdefa5eU, 0x3e0909dfbd431b12U, 0x3dcc6580be6f3c9fU,
  0x3dd4451e3c3795b9U, 0x3bb795b93dac1c5dU, 0xbc09b04b3d4e8870U, 0xbdc30f153d9529a6U,
  0x3dda01cc3e3795b9U, 0xbe09b04bbe1529a6U, 0xbe76b1313db1d90bU, 0xbd89b04b3e9c5580U,
  0x3de57b27be48cbc2U, 0xbd430f153dd4451eU, 0x3e03f39dbd3795b9U, 0xbe54451e3e0c8ea2U,
  0xbdfc6dde3db1d90bU, 0x3ce57b273e4030beU, 0xbe265fb03dfc6ddeU, 0x3d83f39d3d4e8870U,
  0x3db1d90bbe811546U, 0xbe09b04bbd1529a6U, 0xbd2c1c5d3d430f15U, 0xbd657b27bdb1d90bU,
  0xbd8f6cf9bdc30f15U, 0xbda0a3023d2c1c5dU, 0x3e1807fd3e238159U, 0xbdfc6dde3eb34837U,
  0x3d1529a63e293e07U, 0x3e34b762bda65fb0U, 0x3c09b04b3db795b9U, 0xbcfc6ddebe8c8ea2U,
  0x3e03f39dbeb6268eU, 0xbd5a01ccbe54451eU, 0x3e90dc24bdda01ccU, 0x3d4e88703cce8870U,
  0x3c09b04bbca0a302U, 0x3e09b04bbd70f483U, 0x3de57b273e0c8ea2U, 0x3e03f39dbda65fb0U,
  0x3d20a3023e4e8870U, 0x3da65fb03ddfbe79U, 0xbca0a302bc09b04bU, 0x3d5a01ccbe5166c7U,
  0x3d20a302be06d1f4U, 0x3c89b04b3da0a302U, 0x3cb795b93dc30f15U, 0x3d9529a6bcfc6ddeU,
  0xbd09b04bbd89b04bU, 0x3d657b27bdb1d90bU, 0xbc89b04bbe1807fdU, 0x3c09b04b3dc8cbc2U,
  0x3e2efab43dce8870U, 0xbe03f39d3d5a01ccU, 0xbda0a302bdda01ccU, 0xbdfc6ddebe3d5267U,
  0x3de57b27bd7c6ddeU, 0x3d3795b9bde57b27U, 0x3c89b04bbcce8870U, 0xbdda01ccbe06d1f4U,
  0xbc09b04b3db1d90bU, 0x3e011546bc09b04bU, 0x3d9ae6543db1d90bU, 0xbd9529a6bda65fb0U,
  0xbd4e88703d89b04bU, 0xbc3795b93dd4451eU, 0xbe1807fdbe8b1f76U, 0x3cfc6ddebd5a01ccU,
  0xbdd9cac93e1d4b58U, 0xbce84fc6be2964d5U, 0xbe1adfd93dc66eceU, 0xbe6378c7bd0783deU,
  0x3d4b45cd3d5ea1c8U, 0x3d82acdf3d0783deU, 0x3d9131dbbd9131dbU, 0x3dd4f3cabe8d909cU,
  0x3dae3bd4bd4b45cdU, 0xbd4b45cdbd54f3caU, 0x3d2e3bd43c9adfd9U, 0x3cae3bd4bb1adfd9U,
  0xbe1adfd93d71fdc3U, 0xbe26f956bdf6d4c2U, 0xbe746942bdfbabc1U, 0x3d9131db3dd9cac9U,
  0xbd684fc63dbcc0d0U, 0xbdf6d4c2bda964d5U, 0x3e1fb6d83e248dd7U, 0x3df1fdc3bd9adfd9U,
  0xbb9adfd93e6378c7U, 0x3cfbabc13c9adfd9U, 0xbb1adfd93de378c7U, 0x3d5ea1c8be89ef5dU,
  0x3e1608da3d5ea1c8U, 0xbe18745abdae3bd4U, 0xbce84fc63da48dd7U, 0x3be84fc63e3f2c50U,
  0x3e05185e3e7babc1U, 0xbdd9cac9be1adfd9U, 0xbe99aa19bd0783deU, 0x3db312d33e1d4b58U,
  0xbd71fdc3bd8783deU, 0xbe0041603d54f3caU, 0x3e09ef5dbe3312d3U, 0xbcfbabc13e0c5addU,
  0xbcfbabc13e3a5551U, 0xbd5ea1c8U, 0xbce84fc63e26f956U, 0xbc1adfd93dae3bd4U,
  0x3dfbabc13d71fdc3U, 0xbe2bd0553c1adfd9U, 0x3d248dd7bc8783deU, 0x3c1adfd93e139d5bU,
  0xbe1adfd93d4197cfU, 0xbe1131db3be84fc6U, 0xbded26c43e0783deU, 0x3da48dd7bdc197cfU,
  0x3dc66ece3be84fc6U, 0xbcfbabc13c684fc6U, 0xbe1131db3d9131dbU, 0x3e139d5b3c4197cfU,
  0xbd8c5add3da48dd7U, 0xbe1d4b583e139d5bU, 0xbdbcc0d0bdd9cac9U, 0xbde378c7bd9608daU,
  0xbe92679bbdd9cac9U, 0x3d8783de3e0c5addU, 0x3e37e9d23dc197cfU, 0xbe02acdfbdae3bd4U,
  0x3df6d4c2be3f2c50U, 0xbe0c5addbc8783deU, 0xbe6f92443d82acdfU, 0x3e1d4b58bd7babc1U,
  0xbd321ab53d4e39dfU, 0xbe240b20bd9aab67U, 0xbb95fb8bbc95fb8bU, 0xbdc4da263de5a92dU,
  0xbb15fb8bbd9aab67U, 0xbcbb7a6e3dea5909U, 0xbdb6ca913df3b8c2U, 0x3e15fb8b3d033c1aU,
  0x3e28bafc3c60f950U, 0xbdad6ad93c833c1aU, 0x3d8c9bd200000000U, 0x3d95fb8b3cbb7a6eU,
  0xbdc4da26bd6a5909U, 0xbd60f950bb15fb8bU, 0xbe402a4abc3b7a6eU, 0x3d28bafc3e185379U,
  0xbc15fb8bbe059408U, 0x3c95fb8bbcf3b8c2U, 0x3e28bafcbe94cf94U, 0x3cce39dfbd73b8c2U,
  0xbca8bafcbddc4974U, 0x3dce39dfbe0ef3c0U, 0xbd833c1abd3b7a6eU, 0x3d15fb8bbe846811U,
  0xbe00e42b3da40b20U, 0xbdc4da26be7610b0U, 0xbd9f5b44be321ab5U, 0x3e240b203e2fc2c7U,
  0xbc3b7a6ebc15fb8bU, 0xbe114baf3dc4da26U, 0x3ce0f950bd8c9bd2U, 0xbe3472a33d033c1aU,
  0x3dc4da26be87ebf6U, 0x3e00e42b3d3b7a6eU, 0xbc60f950be321ab5U, 0xbdd799983d9f5b44U,
  0xbe4be1f13c95fb8bU, 0x3d73b8c23e3472a3U, 0x3e44da263c833c1aU, 0xbb15fb8bbdd79998U,
  0xbe321ab53e7d187bU, 0x3df3b8c2be60f950U, 0x3cf3b8c2bcce39dfU, 0x3e36ca913d3b7a6eU,
  0x3e1f5b44be5541aaU, 0x3e13a39d3e2d6ad9U, 0x3cce39dfbd0c9bd2U, 0x3e0ef3c0bdf8689eU,
  0x3c60f950bcf3b8c2U, 0x3df3b8c23e26630eU, 0xbddc4974bda8bafcU, 0x3e00e42b3dc98a03U,
  0x3e3472a3bcbb7a6eU, 0xbe1f5b44be4e39dfU, 0x3d4e39dfbdfd187bU, 0x3be0f950bd9aab67U,
  0xbe3b7a6e3dea5909U, 0xbb15fb8b3dfd187bU, 0xbe15fb8bbd033c1aU, 0xbda40b203dc4da26U,
  0xbdbb7a6e3de0f950U, 0x3e6cb0f73dfd187bU, 0x3e1aab673d033c1aU, 0xbdb21ab5bd833c1aU,
  0xbda032bdbdfa4f47U, 0x3c704c1c3df54db1U, 0xbba032bd3db93aabU, 0x3d343915be61475aU,
  0x3cf04c1c3d524298U, 0x3cf04c1c3d82293aU, 0x3bf04c1cbcc83f6cU, 0xbde1475abddc45c4U,
  0x3de1475a3cf04c1cU, 0xbc704c1cbde1475aU, 0x3e072acfbd3e3c40U, 0xbcf04c1cbe22b388U,
  0x3c704c1cbe5c45c4U, 0x3d2a35e9be13aec6U, 0x3de1475a3dc33dd6U, 0xbe0c2c653e09ab9aU,
  0xbca032bd3cdc45c4U, 0xbdd7442e3d872acfU, 0x3dd7442e3dd24298U, 0xbd5c45c4bd8c2c65U,
  0xbe1db1f2bd872acfU, 0xbdfa4f47be27b51eU, 0xbe872acf3c2032bdU, 0x3de648f03db93aabU,
  0xbc2032bdbe8d6ccbU, 0x3d9b3127be02293aU, 0x3d162f91bdaa35e9U, 0xbe162f913cb43915U,
  0xbe1db1f2be61475aU, 0x3d8c2c653daf377fU, 0x3d02293a3d524298U, 0x3c483f6cbbf04c1cU,
  0x3e02293abe31b84aU, 0x3da53453bd02293aU, 0xbc483f6c3e1db1f2U, 0x3da032bdbe04aa05U,
  0xbdd7442ebe1db1f2U, 0xbe072acf3d5c45c4U, 0x3e72cce63d962f91U, 0x3e45bea1bdaf377fU,
  0xbdb93aab3e84aa05U, 0xbda032bd3d6648f0U, 0xbe45bea13deb4a86U, 0x3e9ef258bdff50ddU,
  0x3c8c2c65bba032bdU, 0x3dd24298bd02293aU, 0x3df54db1bd872acfU, 0x3d2a35e9be0ead30U,
  0x3dbe3c403e40bd0bU, 0x3d2032bd3e72cce6U, 0x3d7a4f473ca032bdU, 0x3dd7442ebd9b3127U,
  0x3d483f6c3dff50ddU, 0xbda032bdbdd7442eU, 0x3d872acfbe04aa05U, 0xbdd24298be112dfbU,
  0xbc8c2c653d82293aU, 0x3d8c2c65bd6648f0U, 0xbe2f377fbe04aa05U, 0x3dc33dd6bdff50ddU,
  0xbdcd41023dc33dd6U, 0x3ca032bdbdff50ddU, 0x3dfa4f47be2032bdU, 0xbdaf377fbc704c1cU,
  0xbcc29059be234b6fU, 0x3dc290593ca6c4deU, 0x3e498337be077ff5U, 0xbd7a274d3dde5bd3U,
  0xbdd07616be0af964U, 0x3dd768f43c8af964U, 0x3e31312c3d18df21U, 0x3cfa274dbe654eb2U,
  0x3d5076163dadb7bdU, 0x3d429059be5768f4U, 0xbd26c4de3d9fd200U, 0x3df3346f3c5e5bd3U,
  0x3e26c4de3c8af964U, 0x3d91ec42bcc29059U, 0x3d91ec42be5ae264U, 0xbdfa274dbe7a274dU,
  0xbc8af9643c26c4deU, 0x3e0e72d33cc29059U, 0xbc5e5bd33d6c4190U, 0xbd0af964bd18df21U,
  0xbd91ec42bd7a274dU, 0xbd0af964bcc29059U, 0x3e077ff5bde54eb2U, 0xbe11ec42be972269U,
  0x3da6c4debdc98337U, 0xbe1c58903c5e5bd3U, 0xbdc29059be4cfca7U, 0x3dc290593cc29059U,
  0x3c8af9643e2a3e4eU, 0x3d98df213e2a3e4eU, 0x3c8af9643db4aa9bU, 0x3d840685bdbb9d7aU,
  0xbd98df21bd9fd200U, 0x3d34aa9bbd18df21U, 0x3dc98337be1c5890U, 0x3d34aa9b3dfa274dU,
  0xbe008d16be008d16U, 0xbb5e5bd3be077ff5U, 0x3d8406853c5e5bd3U, 0x3d91ec42bedc9f1bU,
  0x3d91ec423e507616U, 0xbe0af964bdec4190U, 0xbeadb7bdbe0af964U, 0xbc8af9643d8af964U,
  0x3d4290593c26c4deU, 0x3e0e72d3bd34aa9bU, 0x3dd076163d98df21U, 0x3d91ec423d6c4190U,
  0xbdc290593e31312cU, 0x3e077ff53db4aa9bU, 0xbe2a3e4e3e0e72d3U, 0x3e6c41903c26c4deU,
  0x3d18df213d9fd200U, 0xbd9fd200bde54eb2U, 0x3c8af964bde54eb2U, 0xbdd076163d5e5bd3U,
  0xbd0af964be040685U, 0xbe2a3e4e3d840685U, 0xbe5e5bd3bdd768f4U, 0xbdd768f4bdc29059U,
  0xbe008d163e2db7bdU, 0x3c5e5bd3be5768f4U, 0x3de54eb23d507616U, 0x3d0af9643dc29059U,
  0xbe14efb03d52fe39U, 0xbe0251babd888661U, 0xbe180a03be0ba0b5U, 0x3dfe6ecc3e30dca0U,
  0x3e0ebb08bd4694eaU, 0xbd14efb03df2057dU, 0x3dd932e0bd2158feU, 0xbdc060433debd0d6U,
  0xbe1e3eaa3e5932e0U, 0xbe1b24573dd932e0U, 0x3d5f6787bddf6787U, 0x3de59c2f3df2057dU,
  0x3c94efb0be5c4d34U, 0x3d94efb03e0ba0b5U, 0xbd94efb03dba2b9bU, 0x3d2158fe3dfe6eccU,
  0xbe783a24bd8ebb08U, 0xbd14efb0bdc694eaU, 0xbe783a243df2057dU, 0xbdc06043bddf6787U,
  0x3cadc24dbe088661U, 0xbe3d45efbe83dee3U, 0xbdf2057dbdadc24dU, 0xbe7b54783e7e6eccU,
  0xbd783a24bd783a24U, 0xbe2473523d94efb0U, 0xbda78da5be4fe3e5U, 0x3da158febdccc991U,
  0xbe83dee33b4694eaU, 0x3da78da5bd52fe39U, 0x3e0ebb083e5f6787U, 0x3d14efb03e14efb0U,
  0x3e3a2b9bbd3a2b9bU, 0xbd2158febcc694eaU, 0xbe056c0d3b4694eaU, 0x3d6bd0d6U,
  0xbc4694ea00000000U, 0x3e0ba0b53d888661U, 0x3df83a243d3a2b9bU, 0xbcadc24d3e5c4d34U,
  0xbe4cc991bd3a2b9bU, 0xbb4694eabc783a24U, 0xbcadc24dbe56188cU, 0xbd14efb0bdc06043U,
  0xbd8886613ddf6787U, 0x3d783a243d8ebb08U, 0xbcf83a243e056c0dU, 0xbd0886613e3a2b9bU,
  0x3d5f67873c4694eaU, 0x3df2057dbd5f6787U, 0xbe0886613e94efb0U, 0xbdc694ea3c783a24U,
  0xbd783a243d8ebb08U, 0xbdf83a243d14efb0U, 0x3df83a243cadc24dU, 0xbe6eeb2a3dccc991U,
  0xbdf2057d3ec06043U, 0x3d9b2457bcc694eaU, 0x3e783a24be371148U, 0x3ec507c0bdadc24dU,
  0xbda78da53d4694eaU, 0xbdccc991bb4694eaU, 0x3e49af3e3d3a2b9bU, 0xbe0251babe0ba0b5U,
  0x3e0cf63bbd81370bU, 0xbe0426d73dcd91c0U, 0x3db033c9bceaefb7U, 0x3e0cf63bbceaefb7U,
  0x3e24749a3e0426d7U, 0x3e3323953e24749aU, 0xbdeaefb7be6ddf83U, 0xbd0cf63bbca4749aU,
  0xbdaa54323e0a066fU, 0x3d9e95023d76aee7U, 0xbd18b56a00000000U, 0x3e2d43fe3d18b56aU,
  0x3ca4749abe361361U, 0xbbbbf2f9bd01370bU, 0xbdeaefb73e566124U, 0x3d76aee73dd950f0U,
  0xbda4749a3d18b56aU, 0x3d8cf63b3e0426d7U, 0xbe24749abe859ebdU, 0xbcbbf2f93d01370bU,
  0xbcbbf2f9be3bf2f9U, 0x3e3ee2c5bd537158U, 0xbd92d5d3be276466U, 0xbdd371583d01370bU,
  0x3daa54323d5f3088U, 0xbd01370bbdf6aee7U, 0x3dc7b2293d81370bU, 0xbe1ba536be5950f0U,
  0x3d3033c9beaebbe3U, 0xbdfc8e7fbe0716a3U, 0xbbbbf2f9bd24749aU, 0xbe1e95023da4749aU,
  0xbd6aefb73e0a066fU, 0xbe70cf4fbd47b229U, 0x3e01370bbd3033c9U, 0xbd81370bbe0716a3U,
  0x3d18b56a3dfc8e7fU, 0xbcbbf2f93d0cf63bU, 0xbdd950f03df6aee7U, 0xbdc7b229be1e9502U,
  0x3c8cf63bbc0cf63bU, 0x3d47b229bd537158U, 0xbdb033c93d9e9502U, 0xbe1ba5363de5101fU,
  0xbe0426d7bc8cf63bU, 0x3d47b2293c8cf63bU, 0xbd3033c93e67ffebU, 0xbdbbf2f93d47b229U,
  0xbd3bf2f9bd537158U, 0x3c0cf63bbc6aefb7U, 0x3e0cf63bbeba7b13U, 0xbc0cf63bbd92d5d3U,
  0x3ceaefb73db033c9U, 0x3dbbf2f9bdf6aee7U, 0xbdfc8e7f3b3bf2f9U, 0x3e24749abe2184ceU,
  0xbc3bf2f9be5f3088U, 0xbd537158be18b56aU, 0xbd24749a3d5f3088U, 0xbd92d5d33d5f3088U,
  0xbdc7b229be12d5d3U, 0x3dc1d291bdeaefb7U, 0xbe6aefb73dfc8e7fU, 0x3da4749a3dc7b229U,
  0xbd7258b8bdc71205U, 0xbdbe6a483b8a7bd7U, 0x3d2d1acdbf0966dfU, 0xbc8a7bd73d7258b8U,
  0x3dc712053cad1acdU, 0xbc8a7bd7bc8a7bd7U, 0xbdf258b8be76ac97U, 0xbdcfb9c23e201f31U,
  0xbd2d1acdbd81d41aU, 0x3d2d1acdbda4730fU, 0xbc8a7bd7bd3e6a48U, 0xbe28c6eebb8a7bd7U,
  0xbe0ecfb63d3e6a48U, 0xbe01d41abd8a7bd7U, 0xbe201f31bd4fb9c2U, 0x3d3e6a48bd0a7bd7U,
  0x3e3a16693dad1acdU, 0xbd0a7bd73c0a7bd7U, 0xbe0627f8be90f9a5U, 0xbcf258b83dfb0076U,
  0x3d3e6a483dd86180U, 0xbccfb9c23d81d41aU, 0xbcad1acdbed86180U, 0xbc8a7bd73e8627f8U,
  0x3e0ecfb6be28c6eeU, 0xbcad1acd3ccfb9c2U, 0xbc0a7bd73de9b0fbU, 0xbd8a7bd7bde9b0fbU,
  0x3e24730f3e132394U, 0x3e1bcb52bccfb9c2U, 0x3d1bcb523e3e6a48U, 0x3e471205bdc71205U,
  0x3cad1acd3d61093dU, 0x3c0a7bd7bd61093dU, 0x3d0a7bd7be2d1acdU, 0x0U,
  0xbd4fb9c23d4fb9c2U, 0x3de1093dbb8a7bd7U, 0xbd4fb9c2be3a1669U, 0x3da4730fbd7258b8U,
  0xbb8a7bd700000000U, 0xbd4fb9c23c4fb9c2U, 0x3e0627f8be3a1669U, 0x3d4fb9c23e0ecfb6U,
  0xbd8a7bd7bd61093dU, 0x3d7258b83ccfb9c2U, 0xbd2d1acdbcf258b8U, 0xbe0a7bd73d9bcb52U,
  0xbe01d41a3d0a7bd7U, 0x3dad1acd3c8a7bd7U, 0xbc4fb9c2be61093dU, 0x3d3e6a48bd9bcb52U,
  0xbdbe6a48be0627f8U, 0x3cf258b8bd0a7bd7U, 0x3d81d41a3e932394U, 0xbdf258b83df258b8U,
  0x3de1093dbe0ecfb6U, 0xbd9bcb52bcf258b8U, 0xbdd861803d61093dU, 0xbe0627f83e4b65e4U,
  0xbd932394bcf258b8U, 0xbccfb9c23c8a7bd7U, 0xbe1777733df258b8U, 0xbe586180bc4fb9c2U,
  0xbbab12623df5ea6dU, 0x3dab1262bddb2f8eU, 0x3dc5cd413c004dcaU, 0xbc95b0163db5c388U,
  0xbd8afef03bab1262U, 0xbdf091dabdab1262U, 0x3d15b016bdf5ea6dU, 0xbd804dcabd608821U,
  0xbc004dcabd004dcaU, 0x3deb39473da5b9cfU, 0x3d0afef03d9b08a9U, 0xbdb06af5bc95b016U,
  0x3e185c5fbd8afef0U, 0x3d905783bd35c388U, 0x3e386fd2bdb06af5U, 0xbc804dca3e004dcaU,
  0x3d0afef03d004dcaU, 0x3dc5cd413dfb4300U, 0x3dab12623de08821U, 0xbdbb1c1bbd608821U,
  0xbd4b25d43ceb3947U, 0xbe004dcabe4074aeU, 0xbe35c3883e0afef0U, 0xbd6088213cd5d6faU,
  0x3e7def49be0852a6U, 0xbe35c3883d15b016U, 0xbd95b016bdab1262U, 0xbdc5cd413c95b016U,
  0xbb2b12623e05a65dU, 0xbd804dcabe286618U, 0xbe48798bbda5b9cfU, 0x3d004dca3e0afef0U,
  0x3c2b12623e55d6faU, 0x3ceb39473d20613cU, 0xbdb5c388be2dbeacU, 0x3e532ab1bd9b08a9U,
  0x3e306af53dc5cd41U, 0xbe8dab39bdfb4300U, 0xbdc074aebd8afef0U, 0xbd4074ae3e185c5fU,
  0x3e25b9cfbe8afef0U, 0x3cc074ae3e6de590U, 0xbd85a65dbe02fa13U, 0xbe4dd21ebe6b3947U,
  0xbe45cd41be532ab1U, 0x3d905783be105783U, 0xbe6de5903e230d85U, 0xbda0613c3e0852a6U,
  0xbb2b12623df091daU, 0xbd15b016be0afef0U, 0xbcc074ae3e588344U, 0xbe3b1c1bbe05a65dU,
  0x3dcb25d43d35c388U, 0x3db5c3883e230d85U, 0x3d85a65d3c804dcaU, 0x3d15b0163d9b08a9U,
  0x3df091dabe89a8cbU, 0x3ceb39473c2b1262U, 0x3e45cd41bc004dcaU, 0xbe588344be4320f8U,
  0x3e33173f3d55d6faU, 0xbcd5d6fabea9bc3dU, 0x3cab12623ceb3947U, 0xbdbb1c1b3dcb25d4U,
  0x3d75f5d83d4cf78aU, 0x3ca3f93b3c75f5d8U, 0x3e001ab63c23f93bU, 0xbd8f7a143e387862U,
  0x3c75f5d8bdebb645U, 0xbde176b13cccf78aU, 0x3e75f5d83cf5f5d8U, 0x3dc2b7f6be9499ddU,
  0x3d4cf78a3e5c56e7U, 0x3d6176b1bcf5f5d8U, 0x3e23f93b3ca3f93bU, 0xbd0f7a143e0a5a4aU,
  0xbc23f93b3d4cf78aU, 0x3c23f93bbd0f7a14U, 0x3e75f5d8be0a5a4aU, 0x3d387862bba3f93bU,
  0xbe2e38cf3e001ab6U, 0x3e053a803dc2b7f6U, 0xbdb87862be19b9a7U, 0xbd387862U,
  0xbd4cf78abd4cf78aU, 0xbd23f93bbe001ab6U, 0xbe053a80bd75f5d8U, 0xbd6176b1bdae38cfU,
  0xbcf5f5d83e0a5a4aU, 0xbdd7371dbdb87862U, 0xbe853a803d853a80U, 0x3e6bb645bd387862U,
  0xbe0f7a14bde176b1U, 0x3dae38cf3d0f7a14U, 0xbdccf78a3db87862U, 0xbdd7371d3db87862U,
  0x3cf5f5d8bdc2b7f6U, 0xbe4cf78abdebb645U, 0xbca3f93b3ca3f93bU, 0xbd0f7a143d0f7a14U,
  0xbd387862bd4cf78aU, 0x3df5f5d83de176b1U, 0xbdebb645bba3f93bU, 0x3dae38cfbe053a80U,
  0x3e3358993d23f93bU, 0xbde176b1be053a80U, 0xbd4cf78a3d99b9a7U, 0xbd99b9a7bc75f5d8U,
  0xbd38786200000000U, 0xbca3f93bbe053a80U, 0xbba3f93bbe053a80U, 0xbd0f7a143d853a80U,
  0xbdb878623df5f5d8U, 0x3cccf78a3d23f93bU, 0x3dc2b7f6be19b9a7U, 0xbdf5f5d8be19b9a7U,
  0xbc75f5d83e70d60fU, 0x3c75f5d83cccf78aU, 0xbe23f93b3cccf78aU, 0xbe053a80bf22b149U,
  0xbd0f7a143e001ab6U, 0xbe6bb645be23f93bU, 0xbc75f5d8be19b9a7U, 0xbca3f93b3ca3f93bU,
  0xbd3878623d0f7a14U, 0xbe1499dd3d8f7a14U, 0xbe66967bbe47d7c0U, 0xbd23f93bbd0f7a14U,
  0xbdd49e4ebba1feb5U, 0x3cca7e62be0116f8U, 0xbdc05e773e7fa5f6U, 0x3c21feb53d7d1dfbU,
  0x3d0dbedebe2ea69bU, 0xbb21feb5bdcf8e58U, 0xbe1a66c53c4a7e62U, 0x3d9ceebf3ea0bab8U,
  0xbdbb4e813de8de24U, 0xbe08aee93dbb4e81U, 0x3de3ce2fbd8dbedeU, 0xbb21feb53bf2fe10U,
  0x3e039ef33e33b691U, 0xbe42e6723cdebe39U, 0xbd97decabdb12e96U, 0xbde3ce2f3cb63e8cU,
  0xbd5ebe39bd839ef3U, 0x3e4a7e623dd49e4eU, 0x3dd9ae433d7d1dfbU, 0xbdb12e96bdedee1aU,
  0x3de3ce2fbc4a7e62U, 0xbdbb4e813de8de24U, 0x3e0b36e43d839ef3U, 0x3e1046d900000000U,
  0x3d039ef3bc21feb5U, 0xbdd49e4e3b21feb5U, 0xbe0626ee3e2996a5U, 0xbd363e8c3e665629U,
  0x3d363e8c3d17decaU, 0x3e1f76babe21feb5U, 0x3e59ae43bdc56e6dU, 0x3e38c6863db12e96U,
  0xbe0116f8bd88aee9U, 0x3e1046d93e0116f8U, 0x3ba1feb53d039ef3U, 0xbe17decabe0b36e4U,
  0xbd549e4e3bf2fe10U, 0x3cb63e8c3ba1feb5U, 0xbe21feb53e0626eeU, 0xbbf2fe10bd9ceebfU,
  0x3c8dbede3dfd1dfbU, 0xbe63ce2fbd21feb5U, 0xbdc56e6d3dedee1aU, 0x3df2fe103e17decaU,
  0x3cb63e8c3cca7e62U, 0xbdc05e77bd039ef3U, 0xbdcf8e58be8116f8U, 0x3e363e8c3d549e4eU,
  0xbc8dbede3dc56e6dU, 0xbd2c1ea03ba1feb5U, 0xbdd49e4e3d9ceebfU, 0xbcca7e62bca1feb5U,
  0xbd0dbedebd97decaU, 0xbdc56e6dbd92ced4U, 0x3df2fe10bdac1ea0U, 0xbe1a66c5be4d065dU,
  0xbe4f8e58be75860aU, 0x3e1a66c5U, 0xbe0b36e4bcb63e8cU, 0xbd4a7e623d8dbedeU,
  0xbe6b661fbb21feb5U, 0x3e5ebe393cf2fe10U, 0x3d88aee9be2ea69bU, 0x3d4a7e623cca7e62U,
  0x3da333f6bd4000e5U, 0xbe2ccd9bbe366740U, 0x3e1733e8bd94cd7eU, 0xbd5ccdd43e1c00baU,
  0x3d4000e5bd2333f6U, 0xbe199a51be499a8aU, 0xbe5a676b3e98671cU, 0xbdd3342f3c66677aU,
  0xbd4000e5bc999a51U, 0xbe42674f3de6677aU, 0x3d0667073df4cdf1U, 0xbe08cd703e08cd70U,
  0x3dd3342f3d799ac4U, 0xbe3667403d1000acU, 0xbd3667403e2ccd9bU, 0x3c66677a3d2333f6U,
  0xbdb667403daccd9bU, 0x3e3400d73dc4cdb8U, 0xbe019a343cd3342fU, 0x3ddccdd4bd1000acU,
  0xbdd801023db66740U, 0xbe4000e53df99ac4U, 0x3e08cd70bb199a51U, 0x3deb344c3d366740U,
  0x3dd3342fbd9000acU, 0x3da333f6bd866707U, 0xbcc000e53d66677aU, 0xbd9000ac3db66740U,
  0xbe2333f63e1733e8U, 0xbdce675dbc866707U, 0x3e1000acbdce675dU, 0x3e0d9a43bd5ccdd4U,
  0x3d799ac4bde6677aU, 0xbcd3342fbcf99ac4U, 0xbe5f343ebe1733e8U, 0x3c4000e53c866707U,
  0xbd1000acbc4000e5U, 0x3d3667403be6677aU, 0xbc4000e5bdaccd9bU, 0x3e580102bd4000e5U,
  0xbe2a67323c199a51U, 0xbd2333f63d199a51U, 0xbe619aa7bc4000e5U, 0x3d94cd7e3d70011fU,
  0xbd799ac4be5a676bU, 0xbd799ac4be3d9a7cU, 0xbe2a67323d2ccd9bU, 0x3deb344c3caccd9bU,
  0xbe1e67243de6677aU, 0x3d4000e5bd66677aU, 0xbe3400d73e126715U, 0x3e20cd8dbcc000e5U,
  0x3de19aa73d4000e5U, 0xbdc99a8abda800c9U, 0xbc8667073d5ccdd4U, 0x3dc000e53e08cd70U,
  0x3cd3342fbda333f6U, 0x3da333f63dc99a8aU, 0x3e019a343c4000e5U, 0x3e68cde33d999a51U,
  0xbdc99a8abd799ac4U, 0xbdc000e5bdfe6796U, 0x3ddccdd43dd80102U, 0x3dc4cdb83d4000e5U,
  0xbe115b3bbd9c1f9eU, 0xbe0947f1bbac4633U, 0xbe1c1f9e3d621c23U, 0xbd77a4e9bda181d0U,
  0xbe0eaa22be77a4e9U, 0xbd6ce0863dcc935dU, 0xbe54a6a73d0bf909U, 0xbe0eaa223e29951aU,
  0xbddcb9f1bc2c4633U, 0x3da181d0bd8696d8U, 0xbe196e85be49e244U, 0xbd8134a63c2c4633U,
  0xbda6e4013e0eaa22U, 0xbdb70a96bdac4633U, 0x3d0bf909bcd757c0U, 0xbe0696d8bd41cef9U,
  0xbe7fb83400000000U, 0x3b2c46333da6e401U, 0x3d6ce0863d370a96U, 0xbcac46333e4c935dU,
  0xbe3f1de13d0bf909U, 0xbc8134a6bdd757c0U, 0x3e26e401be29951aU, 0xbcece0863c96bd6dU,
  0x3d16bd6d3e8696d8U, 0xbd370a963d96bd6dU, 0xbdcc935d3e0134a6U, 0x3eaaeda73e677e55U,
  0xbe6f919f3dd1f58eU, 0xbe39bbaf3e74f3d1U, 0x3de77e55bcd757c0U, 0xbe0eaa22be4c935dU,
  0x3e2432e9be03e5bfU, 0xbdb1a865bbac4633U, 0xbd41cef9bbac4633U, 0xbdac4633bd9c1f9eU,
  0x3d8134a6be0eaa22U, 0xbdb1a8653d370a96U, 0x3d5757c0bb2c4633U, 0xbd0134a63d5757c0U,
  0xbbac4633bdd757c0U, 0xbd2181d03d5757c0U, 0x3d8bf909bdf7a4e9U, 0x3d2c4633bdfd071bU,
  0xbd8696d8bdece086U, 0xbd0134a6bd621c23U, 0xbdc7312bbdbc6cc8U, 0x3e0947f13da6e401U,
  0xbe1ed0b73e0134a6U, 0xbc96bd6dbe03e5bfU, 0x3d9c1f9ebe03e5bfU, 0x3dbc6cc8bcac4633U,
  0x3da6e401bcd757c0U, 0xbc0134a6be7a5602U, 0x3e853e4b3dc7312bU, 0xbe2ef74c3e0134a6U,
  0xbbac46333db1a865U, 0xbe4c935dbe34597dU, 0xbdc7312bbc2c4633U, 0x3e8eaa223e41cef9U,
  0xbe0134a63e140c54U, 0xbe1ed0b73e677e55U, 0x3dbc6cc83e2c4633U, 0xbd6ce0863e2ef74cU,
  0x3cd9e0d33df3049cU, 0xbe03fbe2bdeaa359U, 0x3e491e4cbdfb65e0U, 0xbd0614333e1d1facU,
  0xbc8614333d81e391U, 0x3c861433be44edabU, 0x3d40bd09bcfb65e0U, 0xbd73049cbe5397e0U,
  0x3dc0bd09be0a44d5U, 0xbe2ffa833dc0bd09U, 0xbd279940be03fbe2U, 0x3dc4edab3e42d55aU,
  0x3b8614333d7b65e0U, 0xbd86143300000000U, 0xbe70ec4cbd1f37fdU, 0xbe14be69be082c84U,
  0xbd517f903ceaa359U, 0x3d491e4c3e12a618U, 0xbd81e391bdff9681U, 0x3e16d6b9bcc91e4cU,
  0x3d0e75763dcd4eeeU, 0xbdd9e0d33b861433U, 0xbe29b191be5bf924U, 0x3db42b25be082c84U,
  0xbd1f37fd3dabc9e1U, 0x3c061433be01e391U, 0xbd2ffa833e2ffa83U, 0xbdb85bc6bd624216U,
  0x3dd17f90be385bc6U, 0xbc6aa3593e061433U, 0xbe42d55abd16d6b9U, 0xbd59e0d33d624216U,
  0x3d061433be77353eU, 0xbe342b253ca79940U, 0x3bc91e4c3e3212d4U, 0x3e03fbe2bdc4edabU,
  0xbe12a618be85080bU, 0xbd6aa3593dabc9e1U, 0x3d59e0d3be6ed3fbU, 0x3e3c8c683de672b8U,
  0xbcd9e0d3be0a44d5U, 0x3e751ced3cc91e4cU, 0x3e73049c3df3049cU, 0xbe1f37fdbe2de232U,
  0xbdabc9e13e12a618U, 0xbcb85bc63d624216U, 0xbc8614333c861433U, 0x3e108dc7bd861433U,
  0x3d92a6183d59e0d3U, 0x3c0614333d0e7576U, 0x3e4d4eee3d279940U, 0xbe6aa3593db85bc6U,
  0xbd6242163d9f37fdU, 0x3d7b65e03dd17f90U, 0x3c96d6b9bdc0bd09U, 0xbb061433be3212d4U,
  0x3dff9681bd40bd09U, 0x3e385bc6bd279940U, 0x3d9b075bbda3689eU, 0xbe0a44d5bc491e4cU,
  0x3d59e0d33e279940U, 0xbdde1174bdabc9e1U, 0xbb861433bdf7353eU, 0xbe59e0d3be29b191U,
  0xbda3771dbd23771dU, 0x3e0436eebc66c648U, 0xbd19d985bce6c648U, 0x3be6c6483d23771dU,
  0xbd23771dbe0436eeU, 0xbd7a01783e01cf88U, 0xbd19d985bdb6b24eU, 0x3dc04fe6bde6c648U,
  0x3dd859e33b99d985U, 0x3e344ae83dad14b6U, 0xbc99d9853cc04fe6U, 0xbc66c648be2d14b6U,
  0x3db6b24e3d404fe6U, 0x3cfa017800000000U, 0x3e17721f3e1ea851U, 0xbe17721fbe210fb7U,
  0x3d81cf88bbe6c648U, 0xbd2d14b6bdb6b24eU, 0x3db6b24e3cfa0178U, 0xbe0905ba3e17721fU,
  0x3b19d9853e01cf88U, 0xbd66c648be25de83U, 0xbd2d14b6be81cf88U, 0xbddd28afbdb1e382U,
  0x3e8ca0d43dad14b6U, 0xbe0b6d213c869e54U, 0xbe692daebd81cf88U, 0x3dd859e33e692daeU,
  0xbda3771d3be6c648U, 0xbdbb811a3d2d14b6U, 0x3d069e54bddd28afU, 0xbd49ed7f3e210fb7U,
  0xbe779a12bd950ab9U, 0xbd36b24ebd404fe6U, 0x3db6b24e3d19d985U, 0xbd49ed7f3e150ab9U,
  0x3e0b6d213e779a12U, 0x3e344ae83d103bedU, 0xbcfa0178be069e54U, 0xbe3de8803dfed044U,
  0x3d9ea8513e404fe6U, 0xbe6b9514be23771dU, 0xbdeb9514be17721fU, 0x3db1e3823df532acU,
  0xbd5d28af3e6b9514U, 0xbe0b6d213dad14b6U, 0x3db1e3823e0905baU, 0xbe809bd53d81cf88U,
  0xbe779a123deb9514U, 0xbe809bd5bce6c648U, 0x3e0dd487be25de83U, 0x3ddd28afbde1f77bU,
  0xbdc51eb23cc04fe6U, 0xbe25de83be210fb7U, 0xbe98a5d2bdeb9514U, 0xbe66c6483e3919b4U,
  0xbd069e543cc04fe6U, 0xbce6c648bdc9ed7fU, 0x3e0436ee3e150ab9U, 0xbe0dd487bdc51eb2U,
  0xbe31e3823c19d985U, 0xbd069e54U, 0xbdd859e33e210fb7U, 0x3cc04fe63d869e54U,
  0xbd486d053e3be634U, 0xbe0246dd3d3e6791U, 0xbd9651c4bcc86d05U, 0x3deb80193d874996U,
  0x3d8246ddbda559f1U, 0x3dd775323d9b547dU, 0xbe68febc3d7a8846U, 0xbdf5858c3d667d5fU,
  0xbd667d5fbe31e0c1U, 0xbe2559f13db964d8U, 0x3d914f0abd5c77ecU, 0xbcf082d23e2f5f64U,
  0xbdcd6fbebd914f0aU, 0xbe13d067bddc77ecU, 0xbda05737bd5c77ecU, 0xbe40e8ee3db964d8U,
  0xbbf082d2be617aa5U, 0xbde17aa5bba05737U, 0xbe4d6fbe3e3964d8U, 0x3db964d8be0c4c50U,
  0x3daf5f64be59f68fU, 0xbe4aee623d9b547dU, 0xbbf082d2be18d320U, 0xbe59f68fbd0246ddU,
  0x3db4621ebd5c77ecU, 0x3da05737bd205737U, 0x3e205737bdf5858cU, 0xbe0ecdadbcdc77ecU,
  0x3dc86d053d205737U, 0xbe3e6791bcf082d2U, 0x3d9651c43df082d2U, 0xbd2057373e0ecdadU,
  0xbba05737be22d894U, 0xbbf082d23d7082d2U, 0x3d0246dd3e81062eU, 0x3d0c4c503e1dd5daU,
  0x3c7082d2be205737U, 0x3e18d320U, 0x3e1b547dbe1dd5daU, 0x3e0ecdad3e0ecdadU,
  0xbd3e6791bd667d5fU, 0x3d5c77ec3e7f8b00U, 0x3da559f13e6e0176U, 0x3e0246dd3ddc77ecU,
  0x3d8749963d34621eU, 0xbcc86d053e18d320U, 0xbd7082d23d486d05U, 0xbd9651c4be4aee62U,
  0xbd527278be8c4c50U, 0xbe45eba8bd7082d2U, 0x3c8c4c503dfa8846U, 0xbe0c4c503d914f0aU,
  0xbe45eba8be4d6fbeU, 0x3e5272783d914f0aU, 0xbcc86d053dff8b00U, 0x3df082d23ca05737U,
  0xbd34621e3e68febcU, 0x3d0c4c50be527278U, 0x3e205737bda559f1U, 0x3e577532be7d09a3U,
  0x3cb4621e3cc86d05U, 0xbe9f16893dfa8846U, 0xbdb964d8be84c83aU, 0x3e114f0a3e1651c4U,
  0xbc1f699fbe1077b8U, 0x3c474407bd3356d3U, 0x3ddb313b3e5b313bU, 0xbd5b313b3d513aa1U,
  0xbe1cebf9be26e292U, 0x3d513aa1bdb356d3U, 0xbe1573053e62aa2eU, 0xbc6f1e6e3cc74407U,
  0xbd157305bd296039U, 0x3dfe1055bb1f699fU, 0x3d474407bdef1e6eU, 0xbe21e745bde02c88U,
  0xbdef1e6ebc474407U, 0x3e26e292bd1f699fU, 0x3e9e2accbe040378U, 0xbbef1e6ebc6f1e6eU,
  0xbd1573053dcc3f54U, 0xbde02c883d6f1e6eU, 0xbd3d4d6d3e3fcb13U, 0xbdb356d33d296039U,
  0x3b9f699fbdbd4d6dU, 0xbd86811ebe1f699fU, 0x3d6f1e6e3e5daee1U, 0x3d6f1e6ebddb313bU,
  0xbe040378be0185d1U, 0x3ddb313b3def1e6eU, 0x3d8b7c6b3dfe1055U, 0xbc9f699fbdc74407U,
  0x3df419bb3e86811eU, 0xbe1077b8bdd13aa1U, 0x3e8f38e5bc474407U, 0x3e2bdddfbdea2322U,
  0x3bef1e6e3e12f55fU, 0xbd1573053dfe1055U, 0x3d4744073e87bff1U, 0xbdfe10553db85220U,
  0x3e8185d13da464ecU, 0xbd957305bdd13aa1U, 0x3c1f699fbdf91508U, 0xbe7915083c9f699fU,
  0x3e3d4d6dbdd13aa1U, 0xbe2bdddf3e0b7c6bU, 0x3c8b7c6bbda464ecU, 0xbd6527d5bb9f699fU,
  0xbd3d4d6d3e3fcb13U, 0x3e0b7c6bbe157305U, 0x3e2bdddfbc1f699fU, 0xbe4248babcc74407U,
  0xbd1f699fbcb356d3U, 0x3c1f699f3d9077b8U, 0x3d0185d13d9077b8U, 0xbdc248ba3c9f699fU,
  0xbd1f699f3e4248baU, 0x3d1573053d9077b8U, 0xbd2960393c474407U, 0xbe992f7fbd0185d1U,
  0x3dfe1055bc8b7c6bU, 0xbe3d4d6d3dd13aa1U, 0x3cef1e6ebe5daee1U, 0xbe7419bb3e513aa1U,
  0xbe26e2923e21e745U, 0xbdd13aa1bdb356d3U, 0x3da464ec3d8185d1U, 0xbe2464ec3e3356d3U,
  0x3e0c7baebd7cdea0U, 0xbc8c7bae3cfcdea0U, 0xbd0c7bae3e4f366eU, 0xbe563c9dbe1381deU,
  0x3e0c7baebc28946bU, 0xbe1a880dbd28946bU, 0xbe6448fc3d60c5e4U, 0xbdc4ad283e4f366eU,
  0xbd28946bbe6448fcU, 0xbd9381de3deed242U, 0xbb60c5e4bd85757fU, 0x3db6a0c9be1a880dU,
  0xbd9a880dbe52b986U, 0xbd85757fbe60c5e4U, 0x3da8946bbc60c5e4U, 0x3e1a880d3d28946bU,
  0xbc8c7bae3e05757fU, 0x3e412a10bdd2b986U, 0x3daf9a9a3e36a0c9U, 0xbe75d8713d85757fU,
  0xbd44ad283c8c7baeU, 0xbd0c7baebe05757fU, 0xbd44ad283e67cc13U, 0x3e412a103d28946bU,
  0xbde0c5e43daf9a9aU, 0xbdeed242bc60c5e4U, 0xbe218e3c3e1a880dU, 0x3d52b986bc8c7baeU,
  0x3de0c5e43e1a880dU, 0x3c28946b3e1381deU, 0xbdc4ad28bdd9bfb5U, 0x3e28946bbe0c7baeU,
  0xbd9a880d3ca8946bU, 0x3dcbb357bd7cdea0U, 0xbd44ad283d60c5e4U, 0x3daf9a9abdcbb357U,
  0xbe3da6f83dd2b986U, 0xbe331db2bd9a880dU, 0xbd60c5e43daf9a9aU, 0xbe83b3f43ebf6884U,
  0xbdd9bfb5bd44ad28U, 0x3d36a0c9bde0c5e4U, 0x3dd2b9863d52b986U, 0x3da8946bU,
  0xbdd9bfb53da18e3cU, 0xbe1e0b243b60c5e4U, 0xbde7cc133b60c5e4U, 0x3e412a10be1381deU,
  0x3c28946b3d60c5e4U, 0xbe0c7bae3e1381deU, 0x3ca8946bbcfcdea0U, 0x3e1704f5bda8946bU,
  0xbda8946bbc60c5e4U, 0x3e8030dcbd6ed242U, 0x3ce0c5e43d6ed242U, 0x3e48303f3edf0458U,
  0xbe01f2683dfcdea0U, 0xbc28946b3e1381deU, 0x3d9381de3cfcdea0U, 0xbc8c7baebd36a0c9U,
  0x3e2c17833d0c7baeU, 0xbc28946b3e01f268U, 0xbda8946bbdeed242U, 0x3d9a880d3d36a0c9U,
  0xbdf979a2be106ed7U, 0xbd639762bd87adf1U, 0x3d5215963d37d2e3U, 0x3db7d2e3be07adf1U,
  0xbd1d9030be4fe55cU, 0xbdd67609bd87adf1U, 0xbd0c0e643e472476U, 0xbdc4f43d3d1d9030U,
  0x3d2f11fd3e265117U, 0xbe567609be192fbdU, 0xbe4fe55c3d5ad67cU, 0x3e3a031d3dc954b0U,
  0xbe35a2aa3d4093caU, 0xbe2f11fdbdfdda15U, 0xbe0e3e9e3d265117U, 0x3e21f0a4bd37d2e3U,
  0xbdb372703ddad67cU, 0xbdc954b03d6c5849U, 0xbe288150be2420ddU, 0x3daab18a3d5ad67cU,
  0xbd0c0e64be42c403U, 0x3cd21596bcf5192fU, 0x3d94cf4a3df0b8bcU, 0x3dc4f43dbd4954b0U,
  0x3de7f7d63d1d9030U, 0xbe4db5233d4093caU, 0x3ce397623d639762U, 0x3d265117bdd21596U,
  0x3b0c0e64U, 0x3d2f11fdbd8c0e64U, 0xbd9d9030be2420ddU, 0xbdec5849be37d2e3U,
  0x3c8c0e643e84659bU, 0x3e4954b0bbd21596U, 0x3bd215963e8af647U, 0xbd6c58493c2f11fdU,
  0xbe129f113e057db7U, 0xbda651173cd21596U, 0x3e72e8f5bd834d7eU, 0x3e07adf1bd6c5849U,
  0x3cf5192f3e6c5849U, 0xbda1f0a4bd2f11fdU, 0x3d4093cabda1f0a4U, 0x3d8c0e643d992fbdU,
  0x3d4954b03d37d2e3U, 0xbdb372703d834d7eU, 0x3e5f36ef3c9d9030U, 0xbe6167293de39762U,
  0xbdf979a2bd4093caU, 0x3d265117bce39762U, 0x3dec58493d6c5849U, 0xbcd215963c9d9030U,
  0x3d834d7e3dc093caU, 0x3df0b8bc3dd21596U, 0xbc0c0e643e034d7eU, 0xbe106ed73dd21596U,
  0x3e35a2aabda65117U, 0x3e14cf4a3b0c0e64U, 0xbc8c0e64bd034d7eU, 0x3e2420dd3e034d7eU,
  0xbe3e63903e09de2aU, 0x3cd21596bd4093caU, 0xbd6c58493d992fbdU, 0xbe84659b3d7dda15U,
  0xbe0b3764bdd9af0bU, 0xbd97df553c72feefU, 0x3c21ff4abd72feefU, 0xbcdebf063e2ea73cU,
  0xbc4a7f1cbe549f11U, 0xbdf80ee93dfd1ee4U, 0xbe21ff4a3d92cf5bU, 0x3b21ff4a3de3cf00U,
  0x3d039f6cbe248747U, 0x3e01176f3ca1ff4aU, 0x3dd49f113d0dbf61U, 0xbda1ff4abd92cf5bU,
  0x3d97df553d839f6cU, 0xbdcf8f173d363f33U, 0x3dc56f223d5ebf06U, 0x3c4a7f1cbe3b4f2eU,
  0xbe12cf5bbe299741U, 0x3da1ff4abe38c730U, 0x3d21ff4a3cb63f33U, 0xbcdebf063d363f33U,
  0x3d5ebf06bd72feefU, 0xbc72feef3d9cef50U, 0xbcdebf063d88af66U, 0xbd405f283e17df55U,
  0xbc72feef3d92cf5bU, 0xbe17df553e039f6cU, 0x3df2feefbc21ff4aU, 0x3e456f223e17df55U,
  0xbd92cf5b3bf2feefU, 0x3ba1ff4a3e549f11U, 0xbca1ff4abcb63f33U, 0x3dcf8f17bd8dbf61U,
  0x3d2c1f3f3dac1f3fU, 0x3dd49f11bd2c1f3fU, 0x3e312f39bca1ff4aU, 0x3dd49f113bf2feefU,
  0x3e0627693d549f11U, 0xbd405f28be12cf5bU, 0xbd2c1f3f3da1ff4aU, 0x3ba1ff4a3d405f28U,
  0xbdc56f223e33b736U, 0x3dbb4f2e3df80ee9U, 0x3dcf8f17bcf2feefU, 0x3e363f333d97df55U,
  0xbdac1f3f3e062769U, 0xbd92cf5b3e12cf5bU, 0xbde8defabd039f6cU, 0xbd92cf5b3ddebf06U,
  0xbe17df55be88af66U, 0xbe248747bde8defaU, 0xbe59af0b3cdebf06U, 0x3d92cf5bbe21ff4aU,
  0xbdd49f113d2c1f3fU, 0xbe10475e3e363f33U, 0xbe7a96e63e456f22U, 0xbde3cf003ea0bb4bU,
  0xbe59af0bbdac1f3fU, 0xbd0dbf613e3dd72bU, 0x3dfd1ee43d17df55U, 0xbe63cf003cb63f33U,
  0xbcca7f1cbd405f28U, 0xbdedeef5bd039f6cU, 0xbe1f774dbc21ff4aU, 0x3c8dbf613da70f44U,
  0x3d110d05bcc8d6f4U, 0xbc05e4a23c85e4a2U, 0x3d5f27babd32862eU, 0x3cb2862ebdc8d6f4U,
  0xbdc8d6f4bd05e4a2U, 0x3cb2862ebdc342c2U, 0xbd110d05be93d71eU, 0x3da1c99abe355047U,
  0xbc32862e3d110d05U, 0xbd110d05be1c3568U, 0xbe05e4a2bd85e4a2U, 0x3c05e4a23da75dcbU,
  0x3d6a501cbbb2862eU, 0xbdd99388bd1c3568U, 0xbd6a501cbd805071U, 0xbd85e4a2be831a8aU,
  0xbd805071be005071U, 0xbd75787fbcdf27baU, 0xbc32862ebd8b78d4U, 0x3e3ae478be2493b2U,
  0xbe16a1373dd99388U, 0xbd3dae91be980643U, 0x3df5787f3d53ff57U, 0xbcb2862ebe2a27e4U,
  0xbc9c3568bd3dae91U, 0xbe4ba10cbcdf27baU, 0xbe13d71ebe110d05U, 0xbe08aebb3d9c3568U,
  0xbe16a137be3ae478U, 0xbc05e4a2bdbdae91U, 0xbcdf27babdce6b25U, 0xbe48d6f4be32862eU,
  0x3dd993883d8b78d4U, 0xbeaa27e4beb12122U, 0xbdb2862e3e2493b2U, 0xbda75dcbbd8b78d4U,
  0x3d9c35683defe44eU, 0x3defe44e3defe44eU, 0xbd05e4a2bd53ff57U, 0xbe275dcbbcb2862eU,
  0x3e7dd6c9bdb2862eU, 0xbdea501cbe08aebbU, 0x3d3dae91be381a5fU, 0xbdefe44e3d910d05U,
  0x3e2493b2be2cf1fdU, 0xbe831a8a3d48d6f4U, 0xbe7dd6c93d05e4a2U, 0xbdea501c3e3dae91U,
  0xbc9c35683e2cf1fdU, 0xbdc8d6f4be51353eU, 0xbc5f27babcf5787fU, 0xbe4078aa3e005071U,
  0x3d3dae913e5f27baU, 0x3d910d05bbb2862eU, 0xbe05e4a2bd110d05U, 0x3da75dcbbe4e6b25U,
  0x3d110d053c9c3568U, 0xbd53ff57be599388U, 0x3dea501c3d48d6f4U, 0xbdefe44e3d6a501cU,
  0x3defe44ebcdf27baU, 0xbd1c3568bd6a501cU, 0xbd48d6f4bdf5787fU, 0xbd8050713e48d6f4U,
  0x3d454a40bd26f00fU, 0xbdbdb3b43cb61d28U, 0x3e1f5983be5fd92bU, 0xbd0895de3e0895deU,
  0xbdeb3afe3d9f5983U, 0x3db61d28bd80ff51U, 0x3c72d18a3e04ca97U, 0x3deb3afebdc54a40U,
  0xbe0c61243bf2d18aU, 0xbe26f00f3d361d28U, 0x3d0895debe2324c9U, 0x3cf2d18a3e491586U,
  0x3d0895de3c72d18aU, 0xbe4ce0ccbc72d18aU, 0xbcd47759bdcce0ccU, 0xbd26f00fbd97c2f6U,
  0xbcf2d18a3d454a40U, 0x3cd47759U, 0xbe39e86e3cb61d28U, 0x3e2abb55bd8895deU,
  0x3d361d283dc54a40U, 0xbe00ff51be3db3b4U, 0xbdb61d28be361d28U, 0xbdfa6816be2abb55U,
  0xbcb61d28bdcce0ccU, 0xbe13f7b03da6f00fU, 0x3b72d18abd26f00fU, 0x3de3a471bc97c2f6U,
  0x3c361d283d80ff51U, 0x3d9f59833e04ca97U, 0xbdeb3afebd72d18aU, 0x3b72d18a3e102c6aU,
  0x3b72d18abe26f00fU, 0xbda6f00f3e0895deU, 0xbda6f00fbbf2d18aU, 0x3df2d18a3e0895deU,
  0xbe0895debe454a40U, 0x3cd477593dd47759U, 0xbd454a40bdd47759U, 0x3d97c2f6bb72d18aU,
  0xbe2abb553e102c6aU, 0x3e39e86e3dae869bU, 0x3e13f7b03e5fd92bU, 0xbdd477593e491586U,
  0xbd17c2f63e13f7b0U, 0xbe00ff513d8895deU, 0x3d454a403d63a471U, 0xbd80ff51bef0ebe7U,
  0x3d361d283e39e86eU, 0x3d63a4713c72d18aU, 0x3db61d283dfa6816U, 0x3d9f59833d361d28U,
  0xbd97c2f63c361d28U, 0xbd80ff513e00ff51U, 0x3dd47759bdcce0ccU, 0x3d63a471be93f7b0U,
  0xbd80ff513e3251e1U, 0xbd17c2f63d0895deU, 0xbd80ff513d26f00fU, 0xbdc54a403e80ff51U,
  0xbe2abb553c97c2f6U, 0x3d63a4713deb3afeU, 0x3deb3afebdf2d18aU, 0xbc97c2f6be0c6124U,
  0xbcd378533e3d93e3U, 0x3d0822f2bd99c86eU, 0x3de0e652bde7e24cU, 0xbdf66ce63eabc252U,
  0xbdca57ba3da4903dU, 0x3e00aec6be054dd4U, 0x3e37e119bd5aa7daU, 0x3e99c8653c87c61cU,
  0xbc9032383e0ed210U, 0x3d8fad59bdbb4fb9U, 0x3d4f6c4abb1e2cddU, 0x3d543c7f3db7587aU,
  0x3db447953d3e95f2U, 0xbe286329be24929fU, 0x3df0fa513d99f3f3U, 0xbde31b93bd2dd0a1U,
  0x3c8151433cc1f9e4U, 0x3ca1a5943e25b01eU, 0x3ca1a594bc015143U, 0x3d31cfbc3d624e35U,
  0xbd21a594be8b6b9cU, 0xbd815143be0d70e1U, 0xbdb9e4d0bdda3921U, 0xbd72785e3d624e35U,
  0xbd8966573e25b01eU, 0xbdc1f9e43d896657U, 0xbde24e353ce24e35U, 0xbe31cfbc3d624e35U,
  0xbe0151433ca1a594U, 0xbd31cfbcbc41f9e4U, 0xbe5a39213e72785eU, 0xbe2dc532bc815143U,
  0xbdea6349bdea6349U, 0xbd815143be46046fU, 0xbe1585f53e096657U, 0x3e41f9e4be055bcdU,
  0xbe055bcd3d21a594U, 0xbd52240d3da9baa8U, 0x3c41f9e4bdfa8d72U, 0xbe1585f5be0d70e1U,
  0xbe1d9b0a3d117b6bU, 0xbdb1cfbcbce24e35U, 0x3da1a594be41f9e4U, 0xbe199080bdf2785eU,
  0xbe35da46bc015143U, 0x3d31cfbcbdb9e4d0U, 0x3dea6349bd917b6bU, 0x3da1a5943e978b3bU,
  0x3e21a594be39e4d0U, 0x3c8151433da9baa8U, 0xbd72785e3ce24e35U, 0x3d117b6bbd117b6bU,
  0x3db9e4d03dda3921U, 0xbdb1cfbc3d624e35U, 0x3d41f9e43db9e4d0U, 0x3c41f9e4bc815143U,
  0xbdf2785e3c41f9e4U, 0xbc8151433cc1f9e4U, 0xbd0151433e055bcdU, 0xbd21a594U,
  0x3e9585f53d917b6bU, 0x3d31cfbcbdd2240dU, 0xbe055bcdbc015143U, 0xbe25b01ebdc1f9e4U,
  0x3e39e4d0be21a594U, 0x3d624e353e562e97U, 0xbe1585f53e7682e8U, 0x3e0d70e13e015143U,
  0x3e46046f00000000U, 0xbe29baa83dea6349U, 0x3e29baa83e21a594U, 0xbd624e353e25b01eU,
  0xbec1f9e4bd999080U, 0xbdea6349be096657U, 0xbdea63493d624e35U, 0xbf004ea0bd015143U,
  0xbdda3921bd31cfbcU, 0xbe41f9e43dc1f9e4U, 0xbec3ff2abd624e35U, 0xbee4537a3e21a594U,
  0x3d8fe02a3d0fe02aU, 0xbe8a4168bd60ce42U, 0x3d69cc44bcd7d03fU, 0x3dd7d03fbd9d5d2eU,
  0xbe265b31bd7bc84aU, 0xbd0fe02a3de9cc44U, 0x3dc5d43a3e21dc2fU, 0x3d98de2dbd18de2dU,
  0x3d98de2d3c8fe02aU, 0xbe0023a5bdb3d834U, 0xbd72ca47bd826326U, 0x3cc5d43abcb3d834U,
  0xbd72ca473d06e227U, 0x3c7bc84abd826326U, 0xbc8fe02a3ca1dc2fU, 0xbe121fab3b0fe02aU,
  0xbd7bc84a3d9d5d2eU, 0xbdd7d03fbbd7d03fU, 0x3e06e227bda1dc2fU, 0x3e33d834bdaf5933U,
  0x3de9cc443e3a96b6U, 0x3c7bc84aU, 0xbd33d8343d826326U, 0xbe21dc2f3bd7d03fU,
  0xbdb3d834be4c92bcU, 0x3d3cd6373d98de2dU, 0xbd2ada32bd18de2dU, 0xbc57d03f3c8fe02aU,
  0xbde9cc44bdf74948U, 0x3d826326bdced23cU, 0x3daf59333d0fe02aU, 0xbe6c0bc53e21dc2fU,
  0xbda65b313dced23cU, 0x3d826326bda1dc2fU, 0xbcb3d834bdc15538U, 0xbd4ed23cbc33d834U,
  0xbe3f15b8be1b1dadU, 0x3d60ce42bde0ce42U, 0xbe145f2bbe0b6129U, 0x3e7e07cabdaada32U,
  0x3e289ab13cb3d834U, 0xbdf74948bd8b6129U, 0x3e708ac6bda65b31U, 0xbc57d03f3d2ada32U,
  0x3d45d43aU, 0xbd8b61293daada32U, 0xbe06e227bd8fe02aU, 0xbca1dc2f3e53513eU,
  0xbe289ab1bd9d5d2eU, 0xbc8fe02a3d57d03fU, 0xbd18de2d3ddc4f40U, 0x3cfbc84abd21dc2fU,
  0xbd33d8343daada32U, 0xbd18de2dbc7bc84aU, 0x3d7bc84abc57d03fU, 0x3d98de2dbd4ed23cU,
  0xbc8fe02a3dc5d43aU, 0x3d18de2d3d7bc84aU, 0x3b0fe02a3d98de2dU, 0xbdca533bbca1dc2fU,
  0xbd33d834bca1dc2fU, 0xbe8ec06abd4ed23cU, 0x3c57d03f3dced23cU, 0xbd21dc2fbe18de2dU,
  0xbe5092243da02712U, 0x3dccd8ac3c509224U, 0xbe438902bd89ce46U, 0xbd89ce46baee5de0U,
  0x3da3e08a3d98b424U, 0xbd509224bd3a3957U, 0x3e09ce46bd7d43beU, 0xbe4eb568bdc91f35U,
  0xbd8d87bd3cb2c668U, 0xbddf7802bde6eaf1U, 0xbd6e5de03cee5de0U, 0x3da79a02bcc1ac46U,
  0xbb6e5de0bcfd43beU, 0xbe2f0cf0bdc565beU, 0xbd7d43bebcd09224U, 0x3c8614ce3d8d87bdU,
  0x3ca3e08abc32c668U, 0xbcb2c668bcdf7802U, 0xbd2b53793df5d0cfU, 0x3b6e5de0bd1c6d9bU,
  0xbe16d7683deaa468U, 0x3d1c6d9bbdccd8acU, 0xbdf98a463d89ce46U, 0xbe367fe03d509224U,
  0xbd5092243c6e5de0U, 0x3db2c6683aee5de0U, 0xbc6e5de0be16d768U, 0x3dd44b9cbd9c6d9bU,
  0x3e6c8124bc14faacU, 0xbe131df03d825b56U, 0xbd7d43bebdfd43beU, 0x3d14faac3d509224U,
  0x3dc91f35bdf98a46U, 0x3d6e5de03dee5de0U, 0x3dc565be3ddf7802U, 0xbda3e08a3cb2c668U,
  0xbd2b5379bcd09224U, 0x3e0614ce3d914134U, 0xbd8d87bdbe526ee0U, 0xbd2b53793db67fe0U,
  0xbd5092243d1c6d9bU, 0x3cc1ac463da3e08aU, 0x3d509224bdc565beU, 0xbdc1ac463c8614ceU,
  0xbd491f353d2b5379U, 0xbd0d87bdbdc1ac46U, 0x3d14faac3d41ac46U, 0xbdccd8ac3e2976bdU,
  0x3d41ac463d32c668U, 0xbcee5de03d94faacU, 0xbdba39573ddf7802U, 0xbe07f18abe025b56U,
  0xbc6e5de03cd09224U, 0x3c6e5de0bd825b56U, 0xbdccd8acbaee5de0U, 0xbe131df03dab5379U,
  0xbc8614cebcee5de0U, 0x3d94faacbdab5379U, 0xbda79a023aee5de0U, 0xbd75d0cfbdd80513U,
  0xbe509224bdaf0cf0U, 0xbbee5de03d75d0cfU, 0x3c509224be07f18aU, 0xbd2b53793e3fcf8aU,
  0xbdfa1bf83ce83e8bU, 0x3d29b78dbc8eeb69U, 0xbe0a740ebbd6611eU, 0xbd97da203d56611eU,
  0xbb8eeb69bbd6611eU, 0xbd7a1bf8bd7a1bf8U, 0xbdc8fb0c3c0eeb69U, 0x3d17da203ddad879U,
  0xbd4483b03d3b94faU, 0x3d5f4fd4bcd6611eU, 0x3d85fcb23d712d41U, 0xbcfa1bf8bdbb94faU,
  0xbd29b78d3cb2a643U, 0xbd3b94fa3b0eeb69U, 0xbc56611ebe51e9c2U, 0x3dfe9353bd0eeb69U,
  0x3e03c1053d56611eU, 0x3d32a643bda54031U, 0x3d97da20bdd6611eU, 0x3d683e8b3d4483b0U,
  0x3dae2ee8bc56611eU, 0x3e083860U, 0xbdf5a49c3dcd7267U, 0x3dc8fb0cbbd6611eU,
  0x3bd6611ebd20c8d6U, 0xbe4d72673da54031U, 0xbdecb5e6bb8eeb69U, 0x3dc00c55bdf5a49cU,
  0x3d05fcb2bb0eeb69U, 0x3d8185573ca0c8d6U, 0x3e1c517b3db71d9fU, 0xbe0185573e4d7267U,
  0xbd9c517bbdb2a643U, 0x3e17da203db71d9fU, 0xbe8dcd92bdb2a643U, 0xbda54031bdc483b0U,
  0xbe20c8d63dfe9353U, 0xbdb71d9fbda9b78dU, 0x3d8eeb69be1362c4U, 0x3dc00c553d0eeb69U,
  0x3d17da203b0eeb69U, 0xbe32a643bd17da20U, 0xbcd6611ebd7a1bf8U, 0x3d4d7267bd712d41U,
  0xbc7a1bf83c32a643U, 0xbd29b78dbe1a15cdU, 0x3d7a1bf83d05fcb2U, 0xbe75a49cbce83e8bU,
  0xbe254031bdb71d9fU, 0x3b0eeb69bd97da20U, 0x3da0c8d6be3b94faU, 0xbd5f4fd4bdc483b0U,
  0xbc56611ebd8eeb69U, 0xbd4d7267be6602ddU, 0xbdd6611ebe0cafbbU, 0xbd5f4fd4be112717U,
  0x3cc483b0bddad879U, 0xbca0c8d6bd97da20U, 0xbe2304843c32a643U, 0x3dfe93533b0eeb69U,
  0xbd9362c43e277bdfU, 0x3b8eeb693ca0c8d6U, 0xbe0185573ca0c8d6U, 0x3cfa1bf83ca0c8d6U,
  0x3e09e7c83ce5d7a2U, 0x3c09e7c83c37dfb5U, 0x3c89e7c83d435db0U, 0x3d71559ebde5d7a2U,
  0xbc37dfb5bcfcd399U, 0xbd8428cabb37dfb5U, 0xbd1565c33e0fa6c5U, 0xbe1e04403d20e3beU,
  0x3d435db0bd435db0U, 0x3c09e7c8bcfcd399U, 0xbdc35db0bd9565c3U, 0x3e2f4139beb66ff6U,
  0xbd4edbacbdb220b7U, 0xbd89e7c8bd8428caU, 0x3d4edbacbd89e7c8U, 0xbd9565c33d8428caU,
  0xbe29823bbe01494bU, 0x3da0e3bebd37dfb5U, 0x3c37dfb53e1b24c1U, 0xbe5d39263e5d3926U,
  0xbe463d2f3db7dfb5U, 0xbda6a2bc3cb7dfb5U, 0xbcfcd399bdd49aa9U, 0x3da6a2bcbdac61baU,
  0x3d435db03c65d7a2U, 0xbca0e3be3c65d7a2U, 0x3dda59a73d09e7c8U, 0xbdbd9eb33dfcd399U,
  0xbea2537ebdb220b7U, 0xbd89e7c8bd5a59a7U, 0xbd2c61ba3de018a5U, 0x3dc91caebe2f4139U,
  0xbbb7dfb53cfcd399U, 0x3d9565c3bd8428caU, 0xbc89e7c8bccedbacU, 0x3e350036be184542U,
  0x3d8fa6c5U, 0x3df1559ebde018a5U, 0xbdc35db0be5a59a7U, 0xbe01494bbe9c9480U,
  0xbdbd9eb33d7cd399U, 0xbd65d7a23d9b24c1U, 0xbda6a2bc3d9565c3U, 0xbe1b24c1bcb7dfb5U,
  0xbd09e7c8bd2c61baU, 0x3b37dfb5U, 0xbdac61babc65d7a2U, 0x3cb7dfb5U,
  0x3e23c33d3e23c33dU, 0x3e3500363e350036U, 0x3d37dfb53da0e3beU, 0x3e8428cabe0428caU,
  0xbb37dfb53dc35db0U, 0x3de018a53d9b24c1U, 0x3e2c61ba3c89e7c8U, 0xbd89e7c8be1565c3U,
  0x3e435db0bd2c61baU, 0x3ca0e3bebdb7dfb5U, 0x3e1565c3be99b501U, 0x3d9565c33dbd9eb3U,
  0x3df1559ebdda59a7U, 0x3c65d7a23d37dfb5U, 0xbe01494b3e2c61baU, 0xbdb220b73e070849U,
  0xbd5c064bbdcf14fbU, 0xbddc064bbc1b4fbcU, 0xbb4f14fb3d35325cU, 0xbda1c864be119ac0U,
  0x3e07e5c53c4f14fbU, 0x3e119ac0bd68f79aU, 0xbdaeb9b43c816d1dU, 0x3d68f79abc1b4fbcU,
  0xbd28410cbc816d1dU, 0x3e0e5e6d3e04a971U, 0x3e1e8c10bd94d714U, 0x3d35325c3ccf14fbU,
  0x3e2504b83bcf14fbU, 0xbe119ac0U, 0xbe2504b8bc816d1dU, 0xbd68f79a3e0b2219U,
  0xbce8f79abd68f79aU, 0xbda8410c3e119ac0U, 0x3dd58da33d0e5e6dU, 0x3b4f14fbbdb5325cU,
  0xbd68f79a3c1b4fbcU, 0x3ce8f79abde27ef3U, 0xbc4f14fb3d28410cU, 0xbeaeb9b43c9b4fbcU,
  0xbd5c064bbd016d1dU, 0xbe79253ebdc89c53U, 0xbdfc6192bd4f14fbU, 0x3e1b4fbc3d816d1dU,
  0xbe52514f3da8410cU, 0xbce8f79abcb5325cU, 0x3b4f14fb3d68f79aU, 0x3e0e5e6d3d4f14fbU,
  0xbd4f14fbbdd58da3U, 0x3c9b4fbcbccf14fbU, 0xbe181368bdc223abU, 0xbe181368bd8e5e6dU,
  0x3e72ac96be8ffc97U, 0xbe4223abbdf5e8eaU, 0xbe455fff3e4223abU, 0x3c1b4fbc3ecd76d1U,
  0xbe830b47bdb5325cU, 0xbeb1f608bce8f79aU, 0x3d0e5e6d3e1e8c10U, 0x3dc89c53bd0e5e6dU,
  0xbd28410cbd4223abU, 0x3ccf14fb3c1b4fbcU, 0xbdb5325cbe72ac96U, 0x3e21c8643c1b4fbcU,
  0xbdc223abbe0e5e6dU, 0x3dcf14fb3d75e8eaU, 0xbd75e8eabd68f79aU, 0x3d8e5e6d3e016d1dU,
  0xbe65bb463e2eb9b4U, 0x3d35325c3ddc064bU, 0x3c1b4fbcbea8410cU, 0xbd5c064bbe3ee757U,
  0x3ccf14fb3bcf14fbU, 0xbda1c8643ebd492dU, 0xbe1b4fbcbd35325cU, 0x3e52514f3e2eb9b4U,
  0xbc4f14fb3d68f79aU, 0xbead1b8a3d4f14fbU, 0xbdf5e8eabb4f14fbU, 0x3df5e8ea3db5325cU,
  0x3dbc1603be249343U, 0xbe400123bcdb6f04U, 0xbdb43fc33cdb6f04U, 0xbdb43fc33d4bc283U,
  0xbd1cbd02be7ac804U, 0x3d8d10823cbc1603U, 0x3c9cbd02bc7ac804U, 0xbe249343bd7ac804U,
  0x3d8d1082be5398c3U, 0xbe1cbd023d853a42U, 0x3e014f22bd3c1603U, 0x3cdb6f043d8d1082U,
  0x3df2f1c4bde34544U, 0x3deb1b84bd3c1603U, 0xbdb43fc33e18d1e2U, 0x3d853a423d8d1082U,
  0xbdeb1b84bd8d1082U, 0xbd1cbd02bdfac804U, 0x3db43fc33dbc1603U, 0xbe9ac772U,
  0xbd94e6c2be6b1b84U, 0x3d853a42bdbc1603U, 0xbe634544bdeb1b84U, 0xbe249343be18d1e2U,
  0xbda49343bd8d1082U, 0xbd853a423d5b6f04U, 0xbdbc1603bd4bc283U, 0x3d6b1b84bb7ac804U,
  0x3cbc16033e5783e3U, 0x3d4bc2833bfac804U, 0x3ddb6f043e0d1082U, 0xbbfac8043d2c6983U,
  0xbe053a423e6b1b84U, 0xbd4bc283bd5b6f04U, 0xbdf2f1c4U, 0x3dd398c3bea0a823U,
  0xbd8d1082U, 0x3d2c69833d94e6c2U, 0xbdac69833d3c1603U, 0xbe7eb3243dfac804U,
  0x3c9cbd02bdf2f1c4U, 0x3eb63553bd853a42U, 0x3c7ac804bd94e6c2U, 0x3d8d1082be287e63U,
  0x3d0d10823e18d1e2U, 0x3e6345443e2c6983U, 0xbb7ac804be14e6c2U, 0x3dac6983bdb43fc3U,
  0xbe014f223cfac804U, 0xbd0d10823d7ac804U, 0x3ecdb8133d853a42U, 0xbddb6f043d4bc283U,
  0x3d0d10823da49343U, 0xbcbc1603bdac6983U, 0x3e3c1603bd853a42U, 0x3d9cbd02bdeb1b84U,
  0x3e2c69833e249343U, 0x3ef8d274be853a42U, 0xbd1cbd02bdd398c3U, 0x3e5783e3be1cbd02U,
  0xbe343fc33b7ac804U, 0xbe9ac772bd6b1b84U, 0xbcbc1603be343fc3U, 0x3e8344b23da49343U,
  0x3d888e00bd6cb1ddU, 0x3c91a888bdb612aaU, 0x3ddf0a103cda7cccU, 0xbb11a8883dda7cccU,
  0xbdf13f21bca3dd99U, 0xbddf0a103b91a888U, 0x3ca3dd99be0400bbU, 0x3e26243bbd3f2d32U,
  0x3bda7cccbd1ac310U, 0xbd9635cc3e0ad4a2U, 0x3c7ee6ee3d3f2d32U, 0xbe4173d53d6cb1ddU,
  0xbb91a8883d9f5055U, 0xbdecb1ddbe908537U, 0xbdd5ef883cc847bbU, 0xbd23dd993bda7cccU,
  0x3dc847bbbcecb1ddU, 0x3c11a8883e23dd99U, 0xbd6cb1ddbcfee6eeU, 0x3d088e00be3612aaU,
  0xbe65ddf7bd088e00U, 0x3d516244bb11a888U, 0xbdd162443d91a888U, 0xbb91a8883cc847bbU,
  0x3d9f5055bcfee6eeU, 0x3d5162443dccd4ffU, 0xbe187c6ebdf5cc66U, 0x3e26243bbd9ac310U,
  0xbdd162443b91a888U, 0x3b11a888be65ddf7U, 0x3dd5ef88bd75cc66U, 0x3c91a8883d1ac310U,
  0xbcc847bbbe3612aaU, 0xbddf0a10bcda7cccU, 0xbc3612aabd91a888U, 0xbd888e00bd75cc66U,
  0x3d11a888bd888e00U, 0xbb11a888bd7ee6eeU, 0x3d888e003e4173d5U, 0xbd6cb1dd3d91a888U,
  0xbd6cb1ddbd7ee6eeU, 0xbcb612aaU, 0x3d3f2d32U, 0xbd6397543e26243bU,
  0x3d11a8883db18566U, 0x3e2196f73d8400bbU, 0xbcb612aa3da86addU, 0x3d088e003e2ab17fU,
  0xbde824993e7ca04cU, 0x3d1ac310bd8d1b44U, 0x3d9635ccbe088e00U, 0x3decb1ddbdda7cccU,
  0xbc11a888be460119U, 0x3d888e0000000000U, 0xbdb612aabe639754U, 0x3d91a888be43ba77U,
  0x3c91a888bcecb1ddU, 0x3dda7cccbd75cc66U, 0xbd75cc66be3f2d32U, 0x3e7813083d23dd99U,
  0x3d5a7ccc3df5cc66U, 0xbc5a7cccbe0400bbU, 0x3e2cf822bd9f5055U, 0x3e2ab17fbe43ba77U,
  0x3d461f913c96f37bU, 0x3cf54ba83e194f49U, 0xbd754ba8bd334122U, 0x3d3cb05a3c626d38U,
  0xbe1e06e53c84150cU, 0x3d4f8ec9bd0d8443U, 0xbdb7f8be3b16f37bU, 0xbdfa0344bd754ba8U,
  0xbda062b33d3cb05aU, 0x3d923bdfbdf54ba8U, 0x3c84150c3d88cca7U, 0xbe29d1eabdb7f8beU,
  0x3d7ebae03be26d38U, 0x3e2c2db83d334122U, 0x3ca9d1eabdae8986U, 0xbdcad72dU,
  0xbcbcb05abc84150cU, 0x3b16f37bbc96f37bU, 0x3e0670dabe0fe011U, 0xbd923bdfbb16f37bU,
  0xbdc61f91bdf0940cU, 0xbc84150cbc84150cU, 0xbc3cb05a3dd44665U, 0xbe251a4fbd2062b3U,
  0x3d461f913da062b3U, 0x3e2062b33d96f37bU, 0x3cf54ba8be251a4fU, 0xbcf54ba8be7ebae0U,
  0x3d96f37bbe0fe011U, 0xbd0d8443be1bab17U, 0xbe2062b3be37f8beU, 0xbc96f37bbe43c3c4U,
  0x3d16f37bbd6bdc70U, 0x3cbcb05abd4f8ec9U, 0x3da062b33ca9d1eaU, 0xbd88cca7bd3cb05aU,
  0xbd626d383e0fe011U, 0xbda062b3bb96f37bU, 0x3d4f8ec9bb96f37bU, 0xbd04150cbcf54ba8U,
  0xbc96f37b3d923bdfU, 0xbd9bab173dcad72dU, 0x3ca9d1ea3d04150cU, 0x3db7f8bebd334122U,
  0xbe01b93ebb16f37bU, 0xbcf54ba83df0940cU, 0x3d754ba83c626d38U, 0xbd3cb05a3de26d38U,
  0xbc96f37b3dc61f91U, 0xbd8d84433e72efdaU, 0xbe95c5943cbcb05aU, 0x3d0d8443be3cb05aU,
  0xbe4167f63e0b2875U, 0x3be26d38bd626d38U, 0xbda9d1eabdcf8ec9U, 0xbe29d1eabccf8ec9U,
  0x3d923bdf3dbcb05aU, 0x3ca9d1eabdddb59dU, 0xbdbcb05a3d04150cU, 0x3c96f37bbe194f49U,
  0x3c96f37bbd754ba8U, 0x3c84150c3dd8fe01U, 0xbe0fe011bdf0940cU, 0xbd461f913dc167f6U,
  0x3e0188943dc8690bU, 0x3c4385b4bbeaa071U, 0xbdef83c93ceaa071U, 0x3d4d4c63be411408U,
  0xbde0d9c2bcc385b4U, 0xbdbea25c3d2ff855U, 0x3dd22fbbbe374d58U, 0x3d571312bd9c6af6U,
  0x3b1c6af6bc1c6af6U, 0x3dd22fbb3c6aa071U, 0xbd12a447bd83fa40U, 0xbdb4dbac3e48690bU,
  0x3beaa071bbeaa071U, 0x3d39bf043dcd4c63U, 0x3caff855be2631a5U, 0x3d5713123dc8690bU,
  0x3d4d4c6300000000U, 0xbdbea25c3d1c6af6U, 0x3dc385b4be12a447U, 0x3c6aa071bdaff855U,
  0xbcc385b4bceaa071U, 0x3cc385b4bc4385b4U, 0xbd92a4473d2ff855U, 0xbe10329bbde0d9c2U,
  0xbe066beb00000000U, 0xbe08dd97bc9c6af6U, 0xbdab14fdbdb4dbacU, 0xbdf94a78bdaff855U,
  0x3e326a013e23bffaU, 0x3e4385b4be1c6af6U, 0xbe03fa40bdaff855U, 0xbdaff855be4d4c63U,
  0xbdb9bf043dbea25cU, 0x3d6aa0713d88dd97U, 0x3d7467203dd22fbbU, 0x3d08dd97bd97879eU,
  0xbdbea25c3d60d9c2U, 0xbe48690b3c6aa071U, 0x3d08dd97be10329bU, 0x3d12a447bdaff855U,
  0x3e12a447bd60d9c2U, 0x3c1c6af6bdab14fdU, 0x3c4385b43d571312U, 0x3b1c6af6bc6aa071U,
  0x3beaa071bdaff855U, 0xbbeaa0713d8dc0efU, 0x3b1c6af6bd7e2dd0U, 0x3db4dbacbd08dd97U,
  0x3d12a447be9b3220U, 0xbc9c6af63def83c9U, 0xbda631a53d08dd97U, 0xbcaff8553da631a5U,
  0x3deaa0713da14e4eU, 0xbe17879e3e2631a5U, 0x3dab14fdbd88dd97U, 0xbe10329b3dc8690bU,
  0x3e571312bbeaa071U, 0x3b1c6af6bd7e2dd0U, 0xbe2b14fd00000000U, 0x3d2ff855be018894U,
  0x3b9c6af6bdcd4c63U, 0xbd39bf043d88dd97U, 0xbe5984bebc6aa071U, 0xbdc385b4be374d58U,
  0xbd01d1453c42b9e8U, 0x3d2245963cb27fbfU, 0xbe03d88abd09ee59U, 0x3d5b1124be224596U,
  0x3daa62ab3d52f410U, 0x3e2654203d4ad6fcU, 0x3b81d1453cb27fbfU, 0xbc42b9e83dcee586U,
  0x3d85dfcfbd8dfce3U, 0x3d1a28823d2a62abU, 0xbd01d145bd1a2882U, 0x3d01d145bd1a2882U,
  0x3d736861bc42b9e8U, 0x3d920b6ebe01d145U, 0x3d89ee59bd81d145U, 0x3df776ecbbc2b9e8U,
  0xbe1a2882bd8dfce3U, 0x3d85dfcfbc81d145U, 0x3cd2f4103d42b9e8U, 0xbca245963e03d88aU,
  0x3d2245963c224596U, 0xbdbeab5dbd89ee59U, 0x3e0dfce33c224596U, 0xbd4ad6fcbc224596U,
  0x3cd2f4103c224596U, 0xbdbeab5dbe03d88aU, 0x3c632e39bcf36861U, 0x3e244cdbbe30787aU,
  0xbe6d5292be2e7135U, 0xbe2e7135bddb1124U, 0x3df368613b01d145U, 0xbc42b9e8bc01d145U,
  0xbe3a9cd3bd01d145U, 0x3d9a2882bcf36861U, 0xbd9e370cbb81d145U, 0xbe57029abca24596U,
  0x3d42b9e8bc920b6eU, 0xbdd7029a3d327fbfU, 0xbd8dfce33d8dfce3U, 0xbd5b11243d81d145U,
  0xbde73cc3bd5b1124U, 0xbe80cda23e265420U, 0xbda245963d42b9e8U, 0xbe3a9cd3bb81d145U,
  0xbdeb4b4d3d5b1124U, 0xbde73cc3bb81d145U, 0x3dc6c872bd1a2882U, 0x3d4ad6fc3d327fbfU,
  0xbda65420bdb68e49U, 0xbde73cc33e07e714U, 0xbe30787abd81d145U, 0xbc42b9e8be1a2882U,
  0xbe57029a3d3a9cd3U, 0xbd01d1453c920b6eU, 0xbe6b4b4dbe6d5292U, 0xbdb68e49be05dfcfU,
  0xbe6126f400000000U, 0x3e01d145bc81d145U, 0xbe100429bc920b6eU, 0xbdc6c872bda24596U,
  0x3d5b1124bdfb8576U, 0x3cb27fbf3d01d145U, 0xbc42b9e8bd224596U, 0xbd920b6e3cc2b9e8U,
  0x3dd43a3abdc95810U, 0x3d985e51be6cb71aU, 0xbe0552873e055287U, 0x3d9dcf66be0ac39cU,
  0x3c8299fcbcef6fa4U, 0x3da3407cbdc3e6fbU, 0x3c985e51bd59ab50U, 0x3d92ed3cbd59ab50U,
  0x3def6fa4bd985e51U, 0xbe99ba97bd23407cU, 0x3d8299fcbe080b12U, 0xbdbe75e63bae22a6U,
  0x3d4ec925bc2e22a6U, 0x3e0299fc3d8299fcU, 0xbe080b123d185e51U, 0xbe1b16dcbd23407cU,
  0xbe30db313df4e0b9U, 0xbe2087f1bdbe75e6U, 0xbd92ed3cbd4ec925U, 0xbdfa51cf3c985e51U,
  0xbcae22a6bd985e51U, 0x3c8299fcbe23407cU, 0xbd8d7c273dc3e6fbU, 0xbe412e703dfa51cfU,
  0xbd3904d0bcae22a6U, 0xbd2e22a63d4ec925U, 0xbe185e51bdd43a3aU, 0xbd8299fc3e0299fcU,
  0xbdc3e6fb3e1b16dcU, 0xbdd9ab50bd23407cU, 0xbd880b12be1dcf66U, 0x3db904d0bd59ab50U,
  0x3d6f6fa4bde48d7aU, 0xbd2e22a63e28b191U, 0x3e1b16dcbc59ab50U, 0x3d8299fc3e15a5c7U,
  0x3bae22a6bdf4e0b9U, 0xbdae22a6bdd9ab50U, 0xbdef6fa43d3904d0U, 0xbcef6fa4bd8299fcU,
  0xbe25f9063c985e51U, 0x3d23407c3de48d7aU, 0x3d985e51bc985e51U, 0x3d3904d03d0d7c27U,
  0x3e3e75e6be23407cU, 0x3cae22a63e0ac39cU, 0x3e4958103e543a3aU, 0x3da3407cbdc3e6fbU,
  0xbe3bbd5bbd185e51U, 0xbdae22a63e364c46U, 0x3e9c7321be0299fcU, 0x3d880b123d880b12U,
  0xbe813db7bcd9ab50U, 0xbe7799443cef6fa4U, 0xbda8b191bdd9ab50U, 0xbcc3e6fbbd92ed3cU,
  0xbc8299fc3e72282fU, 0x3e1dcf66be86aeccU, 0xbd185e51beacc661U, 0x3e2087f1bdb393bbU,
  0x3e7fc2e4bc0299fcU, 0xbddf1c653d9dcf66U, 0xbddf1c65bd4ec925U, 0xbd0299fc3c0299fcU,
  0xbbdb4b703cdb4b70U, 0x3d090f263d490527U, 0x3d247894bced91baU, 0x3db6bede3c92324bU,
  0x3d52284c3bdb4b70U, 0x3cc90527bd52284cU, 0xbda90a273d92324bU, 0xbe0b57efbe26c15eU,
  0xbdc90527bd52284cU, 0xbde90028bd090f26U, 0x3b12324bbdad9bb9U, 0x3cc90527be6b48f1U,
  0x3ca47894be4b4df0U, 0x3cdb4b703d8da0b9U, 0x3d5b4b70bdad9bb9U, 0xbd9fe702bd7fd803U,
  0xbda478943e290a27U, 0x3d4905273c12324bU, 0xbdb22d4b3dffd803U, 0x3bdb4b703c36bedeU,
  0xbdbb5070bd36bedeU, 0xbcc90527bdd2284cU, 0x3da90a27bde90028U, 0x3d52284cbced91baU,
  0x3db22d4b3da47894U, 0x3cb6bedebe547115U, 0xbca47894bded91baU, 0x3d96c3ddbdbb5070U,
  0xbd96c3ddbcdb4b70U, 0xbdbb50703d8da0b9U, 0x3cffd8033d247894U, 0x3e26c15e3b12324bU,
  0xbd490527bdfb4671U, 0x3e047d943d5b4b70U, 0x3e147b14bde46e95U, 0xbded91ba3d7fd803U,
  0x3dd2284c3d1b5570U, 0x3dd2284cbd490527U, 0xbe147b14bcc90527U, 0xbe910de63e06c65dU,
  0xbcb6bede3bdb4b70U, 0xbd76b4df3e4b4df0U, 0x3df2234cbdbb5070U, 0x3db6bedebe06c65dU,
  0xbe090f26bd36bedeU, 0x3d9fe702U, 0x3de46e95bc5b4b70U, 0xbde46e95bd1b5570U,
  0xbb12324bbda47894U, 0x3dd6b9debe1fe702U, 0x3e0b57ef3ddfdd03U, 0xbc36bedebe3907a7U,
  0xbe12324b3d847d94U, 0x3d8da0b93e26c15eU, 0x3c36bedebc92324bU, 0xbb12324bbe36bedeU,
  0x3b92324b3ddb4b70U, 0xbc12324bbe646e95U, 0xbd7fd803U, 0xbe0b57efbe547115U,
  0x3e147b14bde90028U, 0xbd3fe202bcdb4b70U, 0x3c12324bbbdb4b70U, 0xbdbb5070bd12324bU,
  0xbd80b69fbd2295d6U, 0x3e7743e0bd665444U, 0xbdb6e891bdd8c7c8U, 0x3e1bcf983dd2018aU,
  0xbd665444be36e891U, 0xbdc4750d3cf3e0c1U, 0x3ddf8e06be58c7c8U, 0x3cf3e0c13d302252U,
  0xbec6269dbd077cddU, 0x3b58c7c83d3daecfU, 0xbec2c37e3cd8c7c8U, 0xbe85cb4dbc2295d6U,
  0xbe15095abea44766U, 0x3da95c14bcd8c7c8U, 0x3c877cdd3cd8c7c8U, 0xbd95095a3e69b764U,
  0xbda95c14bdb6e891U, 0xbe1bcf98bcd8c7c8U, 0x3d3022523ed71638U, 0x3dfaa6ffbd73e0c1U,
  0xbdd8c7c8bda295d6U, 0x3b58c7c8bdf3e0c1U, 0x3e0419be00000000U, 0x3e665444bebf605fU,
  0x3e00b69fbd58c7c8U, 0x3d80b69fbe25f8f5U, 0xbd3daecfbd077cddU, 0xbd9bcf98be295c14U,
  0x3da95c14be9a1e08U, 0xbd3daecf3de65444U, 0xbe73e0c1bd3daecfU, 0x3e1bcf983e3a4bb0U,
  0x3da295d6be338572U, 0x3c877cddbe4b3b4cU, 0xbe707da2bd3daecfU, 0xbd2295d6bcf3e0c1U,
  0x3d6654443dcb3b4cU, 0xbe00b69f3e077cddU, 0x3b58c7c83d077cddU, 0x3d80b69f3d9bcf98U,
  0xbed3b319be85cb4dU, 0x3dd8c7c8bdb6e891U, 0xbda295d6U, 0xbe3daecfbd2295d6U,
  0x3bd8c7c8bdd8c7c8U, 0x3b58c7c8be7743e0U, 0xbe91a63abe186c79U, 0x3d73e0c13cd8c7c8U,
  0x3d665444bd2295d6U, 0xbe1f32b7bded1a83U, 0xbded1a83be2cbf33U, 0x3b58c7c8be44750dU,
  0xbd2295d63e96bae9U, 0xbe0419be3eb1d3e2U, 0xbe8ff4abbe1f32b7U, 0x3dbdaecfbe44750dU,
  0x3dd8c7c83d80b69fU, 0x3db022523df3e0c1U, 0xbe15095a3db02252U, 0xbc58c7c8be0419beU,
  0x3b58c7c8bdb6e891U, 0x3e892e6dbd302252U, 0x3bd8c7c83e0e431bU, 0x3dd2018abe1bcf98U,
  0x3ceb2460bd892a8eU, 0xbd02a26e3e02a26eU, 0x3d0fb2adbdca7bc5U, 0x3d8fb2ad00000000U,
  0xbe7ebcbe3d02a26eU, 0xbe092a8eU, 0xbcd103e4bd892a8eU, 0xbbd103e43ceb2460U,
  0x3df1ac80bd82a26eU, 0x3e12f6bcbcb6e368U, 0xbcd103e4be02a26eU, 0x3e0c6e9dbda34b0aU,
  0xbe197edbbe2d1739U, 0xbd0fb2adbd78349fU, 0x3d9cc2ebbda9d329U, 0xbe2d17393c5103e4U,
  0x3d6b24603d78349fU, 0x3d78349fbe29d329U, 0x3d43f3a6be844476U, 0xbc1cc2ebbe3d6b87U,
  0x3df1ac803d9cc2ebU, 0x3e74f08fU, 0x3d5103e43c5103e4U, 0xbe6158323ceb2460U,
  0x3d1cc2eb3db6e368U, 0xbe36e368be3a2777U, 0x3d5103e43ceb2460U, 0x3dbd6b87be4a7bc5U,
  0x3e1cc2ebbe7b78aeU, 0xbe1cc2ebbe339f58U, 0xbe649c413e97dcd4U, 0xbcd103e43bd103e4U,
  0x3d0fb2ad3df8349fU, 0xbd36e3683d1cc2ebU, 0xbd0fb2ad3dc3f3a6U, 0x3d8fb2adbe12f6bcU,
  0xbe234b0a3e3d6b87U, 0x3e4dbfd4be268f1aU, 0x3ceb2460be74f08fU, 0x3e43f3a6be2006fbU,
  0x3e0fb2ad3e36e368U, 0x3c82a26ebe05e67eU, 0x3cb6e368bdc3f3a6U, 0x3dfebcbe3d43f3a6U,
  0xbd78349fbd43f3a6U, 0xbe197edb3cd103e4U, 0x3e878886be2d1739U, 0xbdbd6b87bd29d329U,
  0xbe339f58bde49c41U, 0x3deb2460be649c41U, 0x3c9cc2eb3d6b2460U, 0xbd8fb2ad3de49c41U,
  0x3e197edb3d6b2460U, 0xbeb8856fbe7ebcbeU, 0x3e92f6bcbd5103e4U, 0xbd8fb2ad3e339f58U,
  0xbbd103e43c1cc2ebU, 0xbdf8349f3d6b2460U, 0xbe0c6e9d3e2d1739U, 0xbdbd6b87bd963accU,
  0xbe268f1a3e615832U, 0xbdb05b48bcd103e4U, 0x3cb6e368be8e10a5U, 0x3e1cc2ebbecf61dcU,
  0xbdbf812a3d04e176U, 0x3d4369adbd8cb27dU, 0xbd7a20de3dee6754U, 0x3e06d5b8be4b3ab4U,
  0x3d88c9f9bb7a20deU, 0xbd04e176be37b023U, 0x3d0cb27d3d04e176U, 0x3d2bf699be2bf699U,
  0xbd986c07bd7a20deU, 0xbc8cb27d3cabf699U, 0xbc7a20debd986c07U, 0x3d62adc93e02ed34U,
  0x3ccb3ab4be4d2ef6U, 0xbd0cb27dbe06d5b8U, 0xbdee6754bd909b00U, 0xbe02ed34bc8cb27dU,
  0xbdc369adbd4369adU, 0x3d33c7a03dbf812aU, 0x3d8cb27dbcfa20deU, 0x3df6385bbda42592U,
  0x3da03d0e3cea7ed0U, 0xbdf6385b3d0cb27dU, 0x3e2619d3bc9c548bU, 0x3ddec546bda80e15U,
  0x3bbb98a6bcbb98a6U, 0xbd530bbbbc9c548bU, 0x3dbf812abe0ea6bfU, 0x3bbb98a63cdadcc2U,
  0x3d5adcc23d5adcc2U, 0x3c5adcc23afa20deU, 0x3d7a20de3d1c548bU, 0xbbfa20debdc75231U,
  0xbda03d0ebe782c9cU, 0xbcdadcc2bd242592U, 0xbd986c073e109b00U, 0xbcbb98a6bd4b3ab4U,
  0x3d7a20debdb3c7a0U, 0xbd5adcc2bcbb98a6U, 0x3c1c548b3b7a20deU, 0xbd4369ad3c3b98a6U,
  0x3d4369ad3dea7ed0U, 0xbda425923d1c548bU, 0xbde6964d3d242592U, 0xbd88c9f9U,
  0x3d242592be1a6049U, 0xbda80e153e203d0eU, 0xbe109b00be62adc9U, 0xbc9c548bbe2bf699U,
  0x3cea7ed03cea7ed0U, 0x3e02ed34bd2bf699U, 0xbdf24fd7be148384U, 0xbdc752313d04e176U,
  0xbe1677c63c8cb27dU, 0xbd6a7ed0bd62adc9U, 0x3cbb98a6be2619d3U, 0x3d62adc93d04e176U,
  0xbe62adc9bdf24fd7U, 0xbc7a20de3de2adc9U, 0xbc7a20debd1c548bU, 0xbe242592bdb3c7a0U,
  0xbe5adcc2bcea7ed0U, 0xbe35bbe13e08c9f9U, 0x3e203d0e3cea7ed0U, 0xbd9c548bbe08c9f9U,
  0xbe9ba0983cc410e0U, 0xbe0458313d6179cfU, 0x3d751518bcc410e0U, 0x3df02e46bd26a7f2U,
  0xbd4410e0bda6a7f2U, 0x3cb07597be0bb26dU, 0x3d893f033d751518U, 0xbcfee2bd3ceb4774U,
  0xbe0e25d6bd8e25d6U, 0xbbeb47743ceb4774U, 0x3df9fbebbde179cfU, 0x3e32e9003c6b4774U,
  0x3d57ac2abdd2c557U, 0xbd8e25d6bdc410e0U, 0xbdb55c69bde179cfU, 0xbd7ee2bdbc6b4774U,
  0xbd6b47743cb07597U, 0xbde660a13db55c69U, 0x3e3f2a0ebe093f03U, 0x3c9cda4dbb9cda4dU,
  0xbd893f033d8e25d6U, 0xbc893f033e093f03U, 0x3dba433b3d130ca8U, 0xbda6a7f23beb4774U,
  0xbd7ee2bd3c9cda4dU, 0x3d3a433bbd4dde85U, 0xbe1cda4dbe6660a1U, 0xbceb477400000000U,
  0xbd8e25d6bd307597U, 0xbd3075973e17f37bU, 0xbd9cda4d3cb07597U, 0x3dc410e03d845831U,
  0xbdd2c557bd8e25d6U, 0xbd3a433b3d845831U, 0xbe1f4db63beb4774U, 0xbdd2c557bdc410e0U,
  0xbd57ac2a3c4410e0U, 0x3c9cda4dbd3a433bU, 0x3da6a7f2be0bb26dU, 0x3b1cda4dbe86cb9aU,
  0x3e10993f3e52c557U, 0xbd130ca8bceb4774U, 0xbe4410e0bd7ee2bdU, 0x3d97f37bbe7ee2bdU,
  0xbcc410e0bc6b4774U, 0xbe468449bcd7ac2aU, 0xbdfee2bdbbeb4774U, 0x3d130ca8bb1cda4dU,
  0x3cd7ac2abcc410e0U, 0xbdcdde85bcfee2bdU, 0x3deb4774be32e900U, 0xbd1cda4d3e10993fU,
  0xbe0e25d63beb4774U, 0xbe1f4db6be17f37bU, 0x3dc410e0be5c92fcU, 0x3dd7ac2abdba433bU,
  0x3de179cf3cc410e0U, 0x3e992d2fbe093f03U, 0xbde660a1bd1cda4dU, 0xbda1c11f3c6b4774U,
  0x3ceb4774bd26a7f2U, 0xbdbf2a0e3e80ab13U, 0xbcfee2bdbdeb4774U, 0xbd930ca8bc9cda4dU,
  0xbd988108bd08ba4eU, 0xbe06192f3d5cde2fU, 0x3e2d8a00bd933ecaU, 0x3df72965bd7c6ba3U,
  0xbd2847c2bd9dc346U, 0xbd837810bda30584U, 0xbd9dc3463db80e7cU, 0xbd71e727bd5259b2U,
  0xbd1dc346bd3d50baU, 0x3e2d8a00bd47d536U, 0xbdf729653d3d50baU, 0xbda30584be1b2227U,
  0x3d6762ab3b2847c2U, 0x3d9881083ce762abU, 0x3d32cc3ebd2847c2U, 0x3e037810bda847c2U,
  0x3cfc6ba33d5cde2fU, 0xbb2847c23dad8a00U, 0x3e0b5b6d3bfc6ba3U, 0x3d32cc3e00000000U,
  0xbe1b2227bc2847c2U, 0xbd8dfc8cbcbd50baU, 0xbbfc6ba33df1e727U, 0xbcd259b2bc2847c2U,
  0xbdb2cc3e3d3d50baU, 0x3dd259b2bd133ecaU, 0x3ce762abbdb80e7cU, 0xbd133ecabe0dfc8cU,
  0x3e0dfc8cbdd79bf1U, 0x3e4292f8bd47d536U, 0x3d08ba4e3b2847c2U, 0x3d2847c2bd2847c2U,
  0xbe62206dbba847c2U, 0xbde762ab3e2847c2U, 0xbd32cc3e3bfc6ba3U, 0xbdc292f83b2847c2U,
  0xbdc7d5363e188108U, 0xbdc292f83d133ecaU, 0x3d5259b2be579bf1U, 0xbdbd50babd88ba4eU,
  0x3d6762ab3deca4e9U, 0xbd6762abbdbd50baU, 0xbca847c23d2847c2U, 0x3db2cc3e3d1dc346U,
  0xbdf72965be133ecaU, 0xbe3d50ba3e3ff1d9U, 0xbdbd50babe302b1fU, 0xbe15dfe93e579bf1U,
  0xbe84c89fbc2847c2U, 0xbda305843dcd1774U, 0xbdc7d536be2d8a00U, 0x3dd79bf1be133ecaU,
  0xbdbd50ba3ddcde2fU, 0xbe7488463d133ecaU, 0x3de762abbe909dabU, 0xbd2847c2bd5259b2U,
  0x3dad8a003ca847c2U, 0xbd3d50ba3b2847c2U, 0xbd47d536U, 0x3dc7d536bd837810U,
  0xbdb80e7cbba847c2U, 0xbe3ff1d93d8dfc8cU, 0xbea6f732bd9dc346U, 0xbd988108be32cc3eU,
  0xbb8f5d0e3cb33452U, 0xbda148b0bdf667f0U, 0xbde8f737bc570b95U, 0xbd9ccdc7be1f0b3cU,
  0xbdb7af3abdaa3e81U, 0xbd2148b0bdfae2d8U, 0xbbd70b95bdfae2d8U, 0xbded721fbdc0a50bU,
  0xbd81ec553cd70b95U, 0x3d86673dbddb867dU, 0xbcfae2d8be1852dfU, 0xbe25c398bddb867dU,
  0x3db7af3a3c7ae2d8U, 0xbe25c398bc570b95U, 0x3d3c2a223d9852dfU, 0x3c3334523b8f5d0eU,
  0x3e0d1f9abdf1ed08U, 0xbdc0a50b3e0429c9U, 0xbd1852df3e06673dU, 0x3d8ae2263c0f5d0eU,
  0x3da148b03d8f5d0eU, 0x3cd70b95bd06673dU, 0x3d71ed08bd4e15c4U, 0xbe2386243d4e15c4U,
  0xbca148b03d570b95U, 0xbe6d721fbde47c4eU, 0x3ce8f737be3e6797U, 0x3da148b0be600166U,
  0x3cd70b953c7ae2d8U, 0xbc8f5d0e3c570b95U, 0x3d68f7373d68f737U, 0xbd81ec553e54ce21U,
  0x3d2148b0bdc51ff3U, 0xbdc99adc3d9852dfU, 0x3e37af3a3e1ccdc7U, 0x3d8f5d0ebc7ae2d8U,
  0x3db33452bd451ff3U, 0x3d71ed083d71ed08U, 0x3da5c398bd86673dU, 0xbd9ccdc73e2148b0U,
  0xbdb33452bda5c398U, 0xbe28010c3db33452U, 0xbd7ae2d8bdbc2a22U, 0x3e01ec553d570b95U,
  0xbce8f737U, 0xbe8e3e54bd06673dU, 0x3d8f5d0ebd68f737U, 0xbe2c7bf5be25c398U,
  0x3dd290adbce8f737U, 0xbb8f5d0e3ddb867dU, 0xbc570b9500000000U, 0x3e01ec55be1a9053U,
  0x3dfae2d8bcb33452U, 0x3de47c4e3dd290adU, 0x3e451ff3bd7ae2d8U, 0xbd8f5d0ebd2a3e81U,
  0x3cc51ff33bd70b95U, 0xbca148b03cc51ff3U, 0xbe1a9053be0429c9U, 0x3d2a3e81bb8f5d0eU,
  0x3da148b0be0f5d0eU, 0xbd9ccdc7bc7ae2d8U, 0xbdd290ad3d8f5d0eU, 0xbda5c3983ce8f737U,
  0xbe17e95c3c4a8c7bU, 0xbdd2fd003d313aecU, 0xbe0f78d7be6c4e90U, 0xbe2d02a9bd9c219fU,
  0xbcb9ab713d313aecU, 0xbdc21bf63c870852U, 0xbda49224be3bc792U, 0xbd8708523cdb6d85U,
  0xbdb13aecbcdb6d85U, 0x3e04ec313de3de0aU, 0xbb8708523d7d2f9aU, 0xbdbde3b3bdbde3b3U,
  0x3e4a8c7b3e50e0dfU, 0x3d28ca663da059e1U, 0xbd93b11abe1c219fU, 0xbb8708523dc65438U,
  0xbd63de0abd0f78d7U, 0x3d63de0abd9c219fU, 0xbcca8c7bbd8f78d7U, 0x3d52fd00be85fa41U,
  0xbd313aecbca8ca66U, 0x3e313aec00000000U, 0xbda8ca66bdca8c7bU, 0xbda8ca663e13b11aU,
  0xbe0b4095bdc21bf6U, 0xbdd73543bdb9ab71U, 0xbc4a8c7bbdb5732eU, 0x3e1e3dc0bd63de0aU,
  0x3c97e95c3d17e95cU, 0xbe04ec31bd0f78d7U, 0x3d7d2f9abe0d5cb6U, 0xbcec4e90be2d02a9U,
  0x3c870852bda8ca66U, 0x3c4a8c7bU, 0xbe80b3ee3ca8ca66U, 0xbda059e13db13aecU,
  0x3d52fd00bd28ca66U, 0xbda059e1bbca8c7bU, 0xbda49224bcec4e90U, 0x3ca8ca66bbca8c7bU,
  0xbd870852bd0f78d7U, 0xbe00b3eebcec4e90U, 0xbd39ab71bd313aecU, 0xbe65fa2cbe421bf6U,
  0xbe7f4bbbbe551921U, 0x3e13b11abd28ca66U, 0xbdc21bf6be15cd3bU, 0xbd52fd00bd63de0aU,
  0xbe83de20be13b11aU, 0xbc6c4e903db13aecU, 0x3e465438bde8164dU, 0xbe3de3b33e070852U,
  0xbdbde3b33c6c4e90U, 0xbd7d2f9abc6c4e90U, 0x3d07085200000000U, 0xbe13b11a3e2f1ecaU,
  0x3de3de0abd63de0aU, 0xbe0924733e0f78d7U, 0x3e13b11a3b870852U, 0x3d82d00fbe7f4bbbU,
  0xbcca8c7b3d97e95cU, 0xbe26ae453cb9ab71U, 0x3d7d2f9a3d52fd00U, 0x3e00b3ee3d93b11aU,
  0xbdc198c03d334196U, 0x3de572ab3da4ea6bU, 0xbd334196bd011080U, 0xbdf75fa03d6c9e40U,
  0xbdf3c9d6bd2c1600U, 0xbc2c1600bd24ea6bU, 0xbce572ab3d0f67abU, 0x3d1dbed63d811080U,
  0xbd48c4563cac1600U, 0xbd9a290bbdf3c9d6U, 0x3da4ea6bbae572abU, 0xbce572ab3e63a7c6U,
  0xbe63a7c63d5e4716U, 0x3d8bd1e0bde572abU, 0xbda154a03c2c1600U, 0x3bac16003ae572abU,
  0xbe067130bcc8c456U, 0x3d0f67abbe011080U, 0x3dafabcbbdc198c0U, 0xbe04a64b3ce572abU,
  0xbe0bd1e0bdb6d760U, 0xbdc52e8b3da4ea6bU, 0xbd5e47163d169340U, 0x3b6572abbcd71b80U,
  0xbe0f67abbbac1600U, 0xbe14c85bbda88036U, 0x3c9dbed6bdba6d2bU, 0xbdec9e40be0a06fbU,
  0xbd571b80bcac1600U, 0xbdac1600be3176b0U, 0x3d4fefebbdb6d760U, 0xbc2c1600bc6572abU,
  0xbe46f9703bac1600U, 0x3ae572abbe0bd1e0U, 0xbe231f86be334196U, 0x3d7af56b3b6572abU,
  0xbdc198c03d48c456U, 0x3c2c16003c9dbed6U, 0xbe4c5a20bdcfefebU, 0x3d0110803cc8c456U,
  0x3d24ea6bbdb34196U, 0xbc6572abbde572abU, 0xbd84a64bbdde4716U, 0xbd73c9d63e2fabcbU,
  0xbc8f67abbe169340U, 0x3cf3c9d6be231f86U, 0x3ae572ab3d334196U, 0x3d6c9e40bb6572abU,
  0xbc8f67abU, 0x3dd71b80bd9a290bU, 0x3dc198c03d8bd1e0U, 0xbd8f67ab3c9dbed6U,
  0x3cc8c456bda4ea6bU, 0xbdb6d760be02db66U, 0x3cd71b80bde90876U, 0xbddab14bbd3a6d2bU,
  0xbd8bd1e0bdbe02f6U, 0x3dcfefeb3ae572abU, 0x3c0f67ab3c811080U, 0x3dfaf56b3db34196U,
  0xbde572abbe02db66U, 0xbd3a6d2bbe113290U, 0x3bac1600bc6572abU, 0xbd24ea6b3dd71b80U,
  0xbcdcb7063d0de35fU, 0xbd4511213d9da74dU, 0xbda19849bdad6b3bU, 0x3d15c5563afc3ee2U,
  0xbc1da74dbe1baecfU, 0x3dd4d50f3c9da74dU, 0x3afc3ee2be0408eaU, 0xbbbd2f2abdb54d32U,
  0x3d060168bd15c556U, 0x3d060168bde889f8U, 0x3da589443b7c3ee2U, 0x3de498fdbd4cf318U,
  0xbd15c556be11d45bU, 0xbe5cb7063e0de35fU, 0xbd5cb706bd91d45bU, 0xbdccf3183e52dc91U,
  0xbd2d6b3bbdf84de6U, 0x3e0fdbdd3db93e2eU, 0x3d451121bd060168U, 0xbe66917b3d6c7af4U,
  0xbe2390c7bdc9021cU, 0x3cbd2f2abcad6b3bU, 0x3cdcb706bd745cebU, 0x3d99b6523df84de6U,
  0xbe060168bd451121U, 0xbd89f264bd6c7af4U, 0xbd1da74d3cad6b3bU, 0xbc7c3ee23e2781c2U,
  0xbd4511213cec7af4U, 0xbe56cd8cbe0fdbddU, 0x3d5cb706bd82106dU, 0x3d745cebbbfc3ee2U,
  0x3df84de6be7a4664U, 0xbde889f83c8de35fU, 0xbcbd2f2a3d54d50fU, 0xbd0de35f3dd8c60aU,
  0xbe0fdbddbd15c556U, 0x3d95c556bd82106dU, 0xbd5cb7063cfc3ee2U, 0xbd1da74dbe17bdd4U,
  0xbd91d45b3cbd2f2aU, 0xbd745cebbd860168U, 0xbde498fd3db15c37U, 0x3c5cb7063d451121U,
  0x3c5cb706U, 0x3dbd2f2abd451121U, 0xbd6c7af43cfc3ee2U, 0xbda589443d0de35fU,
  0xbb7c3ee23afc3ee2U, 0x3d91d45b3e219849U, 0xbe0408eabcec7af4U, 0x3d0de35f3d1da74dU,
  0x3d3d2f2a3c7c3ee2U, 0x3d3d2f2abd1da74dU, 0xbdc511213d89f264U, 0x3d745cebbd451121U,
  0xbe2390c7be50e413U, 0x3e07f9e63dd0e413U, 0xbd99b6523e4318a3U, 0x3e1baecf3dc9021cU,
  0xbd9da74dbc8de35fU, 0xbd2d6b3b3dfc3ee2U, 0xbd8de35fbe09f264U, 0xbb7c3ee23d860168U,
  0x3d4344653c6a5212U, 0xbdd6cb3c3dbe62afU, 0xbe48261abd83ce2aU, 0xbdb49f44bd975501U,
  0x3b9c36b73dafbd8eU, 0xbe0d91963d2fbd8eU, 0xbdef33c8bdd6cb3cU, 0xbe349f443d92734cU,
  0xbdafbd8e3d7dd8e9U, 0xbbea5212bd12734cU, 0xbc1c36b73d56cb3cU, 0xbd2fbd8ebd25fa22U,
  0xbe19c5dcbe21186dU, 0xbd4d07d03d2fbd8eU, 0x3d7dd8e9bd12734cU, 0xbdaadbd8be238948U,
  0x3dc34465be0d9196U, 0xbcfdd8e93dd6cb3cU, 0x3d434465bd9c36b7U, 0xbc88afe0be2fbd8eU,
  0x3d4d07d0bda5fa22U, 0xbda1186dbd2fbd8eU, 0xbe08afe0bd92734cU, 0xbe08afe03cd6cb3cU,
  0x3d8d9196be0b20bbU, 0xbd56cb3cbcea5212U, 0x3d8d91963d2fbd8eU, 0xbd25fa223d56cb3cU,
  0xbd4344653d7dd8e9U, 0x3e0d9196be175501U, 0x3de08ea73bea5212U, 0x3c88afe0bcea5212U,
  0xbd74157ebe25fa22U, 0xbcc344653d434465U, 0xbe9afe4abd74157eU, 0xbd8d91963cafbd8eU,
  0xbddbacf1bda1186dU, 0x3cc344653c434465U, 0x3d74157ebe08afe0U, 0xbc6a5212bdbe62afU,
  0xbc9c36b73c6a5212U, 0xbd92734c3db980f9U, 0xbd56cb3c3d12734cU, 0x3d608ea7bcea5212U,
  0xbdafbd8ebd608ea7U, 0xbdc8261a3dea5212U, 0xbd83ce2abddbacf1U, 0xbd88afe03da5fa22U,
  0xbdaadbd8bd434465U, 0x3d83ce2a3db49f44U, 0x3d12734c3e1c36b7U, 0x3dc8261abd4d07d0U,
  0xbe25fa223e08afe0U, 0xbe2d4cb3bc9c36b7U, 0x3d08afe0be1ea792U, 0xbc9c36b7bd3980f9U,
  0xbd975501bd975501U, 0x3d434465bdf8f734U, 0xbd83ce2a3c6a5212U, 0xbd608ea73cea5212U,
  0x3d83ce2a3d6a5212U, 0xbda1186d3d434465U, 0x3cc344653d08afe0U, 0x3d9c36b7bdb49f44U,
  0x3de6a681be246656U, 0x3dba7bba3c6b8ed0U, 0xbc444c583d755f6eU, 0x3c444c58be1f7e08U,
  0xbe57ed943d7f300cU, 0xbdff300c3c1d09e0U, 0x3d9d09e0be0e50f3U, 0xbd9d09e0bda6da7eU,
  0x3d8968a4bd57ed94U, 0x3e444c583cd7ed94U, 0x3c6b8ed0bdf0771fU, 0x3c1d09e0be133942U,
  0xbcb0ab1cbcc44c58U, 0xbe06f47c3cc44c58U, 0xbe331f44be9a95b8U, 0x3e0bdccc3d3a7bbaU,
  0x3cc44c583c9d09e0U, 0x3da6da7ebdd7ed94U, 0xbe020c2ebdeb8ed0U, 0xbe1a95b8be8bdcccU,
  0xbc9d09e0bd1d09e0U, 0xbd8e50f33df0771fU, 0xbd26da7e3db0ab1cU, 0xbd30ab1cbcb0ab1cU,
  0x3dc934a7bdce1cf6U, 0xbe9bcfccbd3a7bbaU, 0x3dc44c583e0e50f3U, 0xbcd7ed94be26da7eU,
  0xbe246656bd3a7bbaU, 0xbdb5936b3dc934a7U, 0x3df0771fbdb5936bU, 0xbe1d09e0bd26da7eU,
  0xbd8e50f33e35936bU, 0x3c8968a4be133942U, 0x3dba7bba00000000U, 0xbdc44c58be3f6409U,
  0x3d755f6e3d26da7eU, 0x3e755f6e3db0ab1cU, 0xbe530545be80d21aU, 0xbe182191be530545U,
  0x3d4e1cf6bd30ab1cU, 0xbe2e36f4bd133942U, 0x3d0968a4be0968a4U, 0x3d6b8ed0bbeb8ed0U,
  0xbd9339423e9bcfccU, 0x3d1339423cb0ab1cU, 0x3cd7ed943da1f22fU, 0xbd8480553c1d09e0U,
  0xbd8968a43df0771fU, 0xbcd7ed94bd6b8ed0U, 0x3deb8ed03d30ab1cU, 0x3e133942bd61be32U,
  0x3e46c080bd133942U, 0x3d9d09e0be1d09e0U, 0xbd8e50f33d133942U, 0xbe2466563beb8ed0U,
  0x3beb8ed03d755f6eU, 0xbd755f6ebd133942U, 0xbcc44c58bc444c58U, 0xbd30ab1c3cc44c58U,
  0x3c9d09e0bd30ab1cU, 0x3da1f22f3ddcd5e3U, 0xbdba7bba00000000U, 0x3c8968a4be982191U,
  0xbc4c28f03ce5ae0eU, 0x3cff332c3c7f332cU, 0xbdec0f56bdb9051aU, 0xbd32a3d2bb4c28f0U,
  0x3ccc28f0bdf8d1e4U, 0x3d3f66613d25e143U, 0x3cb2a3d2bdac428aU, 0x3e6c0f563bcc28f0U,
  0xbd65ae0ebd25e143U, 0x3e092b81be12bd6cU, 0xbdd28a383ccc28f0U, 0xbd25e143be3f6661U,
  0xbe191eb4bdac428aU, 0xbcff332cbce5ae0eU, 0xbddf4cc6bd92bd6cU, 0x3d65ae0ebd7f332cU,
  0xbe3c35bd3d85fadeU, 0x3d9f7ffcbc991eb4U, 0xbe05fade3dd28a38U, 0xbd25e143bd32a3d2U,
  0xbd72709d3e25e143U, 0xbe191eb43d25e143U, 0x3d32a3d2bd32a3d2U, 0x3dcc28f0bc191eb4U,
  0x3dd8eb7fbd92bd6cU, 0x3dec0f563e02ca3aU, 0xbc191eb4bdac428aU, 0x3cb2a3d2bea1184dU,
  0x3d65ae0e3e5f4cc6U, 0x3c7f332c3d3f6661U, 0xbe35d476bd92bd6cU, 0xbd72709dbd9f7ffcU,
  0x3db2a3d2be05fadeU, 0x3eca909e3db9051aU, 0xbd7f332c3dbf6661U, 0xbe25e143bccc28f0U,
  0xbd8c5c25bd191eb4U, 0xbd991eb4U, 0xbe429705bddf4cc6U, 0xbdb9051a3c4c28f0U,
  0xbbcc28f03c191eb4U, 0xbdec0f56bbcc28f0U, 0xbe2911e73e1f7ffcU, 0xbce5ae0e3dac428aU,
  0xbd991eb4bdcc28f0U, 0xbd991eb4bdf2709dU, 0x3e02ca3abd191eb4U, 0x3c7f332c3d65ae0eU,
  0x3c991eb4bc7f332cU, 0x3c991eb4be0f8cc9U, 0x3dbf6661bce5ae0eU, 0xbdf2709d3bcc28f0U,
  0x3dd8eb7fbd9f7ffcU, 0xbde5ae0e3d191eb4U, 0xbdf8d1e43de5ae0eU, 0xbda5e1433e22b09fU,
  0xbce5ae0ebccc28f0U, 0xbe528a383dc5c7a8U, 0xbd4c28f0bbcc28f0U, 0xbd991eb4bdec0f56U,
  0xbd8c5c253e2c428aU, 0x3e429705bd92bd6cU, 0x3cff332cbe02ca3aU, 0x3dd28a383db2a3d2U,
  0xbe3e628d3d7dd8bcU, 0xbb966d79bdbc08d7U, 0xbe0146143be1a436U, 0xbd32a200bdb7556bU,
  0x3cf471e53e1b20e5U, 0xbdfdd8bcbdca231bU, 0xbdefbe793d293b28U, 0xbd7dd8bc3e0aacecU,
  0x3b166d79bde657a1U, 0x3b166d793c966d79U, 0x3b166d793d1fd451U, 0xbd039fcabe4315f9U,
  0xbe5cf0cabe3e628dU, 0x3de1a4363deb0b0dU, 0xbc839fca3d966d79U, 0xbc966d79bd039fcaU,
  0xbe55e3a8bd293b28U, 0xbcced686bd91ba0dU, 0x3deb0b0dbdc56fafU, 0xbdeb0b0d3e1fd451U,
  0x3ce1a436bd839fcaU, 0x3ddcf0cabcced686U, 0xbd9fd451bdd389f2U, 0xbdbc08d73dced686U,
  0x3d9fd451bcbc08d7U, 0xbcced686be95409eU, 0xbd9b20e53d039fcaU, 0xbe1413c33e039fcaU,
  0xbe6657a1bd7dd8bcU, 0xbe37556bbdeb0b0dU, 0xbe0d06a13d61a436U, 0xbdc0bc433cbc08d7U,
  0x3dc56fafbe0d06a1U, 0x3c61a4363db7556bU, 0x3ca93b28bd32a200U, 0x3d91ba0dbd91ba0dU,
  0x3d91ba0dbd039fcaU, 0xbdf471e5bd6b0b0dU, 0xbd6b0b0d3d4ed686U, 0xbe0aacecbdf92550U,
  0xbc3c08d73db7556bU, 0xbc166d793d039fcaU, 0x3d1fd451bdb7556bU, 0xbd1fd451bd8d06a1U,
  0xbb166d793d0d06a1U, 0x3da93b28bdd389f2U, 0xbd61a436be4315f9U, 0xbc61a436be5cf0caU,
  0x3d583d5e3d4ed686U, 0xbe039fcabde1a436U, 0xbd0d06a1bd583d5eU, 0xbce1a436bdefbe79U,
  0x3b166d79bb966d79U, 0x3de1a4363d583d5eU, 0xbc839fcabc166d79U, 0xbbe1a436bb966d79U,
  0x3d885336bdc0bc43U, 0x3e222e063ca93b28U, 0x3d91ba0dbe039fcaU, 0xbddcf0ca3e1fd451U,
  0xbdfdd8bc3d91ba0dU, 0x3d4ed6863d966d79U, 0xbe4a231b3deb0b0dU, 0x3e1b20e5bc966d79U,
  0xbe4b5fcdbdafe427U, 0x3e3ae269bd0ee960U, 0x3d7cd7f83bafe427U, 0xbdc5e0ac3d896a3eU,
  0xbb2fe4273e2fe427U, 0xbc03eb1dbd896a3eU, 0xbcf1d9b63cdbdd31U, 0x3dbae269be43211bU,
  0x3d896a3ebdbae269U, 0xbdd0deee3ddbdd31U, 0x3db56348bdc5e0acU, 0xbc83eb1dbe9887daU,
  0xbd9f66c33e0c29cfU, 0xbe40618bbe24e5e5U, 0xbdfcd7f8be24e5e5U, 0xbe6c5a94bd5bdd31U,
  0xbdaa65063cafe427U, 0x3dfcd7f8be356348U, 0xbe7758d7bb2fe427U, 0x3dc0618bbbafe427U,
  0xbd9468813cf1d9b6U, 0x3cc5e0ac3bafe427U, 0xbe012b8dbd8ee960U, 0xbdbae269be591da0U,
  0xbd2fe427bdf758d7U, 0xbde6db73bcdbdd31U, 0xbeae845fbcf1d9b6U, 0xbd2fe4273dbae269U,
  0xbcc5e0acbd0ee960U, 0x3d0ee9603d8ee960U, 0xbd9f66c33e1f66c3U, 0xbd896a3ebe5bdd31U,
  0xbe699b043d19e7a2U, 0xbdd0deee3df758d7U, 0x3e7a18673cafe427U, 0xbc5bdd313e19e7a2U,
  0x3c03eb1dbdec5a94U, 0xbd946881bd24e5e5U, 0x3e06aaae3d03eb1dU, 0xbd19e7a23e40618bU,
  0x3d99e7a23e24e5e5U, 0x3e19e7a23d66db73U, 0x3e03eb1dbde6db73U, 0xbe012b8dbdd0deeeU,
  0x3e19e7a23e48a03cU, 0xbcc5e0acbdaa6506U, 0xbe591da0U, 0xbe11a8f03e565e10U,
  0x3d99e7a2be8aca07U, 0x3d99e7a2be24e5e5U, 0xbc03eb1d3de15c52U, 0xbd45e0acbe19e7a2U,
  0xbd24e5e53d03eb1dU, 0xbc5bdd313e50deeeU, 0xbc83eb1d3d50deeeU, 0xbcf1d9b6bc99e7a2U,
  0x3c83eb1dbdafe427U, 0xbe11a8f03da4e5e5U, 0xbdcb5fcd3e012b8dU, 0xbe4e1f5e3daa6506U,
  0x3dafe427bd896a3eU, 0x3dafe427bd03eb1dU, 0x3daa65063e1ca733U, 0xbd2fe427bd03eb1dU,
  0xbdd78e6a3dbed202U, 0xbce2284e3dd405c9U, 0xbd1b7bb6bd5b170cU, 0xbd0d59313cd405c9U,
  0x3d82bf4dbd9b7bb6U, 0x3d5405c93d0647eeU, 0xbd82bf4d3ddb170cU, 0xbcf04ad33de5b0efU,
  0xbe17f314bd82bf4dU, 0x3d82bf4dbdde9fadU, 0x3c9b7bb6bd89d090U, 0xbe19b765bd90e1d2U,
  0xbc9b7bb6U, 0xbdc96be5be27d9eaU, 0x3ddb170c3ce2284eU, 0x3e34381ebd97f314U,
  0xbdde9fadbd82bf4dU, 0xbdbb4961bd8647eeU, 0xbd946a733dc96be5U, 0x3decc232U,
  0xbe0647ee3d946a73U, 0xbd228cf83d146a73U, 0xbd90e1d23ce2284eU, 0x3e162ec43d5b170cU,
  0xbd97f314be0647eeU, 0xbc62284e3d0647eeU, 0xbd8647eebd775c15U, 0xbd7e6d583d0d5931U,
  0xbcf04ad300000000U, 0xbe1b7bb6be45e344U, 0xbdecc2323dd405c9U, 0x3d62284ebba99e3aU,
  0xbdc5e3443d7e6d58U, 0xbdf75c15bca99e3aU, 0xbd45e3443df3d374U, 0xbc299e3abdccf487U,
  0x3b62284e3be2284eU, 0xbd5405c9bca99e3aU, 0x3da99e3a3cc5e344U, 0x3dc96be53e146a73U,
  0xbd146a73bdb4381eU, 0x3e0647eebc0d5931U, 0xbde2284e3c7e6d58U, 0xbd89d0903d299e3aU,
  0x3dbed2023c45e344U, 0xbe20c8a73c299e3aU, 0x3cfe6d58bdb0af7dU, 0x3e6063fd3e1f0457U,
  0x3dad26dc3d7e6d58U, 0xbdccf4873d89d090U, 0xbdbb4961bd7e6d58U, 0xbde2284ebc45e344U,
  0xbdf3d374bdb7c0bfU, 0x3ba99e3abdccf487U, 0x3d89d090be37c0bfU, 0xbdde9fadbd9b7bb6U,
  0xbd8d59313d9b7bb6U, 0xbde2284e3df04ad3U, 0x3c45e344be1d4006U, 0xbe00fafc3e04839eU,
  0xbdd405c9be1f0457U, 0xbe00fafcbe37c0bfU, 0xbd1b7bb63d4cf487U, 0xbdb0af7dbe02bf4dU,
  0xbe61984dbe1ea901U, 0x3dd53319bda89391U, 0x3d2893913da89391U, 0xbc4653413d94be71U,
  0x3e00e9513d5a2861U, 0xbdad88d93e5a2861U, 0x3cb27e21bde90839U, 0xbbedfd82bdcb4889U,
  0xbc8ad3e1bdc65341U, 0xbcda28613d99b3b9U, 0x3d6412f1bdd03dd1U, 0xbb9ea901be707826U,
  0x3df2f2cabe08593dU, 0x3cc65341bdad88d9U, 0x3d8ad3e1bdd03dd1U, 0xbd9ea9013d503dd1U,
  0x3e57adbdbd8ad3e1U, 0xbddf1da9bda39e49U, 0xbe52b875bd1ea901U, 0x3d3c68b1bd6dfd82U,
  0xbdc15df93c6dfd82U, 0xbcc65341bdfcdd5aU, 0xbb1ea901bda89391U, 0xbdcb48893cedfd82U,
  0x3df2f2cabe00e951U, 0x3d77e8123bedfd82U, 0x3db773693dda2861U, 0xbdfcdd5abd99b3b9U,
  0x3dc15df9bd00e951U, 0x3d8fc9293e93811fU, 0xbd6412f1be0d4e85U, 0x3c9ea901bd8ad3e1U,
  0xbda39e493d94be71U, 0xbdc653413d3c68b1U, 0x3ddf1da9be9d6bafU, 0xbe52b8753dd03dd1U,
  0xbd94be71bb1ea901U, 0xbd465341bdda2861U, 0xbcc653413d14be71U, 0x3dc653413d503dd1U,
  0xbc465341bdd03dd1U, 0xbd94be713e503dd1U, 0xbbedfd82bdedfd82U, 0xbe2b0e35be1243cdU,
  0xbe30037dbd14be71U, 0xbd6412f13d8ad3e1U, 0x3cda2861bbedfd82U, 0x3e7a62b6bd85de99U,
  0x3cda2861bdb27e21U, 0x3cb27e213d465341U, 0xbd8ad3e1be00e951U, 0xbc1ea901bd9ea901U,
  0x3bedfd82bb1ea901U, 0x3c8ad3e1be0d4e85U, 0xbe0ad3e1bd3c68b1U, 0xbd327e213d14be71U,
  0xbd289391be5ca305U, 0x3cb27e213cda2861U, 0x3e5a28613e5a2861U, 0xbdedfd82bdf7e812U,
  0xbe0d4e85bd8ad3e1U, 0x3c8ad3e1bd327e21U, 0x3cb27e21bc8ad3e1U, 0x3dedfd82bd8fc929U,
  0xbdf802f73ce4ef0cU, 0x3d5b65163be4ef0cU, 0xbcf802f7be92a923U, 0x3d0f15673e353d3eU,
  0xbbe4ef0cbdb53d3eU, 0xbe00c676bddb6516U, 0x3dd6a01bbd7802f7U, 0x3dc8512a3d64ef0cU,
  0xbe4129b23dbec734U, 0xbdd6a01b3d222953U, 0xbce4ef0c3d8a506cU, 0xbe4d16253d80c676U,
  0x3ce4ef0cbc64ef0cU, 0xbe0cb2ea3d93da62U, 0xbde9b406be1177e5U, 0x3dee7901bd2bb349U,
  0x3d64ef0cbd6e7901U, 0xbcf802f7bd6e7901U, 0x3d2bb349bcabb349U, 0x3e163ce0bd0f1567U,
  0x3da229533d7802f7U, 0xbdbec7343cbec734U, 0xbd6e7901bd9d6458U, 0xbd9d6458bb189f5dU,
  0xbdc8512abdbec734U, 0xbe2e15c63e07edefU, 0xbd6e7901be2e15c6U, 0x3dee7901bdee7901U,
  0xbce4ef0c3dc38c2fU, 0xbbe4ef0cbe058b71U, 0xbde4ef0cbd7802f7U, 0xbd189f5d3d858b71U,
  0x3d8a506cbe976e1eU, 0xbe4129b23e0f1567U, 0xbd189f5d3e602a11U, 0x3dee79013cbec734U,
  0x3db53d3e3dd6a01bU, 0xbd6e79013db53d3eU, 0xbdd6a01b3d222953U, 0x3d222953be32dac1U,
  0xbdcd1625be0328f4U, 0x3d2229533c189f5dU, 0xbe189f5dbdcd1625U, 0x3d989f5dbd80c676U,
  0x3c189f5dbd8a506cU, 0x3dabb349bcabb349U, 0xbd8a506c3ce4ef0cU, 0x3dba02393e163ce0U,
  0xbd189f5d3d64ef0cU, 0xbdabb349bcf802f7U, 0x3e6c16843d5b6516U, 0xbcd1db20be13da62U,
  0x3d858b71bcd1db20U, 0x3d51db203e2e15c6U, 0xbe189f5dbbe4ef0cU, 0xbe8328f4bd8f1567U,
  0x3d3ec734be26ee4eU, 0x3dabb349be1b01daU, 0x3ddb65163d7802f7U, 0xbdbec7343d189f5dU,
  0xbd6e79013d6e7901U, 0x3de9b4063e058b71U, 0x3d8f15673dee7901U, 0xbc989f5d3db53d3eU,
  0xbe2c7a65bcd447deU, 0x3d1f35e7bd04acebU, 0x3cf7a92ebdb0e68fU, 0x3e0040c13d280e3bU,
  0xbd9ac9bd3e5447deU, 0x3d8d853f3e14277eU, 0x3c5447debda80e3bU, 0xbe6a64b0bd65f886U,
  0x3e5aea1d3d965d93U, 0xbbd447debdc29737U, 0xbe0276d63cb0e68fU, 0x3d30e68f3b0d853fU,
  0xbe0276d6bc5447deU, 0xbc8d853fbe2c7a65U, 0xbb8d853fbdb9bee3U, 0xbe5d2032bd91f169U,
  0xbe0fbb54bda3a211U, 0x3d39bee3bdbe2b0dU, 0xbe216bfcbe0fbb54U, 0xbd65f886bcc29737U,
  0xbe04acebbd91f169U, 0xbe23a2113ce5f886U, 0xbdb552b93db552b9U, 0x3d39bee33e0b4f2aU,
  0xbd965d93be618c5cU, 0xbcb0e68fbcd447deU, 0x3d9ac9bd3b0d853fU, 0xbce5f886be23a211U,
  0xbb0d853fbe331ca4U, 0x3d5447de3d04acebU, 0x3ddd2032bcf7a92eU, 0x3d965d93bdf33d04U,
  0x3de5f8863e165d93U, 0xbc8d853f3e682e9bU, 0x3bd447de3e1cffd2U, 0x3db0e68fbe58b408U,
  0x3cb0e68fbe4fdbb5U, 0x3da80e3bbdac7a65U, 0x3b8d853f3e06e300U, 0xbe8c6a353d9f35e7U,
  0xbe1f35e73e0040c1U, 0x3d5447debe1893a8U, 0xbc8d853fbe23a211U, 0xbd9f35e7bc9f35e7U,
  0x3d0d853f3d5447deU, 0xbe14277e3c77a92eU, 0xbe04acebbdbe2b0dU, 0xbd04acebbd30e68fU,
  0xbe39bee3bc5447deU, 0xbb8d853f3d77a92eU, 0xbd6ed0daU, 0xbda80e3bbbd447deU,
  0x3dbe2b0dbe23a211U, 0xbd5d2032bdb9bee3U, 0xbce5f8863d6ed0daU, 0xbd4297373e165d93U,
  0xbdb9bee3bcc29737U, 0xbc9f35e73de18c5cU, 0x3db9bee33e04acebU, 0xbe3bf4f8be470361U,
  0x3c9f35e73dac7a65U, 0x3d8040c13e331ca4U, 0x3da3a211bdb9bee3U, 0x3d429737bd39bee3U,
  0x3db06031bd5913eeU, 0xbda2cef2bd2bda72U, 0x3dabda723e22cef2U, 0x3ca2cef2bde6a52dU,
  0xbda754b23c34e5f1U, 0x3b90b7f4bd74366cU, 0x3d90b7f43d34e5f1U, 0x3e178093bdf8bc2bU,
  0x3dc6fcf0be153db4U, 0x3db4e5f1be8f9684U, 0xbdcb82afbd5913eeU, 0x3dcb82af3d46fcf0U,
  0x3e2754b2be1e4933U, 0x3b90b7f4bd74366cU, 0xbdbdf1703bd913eeU, 0x3defb0ac3d3df170U,
  0xbd3df170bc90b7f4U, 0xbcd913ee3c5913eeU, 0x3d621f6dbe403450U, 0xbe0e7514be0e7514U,
  0x3d8326b5bddd99aeU, 0x3de21f6d3d07ac75U, 0xbda2cef200000000U, 0xbcb4e5f13ca2cef2U,
  0xbe3df170bcfd41ebU, 0x3c7d41ebbcfd41ebU, 0x3cd913eebbd913eeU, 0xbe0c3234bd99c373U,
  0xbd3df1703dd913eeU, 0xbd87ac753e3728d1U, 0xbdfd41ebbcc6fcf0U, 0x3deb2aec3d3df170U,
  0xbdefb0acbd9e4933U, 0xbdcb82afbca2cef2U, 0xbd87ac75bd07ac75U, 0xbdd913ee3d99c373U,
  0x3cc6fcf0bd8c3234U, 0xbdcb82afbc90b7f4U, 0xbd3df1703ca2cef2U, 0x3db96bb13c90b7f4U,
  0xbd19c3733e2e1d52U, 0xbcd913eebdb96bb1U, 0x3e4dc58fbd50086fU, 0x3ca2cef2be548e2eU,
  0xbda2cef23d10b7f4U, 0x3e2511d23b90b7f4U, 0x3dc6fcf03d22cef2U, 0x3dd0086fbe153db4U,
  0xbdb96bb13d6b2aecU, 0x3db060313da2cef2U, 0xbe22cef2bd8c3234U, 0x3c34e5f1bdfd41ebU,
  0xbceb2aecbcc6fcf0U, 0xbd3df170bdefb0acU, 0xbe00e3d53d2bda72U, 0x3c7d41eb3da2cef2U,
  0x3d50086fbb10b7f4U, 0x3e2e1d52bdbdf170U, 0xbceb2aecbd99c373U, 0x3de21f6dbd8326b5U,
  0xbde21f6d3ca2cef2U, 0xbe3728d13d6b2aecU, 0xbd90b7f4be07ac75U, 0xbe09ef553e10b7f4U,
  0x3d6e60a6be408923U, 0xbdfc214dbbdc0a72U, 0xbd92b1a1be1e2782U, 0xbd84f0fabb92b1a1U,
  0xbe1e2782bcdc0a72U, 0x3c805b6dbc92b1a1U, 0x3d52df57bc805b6dU, 0xbc805b6d3c5c0a72U,
  0xbe32c87c3d84f0faU, 0xbdc089233df2f633U, 0x3cee60a6be02a633U, 0xbda507d5bdc9b43dU,
  0x3de5358c3e098687U, 0xbdc9b43dbb92b1a1U, 0xbd2e32ef3d805b6dU, 0xbe299d623d098687U,
  0xbe299d623d49b43dU, 0x3e3e3e5dbe5774e4U, 0x3dc08923bbdc0a72U, 0x3da072483d49b43dU,
  0x3c805b6dU, 0xbd778bc03e2507d5U, 0xbcee60a6bde09fffU, 0xbc375e09be22bd0fU,
  0xbd805b6dbdfc214dU, 0xbe1991f53d5c0a72U, 0xbd49b43dbd49b43dU, 0xbcdc0a723c5c0a72U,
  0x3cee60a6bdb2c87cU, 0x3d005b6d3d408923U, 0xbcdc0a723b92b1a1U, 0xbdc08923bd1bdcbbU,
  0x3c5c0a723df2f633U, 0x3d375e09bb12b1a1U, 0xbc805b6d3df2f633U, 0x3e005b6d3cee60a6U,
  0x3d52df57be2e32efU, 0xbd005b6d3d8e1c14U, 0xbe098687bcdc0a72U, 0xbd2507d5bb12b1a1U,
  0x3c375e09bb92b1a1U, 0xbd92b1a13c5c0a72U, 0x3cee60a63c12b1a1U, 0xbc12b1a1be22bd0fU,
  0x3d12b1a1bd6e60a6U, 0xbb12b1a13d005b6dU, 0x3c805b6dbd5c0a72U, 0x3e83cb97bde5358cU,
  0xbca507d53b92b1a1U, 0xbb12b1a13e552a1eU, 0x3d0986873c375e09U, 0x3e3513433dfc214dU,
  0x3db2c87c3d6e60a6U, 0x3c92b1a100000000U, 0xbde5358c3d898687U, 0xbe04f0fa3cc9b43dU,
  0xbddc0a723dc51eb0U, 0xbc375e09bbdc0a72U, 0xbda507d53e005b6dU, 0x3d898687be27529cU,
  0x3df78bc0be918c3eU, 0x3e0e1c143dbbf396U, 0x3bdc0a72bde09fffU, 0xbdb75e093df78bc0U,
  0x3d59a6283dd0f16eU, 0x3dc83cb5be140059U, 0xbd1400593cbf87fbU, 0x3d7c7910bdae1e87U,
  0xbc8b4b9fbdd0f16eU, 0x3cd0f16ebc9cb513U, 0x3e0d78cdbb8b4b9fU, 0x3d0296e5be185ab6U,
  0xbd86f142bb0b4b9fU, 0x3dbf87fbbc73c456U, 0xbd86f142be0296e5U, 0x3c73c4563e0296e5U,
  0xbe210f70bdde0085U, 0xbda569cdbcf3c456U, 0xbcd0f16ebe483cb5U, 0xbd1cb513bd9cb513U,
  0xbd0296e5U, 0xbd36d3413d940059U, 0x3c50f16e3dbb2d9eU, 0x3c9cb513bd6b0f9cU,
  0x3d483cb53dd9a628U, 0xbce25ae2bd36d341U, 0x3d50f16ebc8b4b9fU, 0xbe3d5acc3e0069b7U,
  0x3d2569cdbdf3c456U, 0x3ce25ae2be5778faU, 0x3ce25ae2bdd54bcbU, 0xbd59a6283e0b4b9fU,
  0xbcbf87fbbdfc7910U, 0xbd7c79103d0296e5U, 0xbc73c456bd86f142U, 0x3de25ae2bdc83cb5U,
  0x3d8b4b9fbbd0f16eU, 0x3e06f142bd36d341U, 0xbe34a612bda9c42aU, 0x3c50f16ebd8b4b9fU,
  0xbe6b0f9cbcbf87fbU, 0x3c73c456bde6b53fU, 0x3d0b4b9f3d625ae2U, 0xbb0b4b9f3c73c456U,
  0xbe06f142be06f142U, 0xbdb278e4bda569cdU, 0x3d2e1e873c2e1e87U, 0xbd6b0f9cbe2e1e87U,
  0xbb8b4b9fbd50f16eU, 0x3bd0f16ebdde0085U, 0x3db278e4bdef69f9U, 0xbd7c7910bd0b4b9fU,
  0xbb0b4b9f3cf3c456U, 0x3d6b0f9cbb0b4b9fU, 0x3c50f16ebe8a3508U, 0xbe1ee2413da10f70U,
  0x3d985ab6bb0b4b9fU, 0xbe0d78cd3d73c456U, 0xbe4c971200000000U, 0xbe7c7910bdde0085U,
  0x3deb0f9cbe233c9eU, 0xbcae1e873e0069b7U, 0xbd3f87fbbe554bcbU, 0x3e140059bdc3e258U,
  0x3dde0085be7c7910U, 0x3d8fa5fcbde6b53fU, 0xbe5778fa3cbf87fbU, 0x3e483cb5be3b2d9eU,
  0x3db7eb41be1884a6U, 0x3d6943593d0f8be8U, 0xbe50974dU, 0x3cb36ee23dc9dcbeU,
  0x3c7b34d6bd217d65U, 0xbd336ee23e1884a6U, 0x3cb36ee2bbd751dcU, 0x3e0f8be83c8f8be8U,
  0x3c336ee2bb8f8be8U, 0x3d723c183d86932aU, 0x3dc9dcbebb0f8be8U, 0xbdc5605f3d45605fU,
  0x3e2cb453bda5f9c4U, 0xbcc5605fbde94359U, 0xbc336ee23d8f8be8U, 0x3cb36ee23df6b877U,
  0xbe0d4db83d06932aU, 0x3b0f8be83d723c18U, 0x3d9884a63dd2d57dU, 0xbd1884a6bbd751dcU,
  0x3d45605fbe35ad12U, 0xbb8f8be8bd0f8be8U, 0x3d5751dcbe1f3f35U, 0xbb0f8be8bde4c6faU,
  0xbdfb34d63cfb34d6U, 0x3c8f8be8be0216caU, 0xbdaa7624bdedbfb8U, 0xbe5751dc3dc9dcbeU,
  0xbdedbfb83df23c18U, 0xbd45605f3da5f9c4U, 0xbd1884a6bdc5605fU, 0x3dfb34d6bdd751dcU,
  0xbcfb34d6bdc9dcbeU, 0xbd06932abdf6b877U, 0xbddbce3bbdffb135U, 0x3e0216ca3d694359U,
  0x3c5751dcbd8216caU, 0xbdaa76243d940847U, 0xbe0216ca3ddbce3bU, 0xbde4c6fa3b0f8be8U,
  0xbdce591ebd4e591eU, 0xbe8e6cd03ca17d65U, 0xbe1f3f35bd5751dcU, 0xbd604a9a3c7b34d6U,
  0xbdedbfb8bd3c67a0U, 0xbd723c18be52d57dU, 0xbdaa76243d694359U, 0x3c336ee2bdaa7624U,
  0x3cb36ee2bcb36ee2U, 0x3e1f3f353cfb34d6U, 0x3b0f8be8bca17d65U, 0xbd5751dcbd9884a6U,
  0x3e0f8be83e217d65U, 0x3c8f8be8bb8f8be8U, 0xbd8b0f893dc9dcbeU, 0xbe5bce3bbb8f8be8U,
  0xbe6288cabd336ee2U, 0x3c5751dc3d336ee2U, 0x3c8f8be83df23c18U, 0xbe0454fa3e1884a6U,
  0xbd7b34d6bd9d0106U, 0x3cfb34d63d06932aU, 0xbe0f8be8bd336ee2U, 0x3e4c1aeebdbc67a0U,
  0xbd2d132ebd18b692U, 0x3d416fca3c22e4e0U, 0xbccb9e183ca2e4e0U, 0xbdc16fca3d9dcdb9U,
  0x3ccb9e18bdad132eU, 0x3dbc58a33d37417cU, 0xbd6a29023dcb9e18U, 0xbe4912843ca2e4e0U,
  0xbc22e4e03d22e4e0U, 0xbd8e8844bd7e859eU, 0xbd7e859ebdef4029U, 0xbd9dcdb93d22e4e0U,
  0xbe50b53f3d37417cU, 0xbba2e4e03ca2e4e0U, 0xbbf45750bd0459f6U, 0x3d37417c3d5ffab4U,
  0x3cf45750bdf96e77U, 0x3dd5cc66bd6a2902U, 0xbdd0b53fbc8e8844U, 0xbe0bfcb0bd55cc66U,
  0xbca2e4e03d37417cU, 0x3df457503d416fcaU, 0xbea19f163d5ffab4U, 0xbdb7417cbd98b692U,
  0xbb22e4e03d8459f6U, 0xbc22e4e03e27fc07U, 0x3d98b6923ca2e4e0U, 0x3dad132e3cf45750U,
  0x3d8459f63e939f6bU, 0x3def40293d8e8844U, 0xbd939f6bbd5ffab4U, 0xbd8459f6be81ce62U,
  0xbddae38d3d7e859eU, 0xbd8e88443d416fcaU, 0xbe4b9e183e6f4029U, 0xbd37417cbe34b5e8U,
  0xbd8459f63cb7417cU, 0xbd98b692bdc16fcaU, 0x3c22e4e03d0e8844U, 0x3db7417c3e0459f6U,
  0xbb22e4e03dd0b53fU, 0xbe0459f6bcb7417cU, 0xbd98b6923dad132eU, 0xbd0459f63e01ce62U,
  0xbe06e58abdcb9e18U, 0xbccb9e18be06e58aU, 0x3e09711dbdcb9e18U, 0x3d745750bdcb9e18U,
  0xbdf457503ddffab4U, 0xbb22e4e03d22e4e0U, 0xbdea29023ccb9e18U, 0x3cf457503cf45750U,
  0xbb22e4e03ba2e4e0U, 0x3c745750bc745750U, 0x3d8e8844bca2e4e0U, 0xbdf96e773e22e4e0U,
  0x3e0bfcb0be55cc66U, 0xbd55cc663d939f6bU, 0x3c22e4e0bc22e4e0U, 0x3d8459f6be4686f1U,
  0xbe8e8844U, 0xbccb9e183c745750U, 0xbbf457503d0e8844U, 0x3d7457503d89711dU,
  0xbd39c2df3cdee9d8U, 0x3da37849bd820869U, 0xbcc13111bd75346eU, 0x3e0208693e272f62U,
  0x3da72f62bd1c0a17U, 0xbd949be63e149be6U, 0xbe1677723d6dc63cU, 0x3d820869bd6dc63cU,
  0xbd66580abcc13111U, 0xbd9852febc949be6U, 0xbdd77ba6be577ba6U, 0x3d949be63d89769bU,
  0x3d6dc63cbdfca2a0U, 0xbcd00d743ca37849U, 0xbd6dc63c3ca37849U, 0xbd05bf823e149be6U,
  0xbdd77ba6bd9c0a17U, 0xbdcc565cbc949be6U, 0x3c949be6bc149be6U, 0xbcdee9d83c500d74U,
  0x3db254adbdedc63cU, 0x3e0b52273d89769bU, 0x3db254ad3b6dc63cU, 0x3dc89f43bd9fc130U,
  0xbd489f43bcb254adU, 0xbcd00d74bdd3c48dU, 0x3d2378493d820869U, 0xbdae9d943dd00d74U,
  0xbe002cdcbde2a0f1U, 0x3dbd79f83cb254adU, 0x3db9c2df3e03e3f5U, 0xbd2ae67b3d66580aU,
  0x3b6dc63cbc500d74U, 0x3d149be6bddb32bfU, 0xbdae9d94baedc63cU, 0xbb6dc63c3d85bf82U,
  0xbd89769b3dea0f23U, 0xbd0d2db4bd6dc63cU, 0x3d39c2dfbe2ae67bU, 0xbdc4e82abcb254adU,
  0xbd05bf823d7ca2a0U, 0xbdae9d94bbb254adU, 0x3d1c0a173d413111U, 0xbdbd79f83cb254adU,
  0xbe002cdc3d237849U, 0xbcdee9d8bdae9d94U, 0xbe05bf82be6beab0U, 0xbda72f623d2ae67bU,
  0xbd05bf82bdd77ba6U, 0xbdd00d743d1c0a17U, 0xbdd3c48d3cedc63cU, 0xbe55a01abcdee9d8U,
  0x3df17d55bd489f43U, 0xbdc4e82a3d0d2db4U, 0xbc149be6bddb32bfU, 0xbd85bf82bc3254adU,
  0x3d6dc63c3dedc63cU, 0xbdae9d943dea0f23U, 0x3d489f433e05bf82U, 0x3cfca2a0be55a01aU,
  0xbdb60bc6bdaae67bU, 0xbd149be6bd39c2dfU, 0x3dfca2a0bd149be6U, 0x3d66580a3d237849U,
  0xbbdfbafc3bdfbafcU, 0xbc5fbafc00000000U, 0xbe1e79c83c828269U, 0xbd5fbafcbca7cc3dU,
  0xbd1527533d4d1612U, 0xbd4d1612bd7bb25cU, 0xbe12d2b6bccd1612U, 0xbe4f6aafbdac7578U,
  0x3dd1bf4dbe028269U, 0x3bdfbafcbde46437U, 0x3ca7cc3d3dfbb25cU, 0xbe93fd043e690d72U,
  0x3dac7578be2a20dbU, 0x3dc86cd8bd8bd4deU, 0xbd725fe73d27cc3dU, 0xbdfbb25cbd9e79c8U,
  0xbdd668873d99d08eU, 0xbe3cc5c53c828269U, 0xbe072ba3bddfbafcU, 0xbdac7578bd152753U,
  0xbd27cc3d3d9e79c8U, 0x3d907e18bdb5c7edU, 0xbc9527533cba7128U, 0xbc8282693c5fbafcU,
  0x3e486cd8bdd1bf4dU, 0xbca7cc3dbe028269U, 0xbcf25fe73dedb6acU, 0xbdba71283dbf1a62U,
  0xbbdfbafc3dd1bf4dU, 0xbdd668873d1e79c8U, 0x3e04d706bca7cc3dU, 0x3e1c252bbd4d1612U,
  0xbcba7128bd3a7128U, 0x3d907e18be7e06f9U, 0xbe1c252bbe2c7578U, 0xbe107e18bcdfbafcU,
  0xbd311eb33e2a20dbU, 0x3c8282693d028269U, 0x3d566887bc5fbafcU, 0x3d43c39dbdba7128U,
  0xbb952753bd9e79c8U, 0xbe0e297bbd1e79c8U, 0xbe2eca153c828269U, 0xbbdfbafc3b152753U,
  0xbbdfbafc3d27cc3dU, 0x3ca7cc3dbd566887U, 0x3e2a20dbbe27cc3dU, 0xbe58bd253d0bd4deU,
  0x3ddb11c2bc952753U, 0x3dbf1a62bcba7128U, 0xbe177bf03dc3c39dU, 0x3d4d1612bdd66887U,
  0xbd1e79c8bd028269U, 0xbd1e79c8bcdfbafcU, 0xbdb11eb33d311eb3U, 0x3de90d723d27cc3dU,
  0xbe860155be12d2b6U, 0x3d43c39d3d3a7128U, 0xbe04d706bd43c39dU, 0x3b952753bde90d72U,
  0x3d43c39dbd872ba3U, 0x3c952753bc828269U, 0x3e0282693d99d08eU, 0x3d3a71283ddfbafcU,
  0x3d3f86743c861151U, 0xbd0611513de10ac9U, 0x3d65d48cbda2cbe3U, 0x3e0adb143d2c5f69U,
  0x3d35f2ee00000000U, 0x3c861151be3abcb1U, 0xbce5d48cbd5c4106U, 0xbdbabcb13cd2ad80U,
  0xbe2795a6be3abcb1U, 0x3da795a6bd8fa4d7U, 0xbcf8fb97bd3f8674U, 0xbe2530c43cf8fb97U,
  0x3cbf8674bdb1292cU, 0x3da2cbe3bce5d48cU, 0xbc65d48c3cac5f69U, 0x3d0fa4d7bd8fa4d7U,
  0x3ce5d48c3be5d48cU, 0x3b99385d3be5d48cU, 0x3e01478ebe41eb56U, 0xbc99385dbe01478eU,
  0xbc861151bdd77743U, 0x3be5d48cbc65d48cU, 0xbc19385d3da795a6U, 0xbe4b7edc3de5d48cU,
  0xbdb1292cbd78fb97U, 0xbdea9e4ebd861151U, 0xbc99385dbe46b519U, 0x3d3f8674bde5d48cU,
  0xbdac5f69bd65d48cU, 0xbe8e7266bde5d48cU, 0xbd861151bd19385dU, 0x3c65d48c3e03ac70U,
  0xbe4450373e2530c4U, 0xbd19385d3d8fa4d7U, 0xbd99385dbcbf8674U, 0x3e3857d03de10ac9U,
  0x3d2c5f693e9805ecU, 0xbd65d48c3de10ac9U, 0x3d861151bd78fb97U, 0xbc861151bd5c4106U,
  0x3d8adb143d8adb14U, 0x3d8611513cbf8674U, 0x3d22cbe3bde5d48cU, 0x3e0fa4d73d3f8674U,
  0xbd19385dbddc4106U, 0xbe29fa873de10ac9U, 0x3d35f2ee3db5f2eeU, 0xbd35f2ee3d4919faU,
