/**
  ******************************************************************************
  * @file    small_words_model_data.c
  * @author  AST Embedded Analytics Research Platform
  * @date    Sat Dec 11 19:25:39 2021
  * @brief   AI Tool Automatic Code Generator for Embedded NN computing
  ******************************************************************************
  * @attention
  *
  * Copyright (c) 2021 STMicroelectronics.
  * All rights reserved.
  *
  * This software component is licensed by ST under Ultimate Liberty license
  * SLA0044, the "License"; You may not use this file except in compliance with
  * the License. You may obtain a copy of the License at:
  *                             www.st.com/SLA0044
  *
  ******************************************************************************
  */
#include "small_words_model_data.h"
#include "ai_platform_interface.h"


AI_ALIGNED(32)
const ai_u64 s_small_words_model_weights_array_u64[ 24043 ] = {
  0xbdcd79643dadb8f3U, 0xbef3e32fbdb20440U, 0x3e2f74f43d7dae79U, 0xbe848ea9be125ba4U,
  0x3cef990e3e4a36f4U, 0x3e4e60fdbe66e055U, 0xbdc675d4be42653bU, 0x3d8302fa3e38d869U,
  0x3e9705c0be80263aU, 0xbd9f2ce03e367e18U, 0xbdebdebfbe2c1960U, 0xbd02f8463c726166U,
  0x3d0c2f1f3e83d7c0U, 0xbd8141a0be98d709U, 0x3e547623be4483f4U, 0xbe5805463e4700f1U,
  0x3e9edd2c3e97b396U, 0x3e27213e3e9d136aU, 0x3e88d9cd3e28ff32U, 0x3d849beb3c459a15U,
  0x3e51d1cbbdc8f825U, 0x3e9c25273dbc6852U, 0xbe825b333e28d831U, 0x3eb1c850bd930f96U,
  0xbaee0454be99d094U, 0x3c6133143e9a71e7U, 0x3ea21fde3e3380aaU, 0xbe9fff8dbe31ecc2U,
  0x3db0d974bd8ff700U, 0x3e74cc0c3e24ebcaU, 0xbe65cbb03db16116U, 0x3d9cc07abe033921U,
  0x3d9a0fb43f9a4ca5U, 0xbf42de783e1c8382U, 0xbf332741bf30eb7aU, 0x3f4cfa41bf293b38U,
  0x3f1bd2243e85f40cU, 0xbf08b0993f09b35dU, 0x3f5266643f1c03feU, 0x3fb27745bf10e417U,
  0x3e3510ccbdd504b3U, 0x3dff9f3ebe4fb162U, 0x3d2a6a29be7f9f3eU, 0x3d3fb76e3dff9f3eU,
  0xbd3fb76ebe5a5805U, 0x3f291555bdaa6a29U, 0xbc7f9f3e3d2a6a29U, 0xbd151ce4beafbd7aU,
  0xbd9fc386bdea51f8U, 0x3daa6a293d7f9f3eU, 0xbc2a6a29bd8a7641U, 0x3e0fc993bdbfb76eU,
  0x3e2a6a29bdf4f89bU, 0x3d151ce43e1a7035U, 0x3d8a7641bd8a7641U, 0x3d5504b3bbaa6a29U,
  0xbdaa6a293d6a51f8U, 0x3dea51f83db510ccU, 0xbe0a76413e0fc993U, 0xbe74f89bbd3fb76eU,
  0x3caa6a293ddfab56U, 0x3e4fb1623e2a6a29U, 0x3e8d1fea3e8a7641U, 0x3caa6a293ea7c080U,
  0x3d951ce4be0fc993U, 0x3c2a6a29bcd504b3U, 0x3dff9f3e3dca5e11U, 0x3db510ccbc7f9f3eU,
  0x3caa6a293d8a7641U, 0x3d6a51f83d6a51f8U, 0xbe0522f03e0522f0U, 0x3d6a51f83cff9f3eU,
  0xbdbe4f40be2a46e9U, 0x3e8c3a653d5c5bc4U, 0x3e0c3a65be02363aU, 0x3d8c3a65bcc8536cU,
  0xbe913c7bbe2042bdU, 0xbee65ff0bd963e91U, 0x3da042bd3e2544d3U, 0xbe4d55823e2a46e9U,
  0xbd48536cbe2a46e9U, 0x3d70641c3e2a46e9U, 0xbe2544d3bc70641cU, 0x3d2042bd3d5c5bc4U,
  0xbd344b15bc2042bdU, 0xbd70641cbdaa46e9U, 0x3d0c3a653db44b15U, 0xbe2544d3bd963e91U,
  0xbd2042bd3e913c7bU, 0x3cf0641cbcc8536cU, 0xbdb44b153cc8536cU, 0x3d48536c3db44b15U,
  0xbd344b153e7a6847U, 0xbd82363a3c2042bdU, 0x3f1f0238bdb44b15U, 0x3ddc5bc43e70641cU,
  0xbda042bd3d2042bdU, 0xbd5c5bc4bd8c3a65U, 0x3df0641cbde65ff0U, 0xbd5c5bc43ba042bdU,
  0xbdbe4f40bdbe4f40U, 0xbd2042bd3ddc5bc4U, 0x3d2042bdbca042bdU, 0x3d0c3a65be02363aU,
  0x3e4ae6b8be7da067U, 0x3ddbcf483e07447bU, 0xbcecb7d73e6cb7d7U, 0x3eeed4e9be0b7e9fU,
  0xbe579524bf0635f2U, 0xbec27271bdf52c1fU, 0x3b87447b3e70f1fbU, 0xbdecb7d7be182d0aU,
  0xbdb9fe29bda9159aU, 0x3dfda0673c4ae6b8U, 0x3e1c672e3c4ae6b8U, 0x3d982d0a3db9fe29U,
  0x3d4ae6b83da9159aU, 0x3e0fb8c3bccae6b8U, 0x3ccae6b83c87447bU, 0xbda0a15200000000U,
  0xbe427271beaf6cd0U, 0xbdd35b00bda0a152U, 0xbc4ae6b8be2d4fbeU, 0x3dcae6b83e13f2e7U,
  0x3e87447bbead4fbeU, 0xbeea9ac5bd182d0aU, 0x3d982d0a3e87447bU, 0xbca9159a3c07447bU,
  0xbe29159a3e35c405U, 0x3d5bcf483c07447bU, 0xbc87447bbd982d0aU, 0x3e07447bbda0a152U,
  0x3d07447b3e24db76U, 0x3d6cb7d73db9fe29U, 0xbde443903d29159aU, 0x3d6cb7d7bd982d0aU,
  0x3d859c48bf082e0fU, 0x3d2471943cf6aa5eU, 0xbc2471943da47194U, 0xbed5434cbdb8ffc6U,
  0x3da471943daeb8adU, 0x3f2328b13e0abfd5U, 0xbeb14a74be8abfd5U, 0xbd76aa5e3d0fe362U,
  0xbd9a2a7b3df6aa5eU, 0x3e059c48U, 0x3e33dc3a3db8ffc6U, 0xbe0078bcbd38ffc6U,
  0x3dec63453cf6aa5eU, 0xbcf6aa5ebccd8df9U, 0x3d621c2c3e1f4e07U, 0x3d76aa5ebdcd8df9U,
  0x3e247194becafc33U, 0x0U, 0x3d621c2cbdec6345U, 0x3e830a823e2eb8adU,
  0xbe059c48be486a6cU, 0xbeeef50bbd247194U, 0xbef93c243e059c48U, 0xbe33dc3abe3e2353U,
  0xbe0abfd5bccd8df9U, 0xbe1a2a7b3e33dc3aU, 0xbdc346e0be299521U, 0x3d0fe362bcf6aa5eU,
  0xbcf6aa5ebdc346e0U, 0xbd621c2c3ca47194U, 0xbd8fe3623d38ffc6U, 0xbd0fe362bd621c2cU,
  0xbd750142bcc40102U, 0xbd9f40d23d440102U, 0xbe31a0eabe0ce0b9U, 0xbefe314fbe440102U,
  0x3e9300c200000000U, 0x3eca210abd86c0b1U, 0xbeab80e2be9920caU, 0x3e2b80e23bc40102U,
  0x3c4401023e31a0eaU, 0xbddc8122bd440102U, 0xbd1300c23e06c0b1U, 0x3cc40102bdab80e2U,
  0xbe1f40d23e2b80e2U, 0xbd440102be2b80e2U, 0xbe00a0a93ddc8122U, 0xbe00a0a93bc40102U,
  0xbcc40102be750142U, 0xbee5b12e3e9300c2U, 0x3d2b80e23bc40102U, 0xbee5b12e3ebde0faU,
  0x3d750142bd9f40d2U, 0x3d1300c2bd86c0b1U, 0x3eb4b0eebf427900U, 0xbd440102bd440102U,
  0xbdd041123e1920caU, 0x3de8c132bd1300c2U, 0xbd4401023db7c0f2U, 0x3ddc8122bddc8122U,
  0x3d9300c2bbc40102U, 0xbd1300c2bd1300c2U, 0xbe00a0a9bd86c0b1U, 0x3db7c0f2be1300c2U,
  0x3bc10e9c3b410e9cU, 0x3e2bf103bb410e9cU, 0xbc90caf53d28ecc8U, 0x3e07be46be07be46U,
  0xbd715243bc410e9cU, 0x3e19d7a43e410e9cU, 0x3df152433e623d1fU, 0x3c90caf53da2e454U,
  0xbcc10e9cbcc10e9cU, 0xbd1cdbdf3e10caf5U, 0xbc90caf53d04ba0bU, 0xbda2e4543db4fdb2U,
  0x3e34fdb2bdb4fdb2U, 0x3d90caf5bdb4fdb2U, 0xbd410e9c3d34fdb2U, 0x3e07be46bdcd1f86U,
  0xbe3801ed3df15243U, 0xbdfd632d3dd93070U, 0xbe0dc6bbbd34fdb2U, 0x3e01b5d1U,
  0x3bc10e9c3d1cdbdfU, 0x3dfd632d3daef53dU, 0xbd9cdbdf3e5023c0U, 0xbebf8c7f3cd93070U,
  0xbe1fe0193e13cf2fU, 0xbd4d1f86be0dc6bbU, 0x3d715243bdcd1f86U, 0xbe16d36a3c715243U,
  0x3e04ba0bbdeb49ceU, 0xbd7d632d3dbb0627U, 0xbbc10e9c3c715243U, 0xbdcd1f863deb49ceU,
  0xbda55e1d00000000U, 0xbe6be45e3d1ba3dfU, 0xbe512434be8f7b12U, 0xbe9a6c973e035244U,
  0x3e11e9a13e035244U, 0xbd835244bd2f185bU, 0x3e22ef8dbdaa3b3cU, 0x3db3f57abddade72U,
  0xbd255e1d3e2a3b3cU, 0xbdee52edbe00e3b5U, 0xbcfcea4abbe975ceU, 0xbcfcea4a3e00e3b5U,
  0x3dbdafb8bcaf185bU, 0x3df3300c3d9ba3dfU, 0xbe1ba3df3d6975ceU, 0x3e3186ea3dcc4715U,
  0x3e2080fe3dee52edU, 0x3e0a9df33e3dafb8U, 0x3d882f633e7cea4aU, 0x3cc28cd73d882f63U,
  0xbd1ba3df3daf185bU, 0x3d96c6c03d73300cU, 0xbd9ba3dfbe22ef8dU, 0x3d5fbb91bda55e1dU,
  0x3be975cebcd60153U, 0xbdfcea4a3e11e9a1U, 0xbe0d0c82be00e3b5U, 0xbc6975cebb9ba3dfU,
  0x3e05c0d43d96c6c0U, 0xbdb3f57a3ddfbb91U, 0xbdb3f57aU, 0x3e05c0d4bd882f63U,
  0xbc27da023e4752e2U, 0xbc7bc7033de6cbc3U, 0x3d9d5c623e714963U, 0x3f268a4e3d92dec2U,
  0x3d886122be981d92U, 0xbe032252be27da02U, 0xbddc4e23bcd1d082U, 0xbe27da02be66cbc3U,
  0x3dc752e23de6cbc3U, 0xbcfbc7033ddc4e23U, 0x3e2d18d23df14963U, 0xbd27da02be032252U,
  0x3ba7da023cfbc703U, 0xbe1d5c62bda7da02U, 0x3e0d9ff23e1d5c62U, 0x3df14963be12dec2U,
  0xbdb257a2bda7da02U, 0xbe27da023e27da02U, 0xbe66cbc3bdf14963U, 0xbe618cf33e4c91b2U,
  0xbdc752e23e1d5c62U, 0x3d3cd542be086122U, 0xbf0d9ff23e0d9ff2U, 0x3dfbc7033ca7da02U,
  0x3e1d5c623d66cbc3U, 0xbd51d082bd66cbc3U, 0xbe3257a2be229b32U, 0x3dc752e2bdd1d082U,
  0xbdbcd542bdf14963U, 0xbd66cbc33db257a2U, 0x3e181d923e181d92U, 0xbe3257a2bca7da02U,
  0x3e1fcc05bdffacd6U, 0x3d2a7339bdcdf5e5U, 0x3c63444c3e551007U, 0x3e5182f63d38a77eU,
  0xbcffacd63ce3444cU, 0xbea359173e1c3ef4U, 0xbe26e628bd2a7339U, 0xbcaa73393cffacd6U,
  0x3e18b1e3bd551007U, 0x3dbfc1a03cc6dbc2U, 0x3daa73393db8a77eU, 0xbd1c3ef43caa7339U,
  0x3caa73393e03637cU, 0x3d717891be18b1e3U, 0x3e18b1e33d8e0ab0U, 0x3e2a7339bd46dbc2U,
  0xbdc6dbc23d551007U, 0x3d38a77ebdffacd6U, 0x3c8e0ab0be2a7339U, 0x3e551007be9e057dU,
  0x3d1c3ef43dffacd6U, 0xbe26e628bd1c3ef4U, 0x3e9524d23ee17dc3U, 0x3d46dbc23d0e0ab0U,
  0x3e18b1e3be0e0ab0U, 0xbd86f08dbd551007U, 0xbe0a7d9ebdea5e6eU, 0x3e06f08dbcaa7339U,
  0x3c8e0ab0be2a7339U, 0x3dd510073e03637cU, 0x3ce3444cbce3444cU, 0xbe03637c3d0e0ab0U,
  0x3e9e2d19be58739bU, 0x3e3f79f53da68050U, 0x3ec3a3913c053373U, 0xbebf79f5bd053373U,
  0x3e47cd2c3e1e2d19U, 0x3cc7cd2c3dc7cd2cU, 0x3db726be3e268050U, 0x3e853373bde91a09U,
  0xbe1e2d19bda68050U, 0xbdf9c0783d47cd2cU, 0xbe15d9e13dc7cd2cU, 0x3d0533733e1e2d19U,
  0x3dc7cd2cbd853373U, 0xbe2ed387bd053373U, 0xbc0533733da68050U, 0xbe053373be15d9e1U,
  0xbe95d9e1bf4bf6c8U, 0x3d853373be268050U, 0xbed02064beaed387U, 0xbeaed387bdc7cd2cU,
  0xbe2680503c853373U, 0xbf053373bd47cd2cU, 0x3de91a09bd47cd2cU, 0xbf84290c3e60c6d2U,
  0xbc0533733d47cd2cU, 0x3e1e2d193db726beU, 0xbd691a09be2ed387U, 0x3c0533733d853373U,
  0x3d0533733c853373U, 0xbc053373bdf9c078U, 0xbd95d9e1be2ed387U, 0xbda68050U,
  0x3da53ac03dff5accU, 0xbc7055753da53ac0U, 0xbcb44018be253ac0U, 0xbedd8ec83dc3456fU,
  0x3c7055753d873012U, 0x3cf05575be1db815U, 0xbe163569bf3da36eU, 0x3d3440183da53ac0U,
  0xbe2cbd6c3e1db815U, 0xbe2cbd6c3e1db815U, 0xbe163569bd963569U, 0xbdb440183d524ac6U,
  0x3d524ac6bdd24ac6U, 0xbe163569bd873012U, 0xbda53ac03e2cbd6cU, 0x3dc3456fbde1501eU,
  0x3c705575be0eb2bdU, 0xbe43456f3e61501eU, 0x3c7055753e3bc2c3U, 0xbf28fc163e524ac6U,
  0x3d163569bd963569U, 0x3ec3456f3cf05575U, 0xbe8af168bf6e74caU, 0xbd873012bd705575U,
  0xbcf05575bda53ac0U, 0xbe2cbd6cbc705575U, 0xbd9635693cb44018U, 0x3e0eb2bd3d524ac6U,
  0x3cb440183d873012U, 0x3df05575be073012U, 0x3dff5accbda53ac0U, 0x3c7055753e163569U,
  0x3bf72b153d396050U, 0xbd67b8643db96050U, 0x3c772b15bd0b083cU, 0x3db96050bc772b15U,
  0x3e6b9510bea9ed9eU, 0xbdb1a6f73eb96050U, 0x3ed08c5abe7ee46eU, 0xbe31a6f73e2dca4bU,
  0x3d834ee33d772b15U, 0xbde7b8643d29ed9eU, 0xbe0ee4e83def71bcU, 0x3cb96050U,
  0xbd772b15bd396050U, 0x3d29ed9e3e1e5799U, 0xbde7b864bddfff0bU, 0xbe2610f2bc772b15U,
  0x3dd08c5a3def71bcU, 0x3c9a7aedbe546906U, 0xbd92c194U, 0x3e0ee4e83b772b15U,
  0xbe48d3013d834ee3U, 0x3ef53cbfbe834ee3U, 0x3e9e57993c396050U, 0x3e4119a8be4cafadU,
  0xbd5845b23e2610f2U, 0xbe169e41bc9a7aedU, 0xbe169e413d29ed9eU, 0x3d48d301bd29ed9eU,
  0x3def71bcbd396050U, 0x3d772b153d67b864U, 0xbd1a7aed3e31a6f7U, 0xbd8b083c3e31a6f7U,
  0xbd73c433be625ac2U, 0xbe9cb4fc3e483c98U, 0xbd3f87df3dc83c98U, 0xbe8fa5e7bd1cb4fcU,
  0xbe7c78ec3e86f12fU, 0xbc0b4b8b3de25ac2U, 0x3e940044bd8b4b8bU, 0xbea796e33d1cb4fcU,
  0xbe0b4b8b3e2e1e6eU, 0x3e3278cabdfc78ecU, 0xbe06f12f3d2e1e6eU, 0x3d3f87dfbda569b5U,
  0xbc50f150bc8b4b8bU, 0x3dd0f150bd8b4b8bU, 0x3d50f150be0b4b8bU, 0x3d9cb4fc3d8b4b8bU,
  0xbe210f593ed0f150U, 0xbcae1e6ebcd0f150U, 0x3dd9a6093c0b4b8bU, 0x3cae1e6ebc50f150U,
  0xbea9c4113deb0f7bU, 0xbda569b5bd50f150U, 0x3d625ac2bf0a34f4U, 0x3b8b4b8b3d73c433U,
  0x3e29c4113d940044U, 0xbd9400443d940044U, 0xbd2e1e6e3e140044U, 0xbdc83c983c0b4b8bU,
  0xbdf3c433bdf3c433U, 0xbe29c411bcd0f150U, 0x3e3278ca3e0296d2U, 0xbde25ac2be06f12fU,
  0xbd8e64a63cfd24b6U, 0x3d091e8d3d13aac0U, 0xbcbddb88be164dccU, 0xbe7fc7c33e3b387cU,
  0xbe5add13be6aaf5eU, 0x3da37d0bbdd83a06U, 0x3ea7719ebe8286eeU, 0x3e867b81be5596faU,
  0x3dcdadd4be18f0d9U, 0xbcd2f3ed3dbddb88U, 0xbdcdadd43e262017U, 0x3ce80c523e1b93e5U,
  0x3d334f563e1e36f2U, 0x3e1e36f23d83d874U, 0xbd83d874be2e093dU, 0xbdf7de9d3e1e36f2U,
  0xbd13aac0be4b0ac7U, 0x3de2c638bddd801fU, 0xbd9e36f23ca8c324U, 0xbe091e8dbe0e64a6U,
  0xbe9a425fbd5d801fU, 0xbd891e8dbe407e95U, 0xbd98f0d9bd5d801fU, 0x3da8c324be7d24b6U,
  0x3d52f3ed3da8c324U, 0xbcd2f3ed3d52f3edU, 0x3ded526bbb28c324U, 0xbe28c324bce80c52U,
  0xbc7d24b63e262017U, 0xbcfd24b63d1e36f2U, 0x3e334f56bd8e64a6U, 0x3d28c3243e262017U,
  0xbe36d0af3df72fccU, 0xbd62967bbde7bccfU, 0xbdaf1730be772fccU, 0x3de7bccfbd85e48eU,
  0xbd43b0823daf1730U, 0xbe2f1730be55b6a8U, 0x3e6529a53d772fccU, 0x3e343d85bd80be3aU,
  0x3db43d853dc8d6d6U, 0x3d9a7de03bf72fccU, 0xbe1fa434bddd7027U, 0x3da4ca883df72fccU,
  0x3e0351643d8b0ae3U, 0xbdece324bd95578bU, 0xbdc8d6d6bdd3237eU, 0x3e103137U,
  0x3e3bf703be67bccfU, 0x3d4dfd2a3e29f0dcU, 0x3e00be3a3d4dfd2aU, 0x3d4dfd2a3e22375eU,
  0x3d43b0823c24ca88U, 0xbe24ca883e99344aU, 0xbea380f3be12c461U, 0xbd9fa4343ddd7027U,
  0xbd1031373da9f0dcU, 0x3d62967bbba4ca88U, 0x3dd849d2bdc8d6d6U, 0xbc4dfd2abe0b0ae3U,
  0x3e29f0dcbe1d110aU, 0xbdf20978be2c8406U, 0xbe1fa434be17eab5U, 0xbe0d9e0d3e00be3aU,
  0xbde41828be939729U, 0xbcd6ad53bdb5223eU, 0x3e062c543e6acd93U, 0x3ea60a0ebd3bd7a9U,
  0x3da7b769bd8ce1beU, 0x3e74ddb33e56ad53U, 0xbe82d19f3e387cf3U, 0x3c56ad53bbd6ad53U,
  0xbd2101febc56ad53U, 0x3c56ad533de41828U, 0x3dcff7e83e2101feU, 0xbe103c743d2101feU,
  0xbe103c74be02d19fU, 0x3b56ad53bd641828U, 0x3d062c543e2101feU, 0x3c56ad533dcff7e8U,
  0xbe7182fd3e91e9ceU, 0x3ddd62bebeb374e3U, 0xbd7182fdbde41828U, 0x3e098709bebd8503U,
  0xbe31c789U, 0x3ca101febe4c9d33U, 0x3c862c543e53529eU, 0xbed4fff8be1a4c94U,
  0xbe02d19f3e2b121eU, 0x3e16f1debca101feU, 0xbd6418283e245cb4U, 0xbca101febdf182fdU,
  0xbda101fe3c56ad53U, 0xbdcff7e83dc9427eU, 0xbdf182fdbe062c54U, 0xbc862c54bcbbd7a9U,
  0xbe1028243eacfcf8U, 0xbdd83c363df5110aU, 0xbeb09792be175d59U, 0x3d2cfcf8bd2cfcf8U,
  0x3ebd34af3ee4d953U, 0x3eacfcf8bc902824U, 0x3ee4d9533e75110aU, 0x3d1028243d902824U,
  0xbbe6a6a0be2cfcf8U, 0x3dc29c973d102824U, 0x3deddbd5bbe6a6a0U, 0xbdfc463f3e2cfcf8U,
  0xbe2cfcf8bd81bdbaU, 0xbd81bdba3cacfcf8U, 0x3dc9d1ccbdc29c97U, 0xbddf716b3df5110aU,
  0x3e25c7c3bec29c97U, 0x3d01bdba3df5110aU, 0x3d102824bcacfcf8U, 0x3d81bdba3dbb6762U,
  0xbd975d593d102824U, 0x3eb7ccc83e102824U, 0x3e222d28bcacfcf8U, 0x3ddf716bbdd10701U,
  0x3d75110a3c66a6a0U, 0xbe1e928e3df5110aU, 0xbe01bdbabd975d59U, 0xbe222d283d9e928eU,
  0x3deddbd5bbe6a6a0U, 0x3d975d593d3b6762U, 0x3e3097923dfc463fU, 0xbdeddbd500000000U,
  0xbe3510be3e244cd2U, 0xbe16e3493dc92f0cU, 0xbe64021ebe533e33U, 0x3e861f5d3ca0f270U,
  0x3de4021ebdd69895U, 0xbdc92f0cbd20f270U, 0x3ed4eb643e7b7acfU, 0xbd716ba83d64021eU,
  0x3dc27a473d9a3dabU, 0xbddd4d5abc569895U, 0xbdfed5313e3510beU, 0xbd1388e63deab6e3U,
  0x3d7ed5313df8206cU, 0xbcbbc5823cbbc582U, 0x3d1388e63d20f270U, 0x3dae5bf9bd061f5dU,
  0x3e861f5dbe1d980dU, 0xbda7a7343e675c81U, 0x3e2e5bf93bd69895U, 0xbe1388e63e84722cU,
  0xbd20f2703d7ed531U, 0xbe82c4fbbc861f5dU, 0x3c861f5dbe7b7acfU, 0x3d061f5dbe244cd2U,
  0xbe1d980d3d20f270U, 0x3dae5bf9bdf8206cU, 0xbe0979bf3d2e5bf9U, 0x3c5698953c20f270U,
  0x3e2b01973e061f5dU, 0x3c861f5dbd7ed531U, 0x3dcfe3d03de4021eU, 0x3db510be3e16e349U,
  0xbe9fd826bceadf91U, 0xbb50c6babe09026aU, 0xbe841dc2bcd0c6baU, 0x3e960ed6bd89026aU,
  0xbdf165c73e8760ddU, 0xbda31b41bd77ebfdU, 0x3ceadf913e336ac8U, 0x3d43ba4e00000000U,
  0xbe1fd8263ceadf91U, 0x3c9c950cbd29a177U, 0xbdf165c7bdeadf91U, 0x3db027ad3dca4084U,
  0x3deadf91be05bf4fU, 0xbdc3ba4ebd5dd326U, 0xbb50c6babdca4084U, 0xbdc3ba4ebd50c6baU,
  0x3e12cbbb3e36ade3U, 0xbe4077333e8aa3f8U, 0x3e6116413e09026aU, 0x3e29a1773b50c6baU,
  0x3bd0c6babc9c950cU, 0xbecf252dbcb6ade3U, 0xbea179b4bd36ade3U, 0x3e574cf0bd50c6baU,
  0xbe12cbbb3e231b41U, 0x3cd0c6ba00000000U, 0x3e1951f13d827c34U, 0x3da31b41be12cbbbU,
  0x3e1fd82600000000U, 0x3e231b413e1951f1U, 0xbe0c4585bd29a177U, 0x3d5dd3263d5dd326U,
  0x3d06733f3d13e52cU, 0x3e3f976dbd215718U, 0xbe13e52cbe4d0959U, 0x3ed5708d3ca15718U,
  0xbdf8bb9b3dbc3af2U, 0xbdf202a4be3581fbU, 0x3d49acde3e8b7df8U, 0xbe0d2c353cd71ecbU,
  0x3d9a9e22be06733fU, 0xbe1a9e22bdeb49aeU, 0x3e322580be1088b0U, 0xbc2157183c86733fU,
  0x3db581fbbcbc3af2U, 0x3e3225803dc2f3e8U, 0xbdaec9053dddd7c1U, 0xbd86733fbde490b8U,
  0x3dc9acde3c571ecbU, 0xbdbc3af200000000U, 0x3e1088b03cd71ecbU, 0xbea9be4c3dbc3af2U,
  0xbcbc3af2bd93e52cU, 0x3dd71ecb3e84c501U, 0xbd86733fbbd71ecbU, 0x3d3c3af23e5065d5U,
  0xbd93e52cbda8100fU, 0x3dd065d53e28100fU, 0x3cf202a4be28100fU, 0x3cbc3af23d7202a4U,
  0xbdf202a4bd571ecbU, 0x3e2ec905bd49acdeU, 0xbc86733f3e0316c4U, 0x3daec905bdd065d5U,
  0xbb5a1eae3bda1eaeU, 0x3e202e88bdee918eU, 0x3e8f24223d67c099U, 0x3eb2ed2bbe3b725eU,
  0xbed86a71bdee918eU, 0xbcf56284bca39702U, 0xbd8182373dc5abceU, 0xbd756284bdf56284U,
  0xbe2a67f83d9cc60dU, 0x3dee918e3da39702U, 0x3e1cc60d3dee918eU, 0x3e0f2422be195d92U,
  0x3dd34db9be34a168U, 0xbe3138ed3e04eab2U, 0xbca397023daa67f8U, 0x3c5a1eaebe2dd073U,
  0xbe78cafe3c239702U, 0xbdaa67f8bdee918eU, 0xbcbedad83cda1eaeU, 0xbd3edad8be1cc60dU,
  0x3eb655a53e756284U, 0x3dbedad83d239702U, 0x3e8336753ed6b633U, 0xbd15f5183e78cafeU,
  0xbdda1eae3d9cc60dU, 0x3d8182373e195d92U, 0xbdfc33793bda1eaeU, 0x3e15f518bd756284U,
  0xbd9cc60dbdf56284U, 0xbe04eab23e239702U, 0xbdfc3379bd4c7cc3U, 0xbe15f518bde0efa3U,
  0xbd2e8429bd916e22U, 0x3d22e1c03de8b036U, 0x3ce8b0363db4555dU, 0xbeb8b2453ce8b036U,
  0x3d7452a03dcb9a30U, 0x3eae8429bc68b036U, 0x3e45c8fbbe5ff668U, 0xbc8b9cee3e7452a0U,
  0x3d2e8429bdfff509U, 0x3c3a2692bd7452a0U, 0xbe28b2f43e1456bcU, 0xbdfa23d4be1d108bU,
  0xbcfff509bda2e1c0U, 0x3e02e31f3e05cbb9U, 0xbe02e31f3db4555dU, 0xbd5d0dcd3e0b9ceeU,
  0x3e45c8fbbda2e1c0U, 0xbcba2692be42e061U, 0x3e42e061bdae8429U, 0xbdd73c993e1a27f1U,
  0xbe173f57bd3a2692U, 0x3dba2692bdae8429U, 0x3e65c79cbdae8429U, 0x3e3d0f2cbe173f57U,
  0x3dfff5093da2e1c0U, 0x3db4555dbd5d0dcdU, 0x3d2e8429be1d108bU, 0xbcba2692bdba2692U,
  0xbd516b643d916e22U, 0x3d0b9cee3dd73c99U, 0xbc68b0363dae8429U, 0xbdd16b643ca2e1c0U,
  0x3db407ec3dbd0851U, 0x3e900656be53894eU, 0x3e89460abcfc0b16U, 0xbe1906bb3d9906bbU,
  0xbdcf091cbf0ee649U, 0x3e9b46d5be148689U, 0xbea20721bcb407ecU, 0x3e2f87b9bd8705f1U,
  0x3dea0a4cbd900656U, 0x3e148689bb900656U, 0xbe0b8623bd220721U, 0x3da207213df30ab1U,
  0xbd5809813cd80981U, 0x3e0285be3de109e6U, 0xbe2b0786bcb407ecU, 0x3e0705f1bd580981U,
  0xbe2f87b9be1d86eeU, 0xbe2f87b93d7c0b16U, 0x3cb407ec3d8705f1U, 0xbe6109e6be89460aU,
  0x3d6a0a4c3eb64805U, 0x3cb407ec3e3407ecU, 0x3d9006563dea0a4cU, 0x3c9006563e0b8623U,
  0x3d9906bbbe3407ecU, 0x3d4608b6be2f87b9U, 0xbc100656bb900656U, 0x3e1006563d220721U,
  0xbe2f87b9bdfc0b16U, 0xbd7c0b163d6a0a4cU, 0xbdea0a4c3c900656U, 0xbc100656bd220721U,
  0x3da15f28bd4e8e48U, 0x3d41a5643cb4bc7fU, 0x3da15f283e37f6b8U, 0xbbce8e48bcce8e48U,
  0x3c8118ed3e7548f6U, 0xbeccf12b3e249961U, 0xbd41a564bcb4bc7fU, 0xbde860113e686011U,
  0xbd4e8e48be34bc7fU, 0xbcb4bc7fbd1aeab6U, 0x3e1e24ef3e215f28U, 0x3d1aeab6be34bc7fU,
  0xbe147644bde1eb9fU, 0x3e078d5fbe17b07dU, 0x3e0e01d23d7548f6U, 0x3dc819d6bdf548f6U,
  0xbdeed4833e9e24efU, 0xbdb4bc7fbdce8e48U, 0xbe1aeab6bdb4bc7fU, 0x3da7d39abddb772cU,
  0x3e720ebcbbce8e48U, 0xbe85f043bde86011U, 0xbcb4bc7fbce86011U, 0x3e318246bc8118edU,
  0x3e078d5fbd0e01d2U, 0xbd0e01d2bd686011U, 0xbc8118edbd686011U, 0x3e3182463da15f28U,
  0xbdce8e48be249961U, 0x3de86011bdfbbd68U, 0x3d8e01d23e045326U, 0x3db4bc7f3db4bc7fU,
  0x3bf944ae3e1fafffU, 0xbcf944ae3dd251f3U, 0x3e277a25bbf944aeU, 0x3cf944aebcf944aeU,
  0x3cda1c183ef75225U, 0xbe046c7c3dda1c18U, 0xbbf944aebd5a1c18U, 0x3df17a89bdd251f3U,
  0xbda395123c7944aeU, 0x3d2b5f38bdd251f3U, 0xbe1fafffbe239512U, 0x3e1fafff3df17a89U,
  0xbe2b5f38bd0c36a2U, 0xbd846c7cbbf944aeU, 0x3e101bb53d9bcaedU, 0x3d9bcaed3dc2bda8U,
  0xbd1bcaedbdf944aeU, 0x3d8c36a23d5a1c18U, 0xbe3af382bbf944aeU, 0xbe00876abe3ed895U,
  0x3b7944ae3ed251f3U, 0xbe80876a3e563706U, 0x3c7944ae3e1400c7U, 0xbcf944aebe46a2bbU,
  0xbd5a1c183e00876aU, 0x3d7944aebd5a1c18U, 0x3df17a893e2f444aU, 0xbdf17a893d7944aeU,
  0x3e101bb5bb7944aeU, 0x3c9bcaedbe1bcaedU, 0x3e33295d3cda1c18U, 0x3e101bb5U,
  0x3d52372d3e204a12U, 0x3cd2372dbcd2372dU, 0xbe32aee63d986801U, 0xbe86032dbd32aee6U,
  0xbe354f973d282c24U, 0xbdd7788ebd8de53eU, 0xbe7ee2e73d9326a0U, 0x3e9ef9babd52372dU,
  0x3e1868013e1085efU, 0x3d282c243d71bf74U, 0xbd9326a0bde1fb50U, 0xbdd2372d3e08a3ddU,
  0x3da2eac33d9da962U, 0xbe1b08b1be2d6d85U, 0xbdccf5ccbc282c24U, 0x3ba82c243d52372dU,
  0xbe2d6d85bd88a3ddU, 0x3d83627c3cbd31a8U, 0xbd673cb23e282c24U, 0x3e2d6d85be71bf74U,
  0x3ea6dbccbd3d31a8U, 0xbdad6d853e1085efU, 0xbe89f4363b282c24U, 0x3e22eac33e3a90f8U,
  0x3b282c24bddcb9efU, 0xbbfc42363e32aee6U, 0x3e08a3ddbe282c24U, 0x3cd2372dbe32aee6U,
  0xbddcb9efbd83627cU, 0xbd88a3dd3dad6d85U, 0x3d71bf74be03627cU, 0x3ca82c24be1085efU,
  0x3e117ebd3e2d355bU, 0x3deb903ebe796b8dU, 0x3e117ebdbe4fd9a0U, 0xbe56c7483df96b8dU,
  0x3e0a9115bead355bU, 0xbebe877d3d5db4efU, 0x3e6b903e3e342302U, 0xbd0a91153e94f591U,
  0x3deb903e3d8a9115U, 0x3deb903ebcddb4efU, 0x3e2647b3be1f5a0cU, 0x3e2d355b3e186c64U,
  0x3dcfd9a0bdf96b8dU, 0xbdc1fe51bd5db4efU, 0x3d986c64be03a36eU, 0xbe342302be03a36eU,
  0x3d41fe513e64a296U, 0x3df96b8dbdeb903eU, 0x3c5db4efbdddb4efU, 0xbe1f5a0cbe03a36eU,
  0x3e2d355bbec1fe51U, 0xbf5bf985be48ebf9U, 0x3f08d5ac3e56c748U, 0xbdcfd9a0be117ebdU,
  0xbd2647b33d986c64U, 0x3db423023d5db4efU, 0x3dddb4ef3deb903eU, 0x3d986c64bdb42302U,
  0x3db423023e2647b3U, 0x3dc1fe513cddb4efU, 0xbdeb903eU, 0x3e1f5a0cbcddb4efU,
  0xbd57829c3b65e0a6U, 0xbded0fabbe28d0faU, 0x3de5e0a6be624923U, 0xbe7f05383e697829U,
  0x3ed05396be372f04U, 0xbd492491be505396U, 0x3c8fac68bee414e5U, 0xbe16db6d3ed21f58U,
  0xbe1343ea3ce5e0a6U, 0xbd887d633cac687cU, 0xbd9e0a72bd014e5dU, 0xbd65e0a6bd0fac68U,
  0x3c65e0a600000000U, 0xbddeb1a1bd96db6dU, 0xbe21a1f5bd014e5dU, 0xbe0c14e53c8fac68U,
  0x3e7b6db6bda53977U, 0x3c65e0a63dac687cU, 0xbbe5e0a63dfb6db6U, 0xbe57829c3e492491U,
  0xbea8d0fabda53977U, 0x3b65e0a6bcc92491U, 0x3d0fac68be8a4924U, 0x3dbac687be3e5e09U,
  0xbcac687c3e1a72f0U, 0x3b65e0a63d3ac687U, 0xbdc1f58cbe087d63U, 0xbdc92491bdb39782U,
  0x3c8fac68bcac687cU, 0xbdc1f58cbd8fac68U, 0xbd814e5dbd014e5dU, 0x3e0c14e53e339782U,
  0x3e1fa345bd2479acU, 0xbb9accdebc418016U, 0x3e59b0183e26e4dfU, 0x3e999744be7b8ce9U,
  0xbd8773423c68334dU, 0x3cae267a3e1861abU, 0xbcc180163e1accdeU, 0xbdfb8ce9bd37d348U,
  0xbd0773423dde867fU, 0x3e029cdbbd8c49a9U, 0x3d8773423d112010U, 0xbe220e783e3091adU,
  0x3c9accde3d077342U, 0xbdb2fce1be32fce1U, 0x3e2479acbdde867fU, 0xbe1861ab3dfb8ce9U,
  0x3be8334dbc68334dU, 0xbe71e01bbe112010U, 0xbdb7d348be220e78U, 0xbde35ce6be3ca9afU,
  0x3e32fce13e89de76U, 0x3d95f677bd9fa345U, 0x3df6b6823dae267aU, 0x3d95f6773ce8334dU,
  0x3b9accdebded09b4U, 0xbe1accde3e1fa345U, 0xbdae267a3ded09b4U, 0x3e029cdb3db2fce1U,
  0xbcc180163dd0034aU, 0xbdae267abd68334dU, 0xbdd4d9b13e1accdeU, 0x3d2e267a3e0031a8U,
  0x3e11b12b3d1eefd2U, 0x3d0472843dc6abc6U, 0x3e400c733e11b12bU, 0x3e1eefd2be53ea6dU,
  0x3f2f7e223e2c2e79U, 0x3d8472843e11b12bU, 0xbe98507ebe7ba661U, 0x3d0472843e67c867U,
  0x3dd3ea6dbd9eefd2U, 0xbdb96d1f3bd3ea6dU, 0xbc53ea6dbd6e67bbU, 0xbd6e67bbbdee67bbU,
  0x3d847284bde12914U, 0x3e258f25bdd3ea6dU, 0xbcd3ea6dbde12914U, 0x3d6e67bbbe0b11d8U,
  0x3c9eefd23c9eefd2U, 0xbdc6abc6be67c867U, 0x3d047284bdb96d1fU, 0x3c9eefd2be047284U,
  0xbeda89c0bdb96d1fU, 0xbd396d1fbec6abc6U, 0xbf524298be2c2e79U, 0x3d1eefd2bf061a59U,
  0xbe2c2e79bdc6abc6U, 0xbd91b12b3e2c2e79U, 0xbe2c2e79be32cdccU, 0xbd8472843d847284U,
  0x3c53ea6d3db96d1fU, 0x3c53ea6dbc53ea6dU, 0x3d91b12b3bd3ea6dU, 0x3dac2e79bd1eefd2U,
  0x3d0817febd9a3d54U, 0xbcebe5533e893a54U, 0x3db575533e37b9feU, 0xbe05d3543d95b3feU,
  0xbcfe0aa83dac62a9U, 0x3e706ea83e038ea9U, 0xbe900854be136f54U, 0xbde75bfdbd112aa9U,
  0x3df4f7fdbdf98152U, 0xbe2c62a9bdcc23feU, 0x3db9fea93cc79aa8U, 0xbc59bffebcc79aa8U,
  0x3db9fea93d357553U, 0xbe2594a93d9ec6a9U, 0x3e112aa9bd912aa9U, 0x3e15b3febc59bffeU,
  0xbd62d2a83dcc23feU, 0x3dd9bffebdc79aa8U, 0xbcb57553be5e4953U, 0x3e893a54be0ca154U,
  0x3e0817febd1a3d54U, 0xbda34ffebe2c62a9U, 0x3dd9bffe3e0ee5feU, 0xbca34ffebdfe0aa8U,
  0xbdb0ebfebd50ad53U, 0xbe0817fe3dac62a9U, 0xbd8817fe3d479aa8U, 0x3dbe87fe3e0149ffU,
  0xbe30ebfebda7d953U, 0xbdc79aa8bdd536a8U, 0x3d3e87febd357553U, 0x3c59bffe3b912aa9U,
  0x3d929303bcd532edU, 0xbe0894a03e0be96cU, 0xbe8894a0be4b348aU, 0xbcd532edbd993c9aU,
  0x3d053fd43d62861cU, 0xbe65dae83bd532edU, 0xbe448af2be0894a0U, 0xbda68fc93d8be96cU,
  0x3e308e2c3d2d3961U, 0xbdd532ed3e1c9166U, 0x3de92fb33c853fd4U, 0xbcd532ed3d62861cU,
  0xbde2861c3d47dfbeU, 0x3d053fd4be29e495U, 0xbbd532ed3e01eb08U, 0x3e233afdbe15e7cfU,
  0xbd053fd4becb348aU, 0x3c1fe6323e3737c4U, 0x3e268fc9bc853fd4U, 0xbed388873e1c9166U,
  0xbb5532edbd2d3961U, 0x3b5532ed3dd532edU, 0xbe47dfbebeb3e2f8U, 0xbdb3e2f83de92fb3U,
  0xbe268fc9bdf682e2U, 0x3dce89563d6fd94bU, 0x3e1c91663bd532edU, 0xbe1c9166bd8be96cU,
  0xbe0894a0bd053fd4U, 0xbdc7dfbebdefd94bU, 0x3d2d3961bde92fb3U, 0xbe233afdbe308e2cU,
  0xbfb310f7bf82780eU, 0xbf91afab3f869e4fU, 0x3ec4c0313e37cfb5U, 0xc000de563f82578cU,
  0xbeec5d103eefe299U, 0x3ef37b44bf190358U, 0x3bba9d633d6a2278U, 0xbe821cb43f971f41U,
  0x3df263fb3eff2eb4U, 0xbf37f64f3fdbcf49U, 0xbf742763bf8c0966U, 0x3eb725f7bf6d2560U,
  0x3e5e11f03eb5fd1dU, 0xbf332ac04000ec7bU, 0x3eba11f93f9bf4d1U, 0x3e82958cbe8172baU,
  0xbe725c443d725c44U, 0xbe141bf0bc576e75U, 0x3d06a5093c576e75U, 0x3d86a5093e7917b7U,
  0x3e49f78ebca192d8U, 0x3ca192d83d725c44U, 0xbdd76e75bc576e75U, 0x3ec699d43e5e29e9U,
  0x3e49f78e3ea192d8U, 0x3e86a5093df25c44U, 0xbca192d8bde4e55cU, 0x3bd76e75be9e351eU,
  0x3e284e4bbc576e75U, 0xbd576e75be7917b7U, 0xbe06a509bebc80a6U, 0x3dd76e75bc576e75U,
  0xbdf25c443c576e75U, 0x3d86a5093dbc80a6U, 0x3d2192d83ca192d8U, 0xbd725c44bd3c80a6U,
  0xbdf25c443dd76e75U, 0xbbd76e753d2192d8U, 0xbde4e55cbda192d8U, 0x3dc9f78ebd86a509U,
  0xbde4e55c00000000U, 0x3da192d8bd576e75U, 0xbd576e75bda192d8U, 0xbda192d8bde4e55cU,
  0xbdf25c443dbc80a6U, 0x3dc9f78ebd86a509U, 0x3dc9f78ebdc9f78eU, 0x3d2192d83d86a509U,
  0xbd06a509bf30b89cU, 0x3e2192d83e5e29e9U, 0xbe2f09bfbdf25c44U, 0x3d86a5093ca192d8U,
  0x3d86a509bec9f78eU, 0x3e433c1abd941bf0U, 0xbda192d83dd76e75U, 0x3e06a509be1ad764U,
  0xbdbc80a6be2192d8U, 0xbe9779aa3bd76e75U, 0x3e941bf0bf55bf98U, 0xbe576e75be06a509U,
  0xbe2f09bf3d941bf0U, 0x3dd76e753df25c44U, 0xbdc9f78ebde4e55cU, 0xbca192d83df25c44U,
  0x3daf09bf3d2192d8U, 0x3dbc80a6bdd76e75U, 0x3cd76e75bc576e75U, 0xbdffd32bbda192d8U,
  0x3da192d8bde4e55cU, 0x3dd76e75bd2192d8U, 0xbcd76e753d3c80a6U, 0x3d86a509bdbc80a6U,
  0xbd86a509bbd76e75U, 0x3c576e753d941bf0U, 0xbdf25c44bdbc80a6U, 0x3dffd32bbcd76e75U,
  0xbd941bf03bd76e75U, 0xbd86a5093bd76e75U, 0x3daf09bfbd576e75U, 0x3de4e55c3de4e55cU,
  0x3da273513e31ec03U, 0xbe1e95243de0561aU, 0x3b778b26be1ab6f8U, 0x3dc9210fbc39a85cU,
  0x3e8381ecbdff477fU, 0x3eac1ec0bda27351U, 0x3e3d86893e12fa9fU, 0xbd8381ec3c39a85cU,
  0x3e7b69533e9ca60eU, 0x3e0b3e45be31ec03U, 0xbdefcecd3bf78b26U, 0x3d2a2faa3bf78b26U,
  0xbe1ab6f8U, 0xbde81274be0f1c72U, 0xbe31ec03bd49210fU, 0x3de812743d49210fU,
  0x3dd899c13cb9a85cU, 0x3cf78b263db1ec03U, 0x3bf78b263d778b26U, 0xbd9ab6f83d778b26U,
  0xbdc9210f3d9ab6f8U, 0xbde0561abcd899c1U, 0x3cf78b263d92fa9fU, 0xbdff477fbd2a2faaU,
  0x3d1ab6f83d778b26U, 0x3d0b3e45bd8381ecU, 0xbcd899c1bbf78b26U, 0x3de0561a3defcecdU,
  0x3cb9a85c3c9ab6f8U, 0xbcd899c13c778b26U, 0x3dff477f3dff477fU, 0xbd778b263dd0dd68U,
  0x3bf78b26be96d8cbU, 0x3db1ec03be8b3e45U, 0xbe8d2d5c3d778b26U, 0xbef59c103dc164b6U,
  0x3e16d8cbbeaa2faaU, 0x3de0561a3e076019U, 0xbdc164b63d8b3e45U, 0x3ea84094be0381ecU,
  0x3d0b3e45be4164b6U, 0xbd8381ecbd8b3e45U, 0x3e39a85cbdd0dd68U, 0xbe910b883d49210fU,
  0xbec353ccbd0b3e45U, 0x3d39a85c3dc164b6U, 0xbda27351be49210fU, 0xbde0561a3d39a85cU,
  0x3d9ab6f83cd899c1U, 0x3dd899c1bcf78b26U, 0xbd6812743dd899c1U, 0x3dc164b63d49210fU,
  0xbdb1ec03bde0561aU, 0x3c39a85cbdc9210fU, 0x3dd899c13dc9210fU, 0xbc778b263d5899c1U,
  0xbd8381ecbcf78b26U, 0xbdb1ec03bc9ab6f8U, 0x3bf78b263d5899c1U, 0xbd0b3e453d1ab6f8U,
  0xbda27351bd778b26U, 0x3d681274bd0b3e45U, 0xbdf78b26bd49210fU, 0x3b778b26bdaa2faaU,
  0xbd47b2dcbcc7b2dcU, 0x3da66a623d95c625U, 0x3e60a9383e8d7406U, 0xbda66a62bd8521e8U,
  0xbc0521e83d95c625U, 0x3e0521e8be0d7406U, 0xbe5004fa3d8521e8U, 0xbd95c6253d68fb56U,
  0xbe5857193cc7b2dcU, 0xbcc7b2dcbdf99f93U, 0x3d68fb563dc7b2dcU, 0x3e799f933de8fb56U,
  0x3da66a623e0521e8U, 0xbc8521e83e266a62U, 0xbe2ebc803e714d74U, 0x3da66a62bd8521e8U,
  0x3de8fb563db70e9fU, 0x3d95c625bdd85719U, 0x3de8fb563c0521e8U, 0x3db70e9fbc8521e8U,
  0x3df99f933d68fb56U, 0x3cc7b2dc3d266a62U, 0x3dd857193d8521e8U, 0x3d0521e8bc0521e8U,
  0x3d0521e8bdf99f93U, 0x3db70e9f3c8521e8U, 0xbdd85719bd266a62U, 0xbd8521e8bd266a62U,
  0xbde8fb563db70e9fU, 0xbc0521e8bde8fb56U, 0xbdc7b2dcbda66a62U, 0x3d0521e8bdc7b2dcU,
  0xbe2ebc80bee0a938U, 0xbe47b2dcU, 0xbe3f60bebe47b2dcU, 0x3eb2e590bd8521e8U,
  0xbf119d16beb70e9fU, 0xbdf99f93bd266a62U, 0x3d95c6253d47b2dcU, 0xbf8417a4bdd85719U,
  0xbe585719bcc7b2dcU, 0xbe0d74063d8521e8U, 0xbdf99f93befdc8a2U, 0xbe8d74063d68fb56U,
  0xbd8521e8be15c625U, 0xbc0521e83cc7b2dcU, 0x3e68fb56bd68fb56U, 0x3d47b2dc3d266a62U,
  0x3da66a62bda66a62U, 0x3dd85719bdc7b2dcU, 0x3d8521e83dd85719U, 0x3db70e9f3de8fb56U,
  0x3da66a623d95c625U, 0x3cc7b2dc00000000U, 0xbde8fb563da66a62U, 0x3df99f933d95c625U,
  0xbdd85719bd8521e8U, 0x3dd85719bda66a62U, 0x3db70e9f3d0521e8U, 0xbdb70e9fbde8fb56U,
  0xbc0521e800000000U, 0x3d47b2dcbd0521e8U, 0x3d95c6253df99f93U, 0xbd266a623dc7b2dcU,
  0xbe49ad0a3da03c55U, 0x3e0a225bbe0a225bU, 0x3d049bddbbb0cfd1U, 0x3eab49523e5d03c5U,
  0x3eaf6e31bd952f58U, 0xbe6ad4023eaf6e31U, 0x3dbbdcce3e0fa8daU, 0x3ea5c2d43e8e473aU,
  0x3b30cfd13dc6e9cbU, 0xbcdd03c5bd731dbfU, 0xbc30cfd1bdb65650U, 0xbdd1f6c8U,
  0x3db65650be075f1cU, 0x3d731dbfbe22ff95U, 0x3de28a44be81d89dU, 0x3e8a225b3d3bdcceU,
  0xbcf31dbfbbb0cfd1U, 0x3b30cfd13d46e9cbU, 0xbc049bddbdf31dbfU, 0xbdd1f6c8bd3bdcceU,
  0xbdc6e9cbbdfe2abcU, 0x3cf31dbfbd1ab5d7U, 0xbc849bdd3dcc704aU, 0xbdab4952bd8fa8daU,
  0xbdd77d473dd1f6c8U, 0xbded9741bd6810c2U, 0x3dcc704abb30cfd1U, 0x3d952f58bb30cfd1U,
  0x3c5d03c5bdfe2abcU, 0x3dc6e9cbbd8a225bU, 0x3dd1f6c83d0fa8daU, 0xbdcc704abd849bddU,
  0x3e22ff95bde810c2U, 0x3d30cfd13e049bddU, 0xbe3bdccebdd1f6c8U, 0xbc5d03c5be152f58U,
  0xbe9690f83dc6e9cbU, 0x3e628a44be54ba07U, 0x3dcc704abd849bddU, 0x3d8a225bbe8e473aU,
  0xbde28a443e01d89dU, 0x3d9ab5d7bcb0cfd1U, 0x3dcc704abc30cfd1U, 0x3df8a43e3d7e2abcU,
  0xbde28a44be9ab5d7U, 0x3dc1634d3d9ab5d7U, 0xbc5d03c53df8a43eU, 0xbe731dbf3e075f1cU,
  0x3cf31dbf3c30cfd1U, 0xbc30cfd13cdd03c5U, 0x3ded97413d5d03c5U, 0x3d6810c23cb0cfd1U,
  0x3d8fa8da3c9ab5d7U, 0x3d8fa8da3d51f6c8U, 0x3d0fa8dabd51f6c8U, 0xbded9741bded9741U,
  0xbc30cfd1bc049bddU, 0x3d049bddbd6810c2U, 0xbdb0cfd13c9ab5d7U, 0x3bb0cfd1bc849bddU,
  0x3d9ab5d73d3bdcceU, 0xbdf8a43e3cc6e9cbU, 0x3d9ab5d73dc6e9cbU, 0x3d8a225bbd9ab5d7U,
  0xbde006e2bdd6495eU, 0xbe34320f3d885d3cU, 0x3da595c83de9c466U, 0xbeace3eb3e0d3bfeU,
  0x3da595c8bde9c466U, 0xbdaf534cbd7d3f6eU, 0x3d9bd844bdcc8bd9U, 0x3e69c4663d2f534cU,
  0x3c69c4663e7381eaU, 0xbd7d3f6e3d2f534cU, 0xbd085d3cbed8b8bfU, 0x3daf534cbf1aa093U,
  0x3e6ea328bd42ce55U, 0xbc69c4663d921ac0U, 0x3e037e79be47ad17U, 0x3e516a9bbe2595c8U,
  0xbdc2ce553d56495eU, 0x3b9bd844bd085d3cU, 0x3de006e2bd085d3cU, 0xbde006e23da595c8U,
  0xbc9bd844bdc2ce55U, 0x3daf534cbc9bd844U, 0xbd921ac0bd085d3cU, 0xbde006e2bde006e2U,
  0xbd7d3f6ebdd6495eU, 0xbd56495ebcc2ce55U, 0xbc69c4663db910d1U, 0xbda595c8bd885d3cU,
  0xbd1bd844bdc2ce55U, 0xbdf381ea3cc2ce55U, 0x3ce9c466bd9bd844U, 0xbd085d3c3d56495eU,
  0x3dcc8bd93c69c466U, 0x3d921ac03e1bd844U, 0x3ce9c4663daf534cU, 0xbeace3eb3d2f534cU,
  0xbf1aa093bec2ce55U, 0xbd921ac03d085d3cU, 0xbd7d3f6e3e20b706U, 0xbe2f534c3e121ac0U,
  0x3e34320fU, 0x3e085d3c3b9bd844U, 0x3e085d3cbe9bd844U, 0xbdc2ce5500000000U,
  0xbce9c4663da595c8U, 0x3d1bd844bc9bd844U, 0xbebb8032be96f982U, 0xbc69c466be3910d1U,
  0x3de006e23de9c466U, 0x3dc2ce55bd085d3cU, 0x3dfd3f6e3cc2ce55U, 0x3c9bd844bc69c466U,
  0x3d56495e00000000U, 0x3c69c4663d085d3cU, 0xbdcc8bd93db910d1U, 0xbdd6495e3da595c8U,
  0x3d42ce553dc2ce55U, 0xbd085d3cbd085d3cU, 0x3b9bd8443de9c466U, 0xbce9c4663ce9c466U,
  0x3c9bd844bd42ce55U, 0x3daf534cbd69c466U, 0x3da595c8bdc2ce55U, 0x3ce9c4663de006e2U,
  0x3d8639bbbe816e87U, 0xbd6619d4bc99668dU, 0x3b99668dbde619d4U, 0xbe7946a5be016e87U,
  0xbd8fd024bd3fc030U, 0xbe0fd024bd19668dU, 0xbd8639bb3ce619d4U, 0xbf016e87bce619d4U,
  0xbe27c82abce619d4U, 0xbdd2ed023d6619d4U, 0xbd6619d4beb3c42dU, 0x3de619d4be52ed02U,
  0x3d19668dbd99668dU, 0x3e3629c7bdd2ed02U, 0x3dc956993ce619d4U, 0xbc6619d4be8fd024U,
  0x3d19668dbd0639bbU, 0xbcbfc030bdefb03cU, 0xbdefb03c3c19668dU, 0x3de619d43d3fc030U,
  0xbddc836bbd99668dU, 0x3dbfc03000000000U, 0x3ce619d43df946a5U, 0x3d3fc0303e016e87U,
  0x3ce619d4bc6619d4U, 0x3d2c935fbd2c935fU, 0x3d0639bb3d99668dU, 0xbd7946a5bd6619d4U,
  0x3d2c935fbd19668dU, 0x3ce619d43dac935fU, 0xbd2c935f3c99668dU, 0x3d99668d3b99668dU,
  0xbe3fc030becbbc33U, 0x3dac935f3e0639bbU, 0xbc99668d3d7946a5U, 0xbe99668d3e9bcc27U,
  0x3da2fcf6bf1833c0U, 0xbd99668d3e52ed02U, 0xbd6619d4bc6619d4U, 0xbed5529c3f016e87U,
  0x3f1235be3e6619d4U, 0x3e4956993e9235beU, 0x3d0639bbbeb3c42dU, 0xbda2fcf63d8639bbU,
  0xbe448b653c99668dU, 0xbdefb03c00000000U, 0xbe448b65be3af4fcU, 0xbb99668dbe27c82aU,
  0x3d3fc030bcbfc030U, 0x3d7946a53b99668dU, 0x3d52ed02U, 0xbd99668dbdbfc030U,
  0xbddc836bbdd2ed02U, 0xbdc95699bddc836bU, 0x3da2fcf63df946a5U, 0x3c6619d43dbfc030U,
  0xbc19668d3df946a5U, 0xbde619d4bd8639bbU, 0x3ddc836b3da2fcf6U, 0xbd6619d4bd52ed02U,
  0xbde619d43dd2ed02U, 0xbdb629c73dbfc030U, 0xbc6619d4U, 0xbdefb03c3ce619d4U,
  0xbdf89c90bd872adfU, 0x3d593bc13ce7b734U, 0xbda68bae3d90d281U, 0x3d6c8b063cc118acU,
  0xbda1b7dd3d1a7a23U, 0xbd1a7a23bd7632a8U, 0xbd4118acbd0bfeb0U, 0xbd10d2813c872adfU,
  0xbd9ce40cbdfb0679U, 0xbe14715e3d2421c5U, 0x3d1f4df4bdcd2a36U, 0xbd5467f0bdc5ec7dU,
  0xbcfb0679bdc5ec7dU, 0xbdffda4a3dbc44dbU, 0x3d15a652ba9a7a23U, 0x3a9a7a23be05f5eaU,
  0xbd10d2813db7710aU, 0xbd2dc967ba9a7a23U, 0x3c072adfbcd467f0U, 0xbdc5ec7d3dcf941fU,
  0xbd37710a3cc118acU, 0xbdb50721bd715ed7U, 0x3a9a7a233de54d4cU, 0x3dd1fe083cde0f92U,
  0xbdea211d3dab5f7fU, 0xbcfb06793d9f4df4U, 0xbc072adfbce7b734U, 0x3bc118acbce7b734U,
  0xbdab5f7f3d933c69U, 0x3d62e363bd0bfeb0U, 0x3dc382943d2dc967U, 0x3db507213dcd2a36U,
  0xbe02570ebddba5aaU, 0x3ccac04ebd5e0f92U, 0x3db03350bda8f596U, 0xbc872adf3d84c0f6U,
  0xbdfb06793b1a7a23U, 0xbcb7710abcadc967U, 0xbb1a7a23bda1b7ddU, 0xbd62e3633c072adfU,
  0xbd8bfeb0bd2421c5U, 0xbe19452fbdea211dU, 0xbdec8b06bcadc967U, 0xbdde0f92bdf15ed7U,
  0xbd82570ebda68baeU, 0x3d9f4df4bd0bfeb0U, 0x3db033503c072adfU, 0x3d2dc967bdc5ec7dU,
  0x3dcf941f3d37710aU, 0xbd4f941f3dcd2a36U, 0x3cf15ed7bd0bfeb0U, 0x3d7fda4abca421c5U,
  0x3d37710abd10d281U, 0x3d593bc13dadc967U, 0xbdc5ec7dbddba5aaU, 0xbdf89c903a9a7a23U,
  0xbd593bc13df3c8bfU, 0x3de7b7343df632a8U, 0xbdb7710a3be7b734U, 0x3dc38294bda421c5U,
  0x3c7b06793c2dc967U, 0xbd2dc967bca421c5U, 0xbc5467f03a9a7a23U, 0x3d37710abd67b734U,
  0xbe49f71abef665c8U, 0x3da1927bbd21927bU, 0x3d623379bdf25bb8U, 0xbee23379bea59c8bU,
  0xbde233793e31babaU, 0x3c0141fcbe197e5bU, 0x3e31baba3e8141fcU, 0x3d916a3cbf803f78U,
  0xbe623379be5a1f59U, 0xbec5ed0abeadb0abU, 0x3dc1e2fabd916a3cU, 0xbe8141fc3df25bb8U,
  0xbe197e5b3e116a3cU, 0xbdd20b3a3de23379U, 0x3e09561c3e197e5bU, 0x3ea1927b3e09561cU,
  0xbdc1e2fa3da1927bU, 0x3d8141fcbd21927bU, 0xbd21927b3dd20b3aU, 0x3c0141fc3c0141fcU,
  0xbe0141fc3d41e2faU, 0x3c8141fc3d916a3cU, 0x3de233793db1babaU, 0xbd21927b3de23379U,
  0xbdd20b3abc8141fcU, 0xbdf25bb8bde23379U, 0xbd623379bdd20b3aU, 0xbd916a3cbc8141fcU,
  0xbda1927bbdc1e2faU, 0x3da1927b3db1babaU, 0x3df25bb8bdf25bb8U, 0xbdb1bababd0141fcU,
  0xbe520b3a3cc1e2faU, 0xbd8141fcbd8141fcU, 0xbe6a4799bd0141fcU, 0xbec5ed0abf136f43U,
  0x3cc1e2fa3da1927bU, 0x3da1927bbefe79e8U, 0x3dd20b3abe09561cU, 0xbde233793d41e2faU,
  0xbeea4799bd41e2faU, 0xbc8141fcbe520b3aU, 0x3d41e2fa3d916a3cU, 0xbc8141fc3d21927bU,
  0x3d8141fcbc0141fcU, 0xbe725bb83db1babaU, 0x3e197e5b3de23379U, 0xbe9d886b3e09561cU,
  0xbcc1e2fa3d21927bU, 0x3d916a3c3d916a3cU, 0x3dd20b3abcc1e2faU, 0x3db1bababd8141fcU,
  0x3db1baba3dc1e2faU, 0x3e0141fcbc0141fcU, 0xbd8141fcbcc1e2faU, 0xbd41e2fabd916a3cU,
  0x3d6233793c8141fcU, 0x3d8141fc3d21927bU, 0x3d0141fc3da1927bU, 0x3cc1e2fabde23379U,
  0x3c0141fcbd21927bU, 0xbc8141fc3d916a3cU, 0x3dc1e2fabd916a3cU, 0xbdf25bb8bdf25bb8U,
  0x3ca830c3U, 0xbcc9d41ebd49d41eU, 0x3db0999abee95d42U, 0xbe99794cbf014be3U,
  0xbe3d36dc3e1fc7edU, 0xbe459fb23c068d69U, 0xbe1b93813d390270U, 0xbd9fc7edbe5aa5cbU,
  0xbe34ce05bd9fc7edU, 0x3d5aa5cbbf05804eU, 0x3e1fc7ed3de30ea1U, 0x3e868d693d8ef640U,
  0x3d7c49253e390270U, 0xbe99794cbe0ac1d4U, 0x3e523cf4U, 0xbda830c3bd2830c3U,
  0x3d49d41ebdb90270U, 0x3ca830c33d6b7778U, 0xbd7c4925bdc16b47U, 0x3dd23cf4bca830c3U,
  0xbc068d693d068d69U, 0xbd2830c3bd068d69U, 0xbd868d69bdeb7778U, 0x3de30ea1bdfc4925U,
  0xbc068d693d068d69U, 0xbda830c3bd868d69U, 0xbde30ea1bda830c3U, 0x3d2830c33d5aa5cbU,
  0x3c068d693df3e04eU, 0xbd49d41ebd175f16U, 0x3deb7778bb868d69U, 0x3ceb77783d175f16U,
  0xbd068d693dd23cf4U, 0xbdc16b473da830c3U, 0x3e30999abe34ce05U, 0xbe4e0889be0ef640U,
  0x3d068d693dc16b47U, 0xbda830c3be7814baU, 0xbe3d36dcbdeb7778U, 0x3d390270be911075U,
  0x3d6b7778bdb0999aU, 0xbd6b77783d068d69U, 0xbe9544e0bd175f16U, 0x3d6b7778bc868d69U,
  0xbc49d41ebdb0999aU, 0xbd49d41e3d175f16U, 0x3e390270bda830c3U, 0xbd868d693dc9d41eU,
  0xbb868d693c068d69U, 0xbd068d693dd23cf4U, 0xbdd23cf4bdeb7778U, 0x3ca830c33d9fc7edU,
  0xbdb0999a3d7c4925U, 0xbd868d69bca830c3U, 0x3cc9d41e3df3e04eU, 0xbdf3e04ebd068d69U,
  0x3db0999abd8ef640U, 0xbca830c33d175f16U, 0x3d49d41ebc49d41eU, 0x3d8ef6403db90270U,
  0x3dc16b47U, 0xbde30ea13ceb7778U, 0xbc068d69bd6b7778U, 0xbd868d693d9fc7edU,
  0xbe106e35beb5e01cU, 0xbc8061f63e207a74U, 0x3de0ab6ebe9b2109U, 0x3c2b2d48bec89910U,
  0xbd8b14ca3e207a74U, 0xbe70b7adbe3b3987U, 0xbd8061f63e35e01cU, 0xbd8061f6be8b14caU,
  0xbf29d6edbdd5f89aU, 0xbe55f89abdab2d48U, 0xbe886815bcd5f89aU, 0xbdd5f89a3d0061f6U,
  0x3dc092f13e45ec5bU, 0xbe6b5e43be207a74U, 0x3e15c79f3e3086b2U, 0x3de0ab6e3d2b2d48U,
  0x3d15c79fbdb5e01cU, 0xbd55f89a3d55f89aU, 0xbdeb5e43bd0061f6U, 0xbd55f89abdeb5e43U,
  0xbc8061f6bdb5e01cU, 0x3d95c79f3d95c79fU, 0xbdb5e01c3d55f89aU, 0xbc8061f6bc8061f6U,
  0x3d55f89a3d4092f1U, 0x3e0061f63d2b2d48U, 0xbcd5f89a3da07a74U, 0x3d2b2d48bd4092f1U,
  0xbd2b2d48bd4092f1U, 0xbd8061f600000000U, 0x3deb5e43bd8b14caU, 0xbdf61118bdcb45c6U,
  0xbe4092f1be15c79fU, 0x3dc092f13c8061f6U, 0xbdd5f89a3d2b2d48U, 0xbdab2d48be60ab6eU,
  0xbe85bb603e0b14caU, 0xbeb33367bea32729U, 0x3e1b2109bd95c79fU, 0xbe2b2d48bea32729U,
  0xbf272a38bd6b5e43U, 0xbd95c79fbee604d9U, 0xbdb5e01c3d4092f1U, 0x3d95c79f3dd5f89aU,
  0x3d6b5e433e0061f6U, 0xbefb6a823e85bb60U, 0x3e9b21093db5e01cU, 0xbd8b14ca3dab2d48U,
  0xbd95c79fbdc092f1U, 0x3de0ab6e3dd5f89aU, 0x3da07a743d95c79fU, 0x3bab2d483db5e01cU,
  0xbdeb5e43bd6b5e43U, 0x3d8061f6bde0ab6eU, 0xbd8061f6be0061f6U, 0xbcd5f89a3e0061f6U,
  0xbd95c79fbd15c79fU, 0x3de0ab6ebd6b5e43U, 0x3dc092f13d4092f1U, 0xbd2b2d483d4092f1U,
  0x3bab2d483dd5f89aU, 0xbd8061f63dc092f1U, 0xbd0061f6bd0061f6U, 0x3cab2d48bd2b2d48U,
  0xbdbcf6883dae6d6aU, 0xbd115b2dbe6891e2U, 0x3dae6d6a3e4b7fa6U, 0x3e7e5f8f3d2e6d6aU,
  0xbe2728da3e0a169eU, 0xbdda08c4be2e6d6aU, 0x3de891e23c6891e2U, 0xbd82d20f3e5a08c4U,
  0xbe1fe44b3e52c435U, 0xbe35b1f9bd82d20fU, 0x3d9fe44bbe189fbcU, 0x3d82d20f3e614d53U,
  0x3e771b003e52c435U, 0x3cae6d6a3d82d20fU, 0xbd4b7fa6bd9fe44bU, 0x3e115b2dbdae6d6aU,
  0xbd9fe44bbdbcf688U, 0x3d915b2dbc6891e2U, 0x3cae6d6a3d915b2dU, 0xbd9fe44b3de891e2U,
  0xbde891e2bdbcf688U, 0x3d915b2d3d6891e2U, 0xbd6891e23c6891e2U, 0xbd4b7fa63d915b2dU,
  0x3d115b2d3ce891e2U, 0x3de891e23ce891e2U, 0x3d115b2d00000000U, 0xbcae6d6a3ce891e2U,
  0x3d9fe44b3d115b2dU, 0xbbe891e2bd115b2dU, 0x3dcb7fa6bd9fe44bU, 0xbd115b2dbcae6d6aU,
  0xbe115b2dbf21b56fU, 0x3e1fe44b00000000U, 0xbdae6d6abe189fbcU, 0x3e0a169ebec43b17U,
  0xbec098cf3dda08c4U, 0xbe2728dabe9c4204U, 0x3ce891e2bdae6d6aU, 0xbdcb7fa6bf66c0beU,
  0xbe1fe44bbe52c435U, 0xbe8a169ebe35b1f9U, 0xbe5a08c43dcb7fa6U, 0xbc6891e2bdf71b00U,
  0xbd82d20fbd2e6d6aU, 0x3dcb7fa6be443b17U, 0xbcae6d6a3d6891e2U, 0xbf02d20f3dda08c4U,
  0x3ce891e23dae6d6aU, 0xbdae6d6a3ce891e2U, 0x3dcb7fa6bdbcf688U, 0xbd2e6d6abd2e6d6aU,
  0xbbe891e23d2e6d6aU, 0x3ce891e2bdae6d6aU, 0xbce891e23c6891e2U, 0xbd82d20f3d115b2dU,
  0x3de891e200000000U, 0xbd82d20f3d115b2dU, 0x3de891e2bd9fe44bU, 0x3d115b2dbd2e6d6aU,
  0x3df71b00bd9fe44bU, 0xbd82d20f3dbcf688U, 0xbde891e23d915b2dU, 0x3d4b7fa63cae6d6aU,
  0x3bc5a9583e3f7c0dU, 0xbe45a958be1a6c4dU, 0xbd943f02bf441e05U, 0x3d87e46c3dc5a958U,
  0x3e3321783d87e46cU, 0x3db94ec2bd143f02U, 0x3d943f02bdeab918U, 0xbe648bce3f18e0faU,
  0xbcf713aebe70e663U, 0x3da099983e5203eeU, 0xbe01b722bdb94ec2U, 0x3d87e46c3cc5a958U,
  0xbdacf42dbd943f02U, 0x3c943f023e01b722U, 0xbd943f02bdd203eeU, 0xbf285235be143f02U,
  0xbc45a9583db94ec2U, 0x3bc5a9583d2cf42dU, 0xbd143f023dde5e83U, 0x3d45a958bdd203eeU,
  0x3d7713aebd2cf42dU, 0x3dc5a958bd45a958U, 0xbda099983dc5a958U, 0xbdf713ae3c943f02U,
  0x3dd203ee3dd203eeU, 0xbda099983d5e5e83U, 0xbd87e46cbdb94ec2U, 0x3c943f02U,
  0xbcc5a958bd943f02U, 0x3d7713ae3bc5a958U, 0xbc45a9583d2cf42dU, 0x3db94ec2bc45a958U,
  0xbe01b722bec5a958U, 0x3dacf42dbd5e5e83U, 0x3d943f02bf0c8665U, 0x3e5e5e833e87e46cU,
  0x3da099983d143f02U, 0xbdeab9183d943f02U, 0x3e07e46cbdb94ec2U, 0xbc45a9583e6ab918U,
  0x3e70e663be7d40f9U, 0xbd5e5e833e87e46cU, 0x3e26c6e2be0e11b7U, 0xbea3b03d3d7713aeU,
  0xbdacf42dbc45a958U, 0x3c943f02bd5e5e83U, 0xbe0e11b7bda09998U, 0xbec5a9583d2cf42dU,
  0xbdd203ee3c943f02U, 0xbd5e5e833df713aeU, 0x3d87e46c3cc5a958U, 0x3c943f023dde5e83U,
  0x3c943f023cc5a958U, 0xbda09998bda09998U, 0x3d143f02bcf713aeU, 0xbdde5e833da09998U,
  0xbdb94ec2bdb94ec2U, 0x3d143f02bdd203eeU, 0xbdb94ec23d87e46cU, 0xbc943f02bd45a958U,
  0xbd5e5e83bcc5a958U, 0xbd2cf42dbdb94ec2U, 0x3d5e5e833d87e46cU, 0x3d143f02bdde5e83U,
  0x3d8e7a8e3d743fd0U, 0x3ccb8a823e8e7a8eU, 0xbe0e7a8ebe5fe529U, 0xbeec9dd1U,
  0xbe22d5353e22d535U, 0x3dc15d2fbef43fd0U, 0x3d5fe5293e18a7e2U, 0xbe8bef3abf218f8bU,
  0xbe9105e3bee78727U, 0x3db72fdcbe18a7e2U, 0x3da2d5353db72fdcU, 0xbed0a12cbca2d535U,
  0xbe1dbe8bbdc15d2fU, 0xbc743fd03d98a7e2U, 0x3db72fdc3d4b8a82U, 0xbec15d2f3e1dbe8bU,
  0xbd4b8a823ccb8a82U, 0x3ddfe529bca2d535U, 0xbd4b8a82bba2d535U, 0x3dea127c3dad0288U,
  0x3db72fdcbc743fd0U, 0xbd4b8a82bdf43fd0U, 0xbd372fdc3d5fe529U, 0xbddfe5293d4b8a82U,
  0xbca2d5353dea127cU, 0xbc22d535bd844d3bU, 0x3d372fdcbd844d3bU, 0x3d22d535bdd5b7d6U,
  0xbdd5b7d63dc15d2fU, 0x3dc15d2fbd5fe529U, 0xbd4b8a82bca2d535U, 0xbdb72fdcbddfe529U,
  0x3ca2d5353e0963e5U, 0xbe64fbd3bccb8a82U, 0xbc743fd03dfe6d23U, 0xbe6a127c3dfe6d23U,
  0x3db72fdcbd8e7a8eU, 0x3e4673d93d5fe529U, 0xbda2d535bdb72fdcU, 0x3dad02883e939138U,
  0x3d22d535bddfe529U, 0x3c22d5353d22d535U, 0x3e0963e5be1dbe8bU, 0x3df43fd0bd22d535U,
  0x3e372fdc3ba2d535U, 0x3da2d535be372fdcU, 0x3ba2d5353c22d535U, 0xbe22d535be5ace7fU,
  0x3df43fd03d4b8a82U, 0xbdcb8a82bca2d535U, 0x3dc15d2f3dfe6d23U, 0xbc22d5353d0e7a8eU,
  0x3d22d535bd844d3bU, 0xbdc15d2f3d4b8a82U, 0x3dd5b7d63db72fdcU, 0xbd98a7e23d372fdcU,
  0x3d743fd03cf43fd0U, 0xbd98a7e2bddfe529U, 0x3c22d5353ddfe529U, 0x3df43fd0bccb8a82U,
  0x3dad02883ccb8a82U, 0xbddfe5293dea127cU, 0x3d5fe5293d372fdcU, 0x3d372fdc3dfe6d23U,
  0x3d7367ac3e111b58U, 0xbd4df5433b95c9a5U, 0xbe4946f63e111b58U, 0x3d4df543be80b94aU,
  0x3e23d48cbe368dc1U, 0x3e00b94abdd2a390U, 0x3e23d48cbe7f1b6dU, 0x3d911b583df815f9U,
  0xbe0ec431be111b58U, 0xbb95c9a5be4b9e1cU, 0x3de0ae783ca882daU, 0xbe0a15e43e7815f9U,
  0x3d4df5433d95c9a5U, 0x3dc946f63e0c6d0bU, 0x3d3b3c0ebd9f263fU, 0xbe949e12bdb68dc1U,
  0xbdc946f6bd911b58U, 0x3d4df5433dcdf543U, 0x3c8310703dc946f6U, 0x3de55cc53d15c9a5U,
  0xbd60ae783d8c6d0bU, 0x3dd751dd3d4df543U, 0xbca882dabd911b58U, 0xbdb68dc13da882daU,
  0xbd8c6d0bbce0ae78U, 0xbbe0ae783d87bebeU, 0xbb15c9a5bdb68dc1U, 0xbddc002a3dd2a390U,
  0x3dbfea5bbddc002aU, 0x3d2882da3d87bebeU, 0x3d9a77f2bd95c9a5U, 0x3d031070bb95c9a5U,
  0x3ca882da3e8a15e4U, 0x3c3b3c0ebe46efcfU, 0x3e0a15e4be46efcfU, 0x3e262bb3bdd751ddU,
  0xbe81e4dd3e1ccf19U, 0x3e711086be2d3127U, 0x3d0310703e2d3127U, 0xbe1a77f23be0ae78U,
  0xbdb1df743d60ae78U, 0x3db68dc1be4498a9U, 0x3dbb3c0ebd15c9a5U, 0x3e262bb33de0ae78U,
  0x3db68dc13dc498a9U, 0xbd9f263f00000000U, 0xbdbb3c0e3dcdf543U, 0xbdf815f9bd8c6d0bU,
  0xbda3d48cbccdf543U, 0xbdcdf5433dc946f6U, 0x3cf367acbc3b3c0eU, 0xbdc498a9bdea0b12U,
  0xbca882da3dbfea5bU, 0xbd15c9a53be0ae78U, 0x3d2882da3df815f9U, 0xbda882da3e00b94aU,
  0xbd8310703d0c6d0bU, 0x3d87bebe3d9f263fU, 0x3db1df743d4df543U, 0x3d3b3c0ebd4498a9U,
  0xbd15c9a5bce0ae78U, 0x3de55cc53db68dc1U, 0x3cf367ac3d3b3c0eU, 0x3d7367ac3d911b58U,
  0x3dfaa47a3e63db57U, 0xbe0c82fe3d904f2fU, 0x3d88b6cebe04ea9eU, 0xbe41ada43e271851U,
  0x3c97e790bd88b6ceU, 0xbd730c193d904f2fU, 0x3ddc42f7bc364913U, 0x3e7aa47a3e923547U,
  0x3e04ea9e3d88b6ceU, 0x3dc579d43e5876c6U, 0x3bf30c19be6f3fe9U, 0xbe011e6dbdc579d4U,
  0x3d54aa963d08b6ceU, 0x3e104f2f3de3db57U, 0x3c97e790bcd4aa96U, 0xbd730c19bb730c19U,
  0xbd63db573de3db57U, 0x3b730c193d63db57U, 0x3df30c19bcd4aa96U, 0xbd904f2fbd17e790U,
  0xbc364913bcb64913U, 0x3d3649133c730c19U, 0xbd2718513d904f2fU, 0xbda71851bdb64913U,
  0x3cf30c193cd4aa96U, 0xbcf30c193d271851U, 0x3da718513deb73b8U, 0x3db64913bd63db57U,
  0x3d730c193dbde174U, 0x3c97e7903d54aa96U, 0xbd63db57bd4579d4U, 0xbd730c193d63db57U,
  0x3c730c193cb64913U, 0xbcd4aa96be2eb0b2U, 0x3e2ae482bd08b6ceU, 0xbef12601bd271851U,
  0x3dc579d4bbf30c19U, 0xbe41ada4U, 0x3d811e6d3d97e790U, 0xbe4579d43d97e790U,
  0xbdfaa47a3cf30c19U, 0xbcf30c19bd4579d4U, 0xbe7e70aabe67a788U, 0x3d08b6cebdfaa47aU,
  0x3d97e7903e2ae482U, 0xbec579d4bdf30c19U, 0xbcf30c193e271851U, 0x3d9f7ff0bd4579d4U,
  0xbdeb73b8bd9f7ff0U, 0xbb730c193df30c19U, 0xbd17e790bdfaa47aU, 0x3dd4aa96bd54aa96U,
  0xbc3649133cd4aa96U, 0xbd730c193de3db57U, 0xbd97e790bd08b6ceU, 0x3c364913bc97e790U,
  0x3d904f2f3ddc42f7U, 0x3d811e6d00000000U, 0xbdcd1235bcb64913U, 0xbdc579d43c730c19U,
  0x3dcd1235bd08b6ceU, 0x3d9f7ff0bc97e790U, 0xbd54aa963dcd1235U, 0x3d2718513d4579d4U,
  0xbaaa3d4dbd7f5bf4U, 0xbcaa3d4dbaaa3d4dU, 0xbdf4b81fbe03ab6aU, 0xbd3a330cbd87a8d9U,
  0x3d14f5a3bd84ffe4U, 0xbc6a144abe28e8d2U, 0xbc14f5a3be24eb63U, 0x3d0fa3b93c7f5bf4U,
  0xbd64c25fbdb4e122U, 0xbd9cf083bdf20f29U, 0xbdca28cbbe164a1eU, 0x3cd4cca03baa3d4dU,
  0xbd9cf083be14f5a3U, 0xbe10f8343dc22decU, 0xbd44d6e1bd34e122U, 0x3dd4cca0be24eb63U,
  0xbdef66343dc77fd6U, 0x3dd4cca03dfa0a09U, 0xbcca28cbbd14f5a3U, 0x3dbcdc01bd44d6e1U,
  0x3df76114bdaa3d4dU, 0xbcdf7075bdcf7ab6U, 0xbcea144abdd77595U, 0x3d0a51cf3cb4e122U,
  0xbc3f84f7bdba330cU, 0x3aaa3d4dbdbcdc01U, 0xbdfa0a09bb7f5bf4U, 0xbd5f7075bd14f5a3U,
  0xbda794583dccd1c1U, 0xbbaa3d4dbd34e122U, 0xbdfa0a09bd979e99U, 0xbd8cfac4bd9cf083U,
  0xbd8cfac4bd4a28cbU, 0xbaaa3d4d3cf4b81fU, 0xbd9f9978bcb4e122U, 0xbe1b9c083d0fa3b9U,
  0xbc7f5bf4bc14f5a3U, 0xbd14f5a3bda2426dU, 0xbdff5bf4bd14f5a3U, 0xbdf76114bd14f5a3U,
  0xbd4a28cbbd8256efU, 0x3aaa3d4dbe010274U, 0xbcdf70753bff5bf4U, 0x3dbf84f7bdca28cbU,
  0x3d84ffe43db2382dU, 0x3cf4b81f3d6f6634U, 0xbe0ba649be0a51cfU, 0xbd8256ef3d34e122U,
  0x3d7f5bf4bd6f6634U, 0x3d6a144abdc77fd6U, 0x3d04ffe4bd34e122U, 0xbc7f5bf43def6634U,
  0x3d0fa3b9bd924caeU, 0xbdaa3d4d3d74b81fU, 0xbd979e993daa3d4dU, 0x3c7f5bf4bdd77595U,
  0xbd6f66343d8fa3b9U, 0xbdef6634bdd223abU, 0xbd64c25f3d7a0a09U, 0x3d24eb63bddcc780U,
  0x3dbcdc013de4c25fU, 0x3da4eb63bbd4cca0U, 0x3dbf84f7bcb4e122U, 0x3df761143d9a478eU,
  0xbd9e9b1c3d842bedU, 0x3cd3797a3c53797aU, 0xbd53797abe4f119dU, 0xbcd3797a3db03a91U,
  0xbe41da06bd1e9b1cU, 0xbe2bd2b4be81f7feU, 0x3e1e9b1c3b8cfba7U, 0xbd842bed3b8cfba7U,
  0xbc53797abd842bedU, 0x3dede8aabe1e9b1cU, 0x3db03a91U, 0xbe1a333f3d303a91U,
  0xbdb90a4b3de518efU, 0xbe276ad6bd1e9b1cU, 0xbe81f7fe3e3d7228U, 0xbcf6b864bc0cfba7U,
  0x3da76ad6bdede8aaU, 0xbd303a913d53797aU, 0xbcf6b8643d0cfba7U, 0xbda76ad6bdf6b864U,
  0xbdcaa9c0bd95cb61U, 0x3cd3797a3dd3797aU, 0xbd76b8643d9e9b1cU, 0xbd842bedbdb03a91U,
  0x3b8cfba73c53797aU, 0xbcf6b8643ddc4935U, 0x3d53797abb8cfba7U, 0xbd95cb6100000000U,
  0x3b8cfba7bdf6b864U, 0x3de518ef3df6b864U, 0xbc53797abddc4935U, 0x3dcaa9c0bdd3797aU,
  0xbe0cfba7be916384U, 0x3e303a913c0cfba7U, 0x3ddc4935bf0be1b0U, 0xbd53797a3dede8aaU,
  0xbe34a26ebc8cfba7U, 0x3c8cfba73da76ad6U, 0x3d303a913db90a4bU, 0x3e8ac7b8be276ad6U,
  0x3d303a91bd95cb61U, 0xbdf6b864bd95cb61U, 0x3e34a26ebe41da06U, 0xbb8cfba7bd0cfba7U,
  0xbd842bed3e2bd2b4U, 0xbcb03a91beede8aaU, 0xbe0cfba7be4641e3U, 0x3e0cfba7U,
  0xbdff881fbdb90a4bU, 0xbd6518ef3c0cfba7U, 0xbdb90a4bbcd3797aU, 0xbd842bed3db03a91U,
  0xbddc49353cb03a91U, 0xbc8cfba7bdc1da06U, 0xbcf6b864bc53797aU, 0x3c53797abb8cfba7U,
  0x3d842bedbd303a91U, 0xbd9e9b1cbdb03a91U, 0x3dcaa9c03d53797aU, 0x3d76b8643ddc4935U,
  0x3cb03a913c8cfba7U, 0x3c8cfba7bdcaa9c0U, 0x3d303a913d53797aU, 0xbdb90a4b3cf6b864U,
  0xbef85c64bf1206eaU, 0xbcb7f896bf0d6d80U, 0xbb932d45bee3aa07U, 0x3c5cc3e83de5f6bcU,
  0x3e932d453dd39113U, 0xbd89fa713d89fa71U, 0xbddcc3e83e0e93dbU, 0x3e6a90263c132d45U,
  0xbd37f8963b932d45U, 0xbeb7f896bda592eeU, 0xbe17c6afbd89fa71U, 0xbdef2990be9eacceU,
  0x3d00c79cbd80c79cU, 0x3e20f9833dc12b6bU, 0xbdaec5c2beea9026U, 0x3e9eaccebd00c79cU,
  0xbdca5e3fbd00c79cU, 0x3c932d45bde5f6bcU, 0xbdd39113bd932d45U, 0xbd2592eebda592eeU,
  0x3db7f896bdc12b6bU, 0xbd80c79cbcdcc3e8U, 0x3dc12b6b3d37f896U, 0xbdb7f896bd89fa71U,
  0x3de5f6bc3d4a5e3fU, 0xbdca5e3fbda592eeU, 0xbda592eebdd39113U, 0xbdca5e3f3df85c64U,
  0xbdf85c643c932d45U, 0xbd37f8963d932d45U, 0x3b932d45bc932d45U, 0xbc5cc3e83de5f6bcU,
  0x3d6f2990be582a7dU, 0x3cdcc3e83ebedeb5U, 0xbdd39113be00c79cU, 0xbe932d453daec5c2U,
  0xbe6f29903ea7dfa3U, 0x3e056107bc132d45U, 0xbe2592eebe412b6bU, 0xbefcf5cfbe89fa71U,
  0xbe056107bdef2990U, 0x3ea7dfa3be2592eeU, 0x3ddcc3e83eb5abe1U, 0x3d89fa713d4a5e3fU,
  0x3cb7f896bcb7f896U, 0xbc5cc3e8bdb7f896U, 0xbda592ee3e80c79cU, 0xbd4a5e3f3e056107U,
  0x3d9c60193def2990U, 0x3dd39113bd37f896U, 0xbdb7f8963d37f896U, 0xbd6f2990bdca5e3fU,
  0xbc5cc3e8bde5f6bcU, 0xbc132d453dd39113U, 0xbd132d453d132d45U, 0x3ddcc3e83c132d45U,
  0x3db7f8963dd39113U, 0xbc132d45bd37f896U, 0x3de5f6bcbda592eeU, 0xbcb7f896bc932d45U,
  0x3cb7f8963d37f896U, 0x3c932d45bc932d45U, 0x3d9c60193e00c79cU, 0x3d9c6019bd5cc3e8U,
  0xbda17794bc3888a9U, 0xbd30d84dbe17db20U, 0xbe1d9f663c574a1aU, 0x3d7dbbe83bf60b8cU,
  0xbb760b8cbdea8301U, 0x3d760b8cbe741f75U, 0xbd6e5b30bdc7e962U, 0xbd9216dbbd6e5b30U,
  0xbd7dbbe83da54fc2U, 0x3af60b8c3d760b8cU, 0xbe3888a93cb888a9U, 0xbc760b8cbd47e962U,
  0xbe00ca0bbdad001eU, 0xbd47e962bd1216dbU, 0xbe5185d5baf60b8cU, 0x3ce6aad3be4dada7U,
  0x3df9e3ba3dc03905U, 0xbd2927f0bd9d9f66U, 0x3d0a667fbd403905U, 0xbdee5b303c760b8cU,
  0x3dee5b303dfdbbe8U, 0x3d0a667f3dc03905U, 0xbdea83013de2d2a5U, 0x3d66aad3bc19c738U,
  0x3c574a1abdcbc190U, 0x3d99c738bd8e3eadU, 0xbdcf99be3da54fc2U, 0xbc760b8cbdb4b07bU,
  0xbcf60b8c3db888a9U, 0xbc99c7383da54fc2U, 0x3d47e9623db4b07bU, 0xbdbc60d7bca927f0U,
  0xbe0c5296bbb888a9U, 0xbd02b622bd3888a9U, 0xbe5efa77bcb888a9U, 0xbe5efa77bde6aad3U,
  0xbdfdbbe83c760b8cU, 0xbdf2335e3ce6aad3U, 0xbb760b8cbe3888a9U, 0xbd82b6223c8a667fU,
  0xbbf60b8c3d4f99beU, 0x3d5efa77bbf60b8cU, 0xbe17db203da927f0U, 0xbe273bd9bd403905U,
  0xbcd74a1a3d0a667fU, 0x3d02b6223bb888a9U, 0xbd66aad3be0a667fU, 0xbddb2249be1216dbU,
  0xbd99c738bdd74a1aU, 0xbd5efa77baf60b8cU, 0x3d47e962bd19c738U, 0x3d66aad3bc8a667fU,
  0xbc8a667f3dbc60d7U, 0x3d99c738bd574a1aU, 0x3d4039053dbc60d7U, 0x3d99c738bdc41134U,
  0x3d5efa773ca927f0U, 0x3d19c73800000000U, 0x3cd74a1abdc41134U, 0x3df2335e3bb888a9U,
  0x3c3888a9bc19c738U, 0x3d9d9f663df9e3baU, 0x3dc7e962bdf60b8cU, 0xbde6aad33d7dbbe8U,
  0xbdd5d966bcf612b4U, 0xbdb2b227bd35a017U, 0xbda6fa683d9e3098U, 0xbdf036d4be2fc438U,
  0x3d7612b4bd6a5af5U, 0xbd9e30983d86c11aU, 0xbc3b7bf7be1566c9U, 0x3ca40c783cafc438U,
  0xbdacd648be09af09U, 0xbe3a04ffbe29e858U, 0xbdc157d7bcd2eb76U, 0x3c240c78be229580U,
  0x3cd2eb763d7036d4U, 0xbd4733b63bbb7bf7U, 0xbe0e13f13c52eb76U, 0x3b8c9cf9be1854b9U,
  0x3b3b7bf7bddbb545U, 0xbd86c11abdb2b227U, 0x3cbb7bf73dbe69e7U, 0xbdd2eb763df324c4U,
  0x3dafc4383c80e53aU, 0xbd29e8583dc157d7U, 0xbd35a017bda40c78U, 0xbd1278d9bdbb7bf7U,
  0xbd8c9cf9bdd2eb76U, 0x3dcd0f96bdea5af5U, 0x3c52eb76bd86c11aU, 0xbdbb7bf73cafc438U,
  0x3abb7bf73d1e3098U, 0x3d9854b9bd52eb76U, 0xbd58c7563cd2eb76U, 0xbd7bee943bea5af5U,
  0x3d7036d4bc0c9cf9U, 0xbd1e3098bc6a5af5U, 0xbd9566c9bc240c78U, 0xbd4157d7be34291fU,
  0x3df036d4bcc733b6U, 0xbcafc438bc8c9cf9U, 0x3d06c11a3c3b7bf7U, 0xbdf612b43c240c78U,
  0xbbbb7bf7bd2fc438U, 0xbe35a0173d80e53aU, 0xbcd2eb76bd6a5af5U, 0xbded48e5bda11e88U,
  0xbde47f15bd4d0f96U, 0xbbea5af5bcc733b6U, 0xbdfbee943d83d32aU, 0xbddea335bdcffd86U,
  0x3d58c7563dcffd86U, 0xbdc157d7bd52eb76U, 0x3da9e8583d2fc438U, 0x3ddea3353dbb7bf7U,
  0x3dca21a6bdb2b227U, 0xbd2fc438bdc733b6U, 0xbd9278d9bd1e3098U, 0x3dafc438bdc733b6U,
  0x3d35a0173ddbb545U, 0xbd35a017bdd8c756U, 0xbdb5a017bbea5af5U, 0x3d2fc4383cf612b4U,
  0x3d29e858bd35a017U, 0x3dea5af5bdca21a6U, 0xbdbe69e7bdbb7bf7U, 0x3cbb7bf73c52eb76U,
  0x3e08ba2dbd19d173U, 0xbe158ba13dbbfffeU, 0xbef38ba03e19d173U, 0x3e33745bbccd1744U,
  0xbe1145d0bd5e2e89U, 0xbe19d173be33745bU, 0x3e4045cfbe4045cfU, 0x3d6f45cf3df7d172U,
  0xbec045cfbe66ba2cU, 0xbb88ba2dbc4d1744U, 0xbdf7d172bd08ba2dU, 0xbe825173bda25d15U,
  0xbe4045cfbe8cfffeU, 0xbe8f22e73e1145d0U, 0xbd4d17443d88ba2dU, 0xbdef45cf3df7d172U,
  0x3ccd17443d802e8aU, 0x3d4d17443d99d173U, 0x3d08ba2dbd802e8aU, 0xbdd5a2e6bd2ae8b8U,
  0x3d5e2e89bd9145d0U, 0x3dbbfffebc08ba2dU, 0xbc88ba2d3d4d1744U, 0x3d4d1744bdb3745bU,
  0x3db3745b3d3bfffeU, 0x3dde2e89bd4d1744U, 0x3db3745bbc4d1744U, 0x3def45cf3db3745bU,
  0x3dbbfffebcef45cfU, 0x3d3bfffe3ccd1744U, 0xbd6f45cfbd2ae8b8U, 0xbd3bfffe3db3745bU,
  0xbd08ba2d3f025173U, 0xbe55a2e6bcef45cfU, 0x3de6ba2c3e37ba2cU, 0xbd19d1733c08ba2dU,
  0xbd802e8a3e515d15U, 0x3d6f45cf3e48d172U, 0x3d4d1744bcaae8b8U, 0x3c08ba2d3f07a8b9U,
  0xbdd5a2e6bdaae8b8U, 0x3def45cfbec268b8U, 0x3da25d153e4045cfU, 0x3da25d15bd6f45cfU,
  0x3e9368b93d4d1744U, 0xbe9368b9be04745cU, 0x3d5e2e893caae8b8U, 0xbe0cfffebe59e8b8U,
  0xbc88ba2d3def45cfU, 0x3df7d1723d6f45cfU, 0xbde6ba2cbd802e8aU, 0xbd6f45cfbccd1744U,
  0xbd88ba2dbde6ba2cU, 0x3d88ba2d3d9145d0U, 0xbd4d1744bdc48ba1U, 0x3b88ba2dbc08ba2dU,
  0x3dc48ba1bd4d1744U, 0x3b88ba2dbde6ba2cU, 0x3d19d173bd3bfffeU, 0x3d88ba2d3d4d1744U,
  0xbd3bfffebccd1744U, 0xbd08ba2d3d88ba2dU, 0x3d5e2e89bc4d1744U, 0xbdb3745bbde6ba2cU,
  0xbe330663bcf2bee5U, 0xbdd467093df2bee5U, 0xbd97b74fbe0b942aU, 0xbe608a2e3c91a5bdU,
  0xbec0adec3d858298U, 0x3c91a5bdbda3da74U, 0x3d29ec07be23da74U, 0xbe14ae863e4e5576U,
  0xbea25610be72bee5U, 0x3e4232513c11a5bdU, 0x3d0582983df2bee5U, 0xbc72bee53e83fe33U,
  0xbd0582983daffd99U, 0x3e5467093e29ec07U, 0x3de69bc03e9ac019U, 0xbe26e33e3d360f2cU,
  0xbda3da743d9dc8e2U, 0xbd1dc8e2bdecad53U, 0x3cc23251bd91a5bdU, 0xbdecad53bc423251U,
  0x3d72bee5bdecad53U, 0xbcf2bee5bc423251U, 0x3d8b942a3c11a5bdU, 0xbd4e5576bb423251U,
  0x3c11a5bdbd058298U, 0x3d29ec07bd72bee5U, 0xbdf2bee5bc91a5bdU, 0xbde69bc0bde08a2eU,
  0xbde08a2ebca9ec07U, 0x3df8d0783dd46709U, 0x3d360f2cbdf8d078U, 0x3dc843e4bd72bee5U,
  0xbe6392f7bd29ec07U, 0xbc72bee53c91a5bdU, 0x3e3c20bebd423251U, 0xbc72bee5be26e33eU,
  0xbe8e9cf300000000U, 0xbea256103d11a5bdU, 0x3e993bb43dd46709U, 0xbdecad53bd858298U,
  0xbe360f2c3d72bee5U, 0xbe8d188f3e1ac019U, 0xbebc20bebdb60f2cU, 0x3e0b942a3bc23251U,
  0x3cc23251bb423251U, 0xbe91a5bdbc72bee5U, 0xbdecad533e3917f5U, 0x3d423251bd11a5bdU,
  0x3dfee20abbc23251U, 0xbd423251bdc843e4U, 0x3d4e55763d1dc8e2U, 0xbd5a789bbd360f2cU,
  0xbd8b942a3d423251U, 0x3de08a2ebdda789bU, 0x3cc23251bdf8d078U, 0x3d7ee20abdd46709U,
  0xbd97b74f3d669bc0U, 0x3d29ec07bc91a5bdU, 0x3d72bee53db60f2cU, 0x3cda789bbc91a5bdU,
  0x3d72bee53dc23251U, 0xbdbc20bebc91a5bdU, 0x3c72bee53d360f2cU, 0x3dfee20aU,
  0xbd473dd63c994342U, 0xbe9758d13d37ea50U, 0xbd2896c93cb7ea50U, 0xbef34df93cb7ea50U,
  0x3e0dc49dbd09efbcU, 0x3e8245f8be8245f8U, 0x3e30408cbbf5386aU, 0xbda896c93e89efbcU,
  0x3da0ed06bdcee799U, 0xbd473dd63da896c9U, 0xbde5e4e3bd75386aU, 0xbe994342bd2896c9U,
  0xbd473dd6be790d4cU, 0xbe75386a3e34156eU, 0x3df5386a3e4368f4U, 0xbbf5386abdfce22dU,
  0x3dd6915d00000000U, 0x3dde3b203dc73dd6U, 0x3db7ea503de5e4e3U, 0x3da0ed063dcee799U,
  0xbdd6915d3cf5386aU, 0x3dbf94133d8245f8U, 0x3d65e4e3bdde3b20U, 0x3dc73dd6bde5e4e3U,
  0xbda0ed06bda0ed06U, 0xbd75386a3d09efbcU, 0xbd91997fU, 0xbda896c9bda0ed06U,
  0xbdb0408cbd8245f8U, 0xbd65e4e33c994342U, 0xbd2896c9bdcee799U, 0xbda0ed063dbf9413U,
  0xbd37ea503d65e4e3U, 0xbe061adabd75386aU, 0x3e34156ebbf5386aU, 0xbe65e4e3bcb7ea50U,
  0xbdbf94133dd6915dU, 0xbd473dd6be11997fU, 0x3d473dd6bdf5386aU, 0x3cb7ea503dfce22dU,
  0x3d473dd63cf5386aU, 0x3ded8ea7bdd6915dU, 0xbd9943423d473dd6U, 0x3dcee799bd994342U,
  0x3e0dc49d3e3bbf31U, 0xbd194342be2c6babU, 0xbd1943423d09efbcU, 0x3d8245f8be4b12b8U,
  0xbd473dd6bd09efbcU, 0x3ded8ea73da0ed06U, 0xbc994342bd994342U, 0xbc37ea5000000000U,
  0xbc994342bdd6915dU, 0x3dd6915dbdfce22dU, 0xbde5e4e33de5e4e3U, 0xbda0ed06bdcee799U,
  0xbdf5386abdb0408cU, 0x3dd6915d3df5386aU, 0x3da896c93dd6915dU, 0x3d56915d3b75386aU,
  0xbdb7ea503cb7ea50U, 0xbde5e4e3bd2896c9U, 0xbdc73dd6bdcee799U, 0xbdc73dd6bdb0408cU,
  0xbe562625be9d4403U, 0x3d85d7d73eaaa665U, 0xbd05d7d73cd62625U, 0xbdf0eaea3c562625U,
  0x3d933a39bee02fefU, 0xbf5479d93e70eaeaU, 0xbc562625bd85d7d7U, 0x3de388873df0eaeaU,
  0xbe8fe1a1be638887U, 0xbd5626253d05d7d7U, 0xbe933a39bea74dcdU, 0xbe48c3c33e133a39U,
  0x3c5626253d562625U, 0xbeb4b02fbc562625U, 0xbd3b6160be3b6160U, 0xbd85d7d7bd209c9cU,
  0x3d85d7d7bde38887U, 0x3dc8c3c3bd05d7d7U, 0x3df0eaea00000000U, 0xbdbb61603df0eaeaU,
  0x3d933a39bdbb6160U, 0x3ca09c9cbde38887U, 0x3dadfefe3d85d7d7U, 0x3dfe4d4c3d562625U,
  0x3d209c9cbdd62625U, 0xbdadfefebdfe4d4cU, 0xbde38887U, 0x3c5626253dbb6160U,
  0xbdbb61603d3b6160U, 0xbdfe4d4c3dc8c3c3U, 0xbd933a393d3b6160U, 0x3c5626253d85d7d7U,
  0xbedcd756be8c8908U, 0xbdc8c3c3bdf0eaeaU, 0x3dd626253dbb6160U, 0xbd70eaea3dfe4d4cU,
  0xbec8c3c3bca09c9cU, 0xbf0930703d05d7d7U, 0xbdf0eaeabca09c9cU, 0x3d05d7d73e421292U,
  0xbea74dcd3e5cd756U, 0xbd933a39bd209c9cU, 0xbe70eaeabe3b6160U, 0x3e827f3fbd933a39U,
  0x3e6388873e19eb6bU, 0xbf4f74f43d70eaeaU, 0xbd933a39bcd62625U, 0x3dadfefebe48c3c3U,
  0xbda09c9c3d3b6160U, 0xbd933a39bd933a39U, 0x3dd626253cd62625U, 0xbd85d7d7bd209c9cU,
  0x3da09c9c3dc8c3c3U, 0xbdadfefebbd62625U, 0x3df0eaeabd3b6160U, 0x3d209c9c3d562625U,
  0x3bd62625bd85d7d7U, 0xbd209c9c3d933a39U, 0xbda09c9c3ca09c9cU, 0x3dc8c3c3bdbb6160U,
  0x3d85d7d7bdf0eaeaU, 0x3d05d7d73d933a39U, 0x3d70eaeabd933a39U, 0x3d562625bc562625U,
  0xbd4fd6f03dcb1db0U, 0xbd3cf1f13c0442f6U, 0x3d0442f6bdbcf1f1U, 0xbe0442f6bcb37f72U,
  0xbd9984943d869f95U, 0x3d1be134bcff136cU, 0x3d466470bd94cb54U, 0xbdc664703c8db575U,
  0x3d75a0ecbd1be134U, 0xbcff136cbdc66470U, 0xbd1727f4bde2bbeeU, 0xbd41ab31bcc66470U,
  0xbe101215bd1be134U, 0x3cd9496fbe08fc35U, 0xbe15f9a43d8442f6U, 0xbd0442f63cf5a0ecU,
  0x3d8db575bc2a0cf2U, 0xbc62bbee3d67752eU, 0xbcb37f723be2bbeeU, 0xbcbcf1f13d08fc35U,
  0x3d7a5a2c3d8db575U, 0xbd8db5753d8b58d5U, 0xba9727f43da553b3U, 0xbd8b58d53daa0cf2U,
  0x3d209a73bdc66470U, 0xbdba95513de5188eU, 0xbd926eb4bd59496fU, 0x3dd2338fbd2553b3U,
  0xbda7b0533bbcf1f1U, 0xbccfd6f0bd81e656U, 0xbdd4902f3d466470U, 0x3daa0cf23dd6eccfU,
  0xbd54902fbdcb1db0U, 0xbc62bbeebdd6eccfU, 0x3b62bbeebd08fc35U, 0xbcb37f72be126eb4U,
  0x3d70e7ad3cf5a0ecU, 0xbd3cf1f13d70e7adU, 0xbd2ec632bde05f4eU, 0x3dbcf1f13dac6992U,
  0xbd7a5a2c3dbcf1f1U, 0x3d2ec632bda09a73U, 0xbd75a0ecbdaec632U, 0x3d9e3dd33d41ab31U,
  0xbdba9551bdf3444dU, 0xbda09a73bd9e3dd3U, 0x3c9727f4bdb5dc12U, 0xbbbcf1f1bde5188eU,
  0xbdff136c3c9727f4U, 0xbc3cf1f1bd81e656U, 0xbdcfd6f0bd901215U, 0xbdd2338f3de5188eU,
  0xbdcfd6f0bdd2338fU, 0x3da553b3bd75a0ecU, 0xbd6c2e6dbcf5a0ecU, 0x3d41ab31bcc66470U,
  0x3d2ec632bdb122d2U, 0xbda553b33dbf4e91U, 0x3dde02ae3dfcb6ccU, 0xbbe2bbee3d4fd6f0U,
  0xbde2bbeebdaa0cf2U, 0xbda7b053bb1727f4U, 0xbd7f136cbd3838b1U, 0x3caa0cf2bc75a0ecU,
  0xbe3d0b14bde3e346U, 0x3cf89ad8bdee3f0fU, 0xbdc4cfebbd3a7422U, 0x3e8a8ba03c25bc90U,
  0x3ea47117bd9104feU, 0x3da08eac3d9b60c7U, 0x3d8bd71a3da08eacU, 0x3dc9fdd0bde3e346U,
  0xbba5bc903d25bc90U, 0xbd301859bce3e346U, 0x3d86a935bd9632e2U, 0xbe32af4bbcf89ad8U,
  0xbda08eac3d59877dU, 0x3d3a7422be37dd30U, 0x3e06a935bd06a935U, 0x3ba5bc903cf89ad8U,
  0xbdc4cfeb3dee3f0fU, 0xbce3e3463de3e346U, 0x3db5463ebdc9fdd0U, 0xbdb5463e3d817b50U,
  0x3dc9fdd0bdf36cf4U, 0xbca5bc90bcf89ad8U, 0x3dc9fdd03d59877dU, 0xbd1b60c73d6e3f0fU,
  0xbdb5463e3cf89ad8U, 0x3d9632e23dcf2bb4U, 0xbde3e346bd301859U, 0x3d86a9353d63e346U,
  0x3da08eac3de3e346U, 0x3df36cf4bdee3f0fU, 0x3dd45998bd06a935U, 0xbd3a74223db5463eU,
  0xbcf89ad83db5463eU, 0x3dcf2bb4bd4f2bb4U, 0x3dbfa2063e139bf0U, 0x3d1b60c7bc9104feU,
  0x3e35463ebda5bc90U, 0x3df89ad83ccf2bb4U, 0x3daaea743ccf2bb4U, 0xbe977e5cbe094027U,
  0x3e82c6ca3e041243U, 0x3da08eac3e041243U, 0x3e87f4aebd59877dU, 0xbdaaea743d301859U,
  0xbd44cfebbdd45998U, 0xbdb01859be094027U, 0x3d1b60c73e69112aU, 0x3cf89ad83ca5bc90U,
  0x3dba74223daaea74U, 0xbca5bc903d59877dU, 0x3da08eac3c4f2bb4U, 0x3dd9877dbdd45998U,
  0xbddeb562bd817b50U, 0xbc4f2bb43d9104feU, 0xbd44cfeb3d8bd71aU, 0x3c789ad8bd1b60c7U,
  0xbc789ad8bdc4cfebU, 0xbcba74223df36cf4U, 0x3b25bc90bc4f2bb4U, 0x3b25bc903d817b50U,
  0x3daaea743dba7422U, 0xbd1b60c7bba5bc90U, 0x3df36cf4U, 0x3d25bc903d59877dU,
  0x3e2a26663c8dcaaaU, 0x3e6669543df822aaU, 0x3d62dddd3e4a0d99U, 0xbdb13d553e032844U,
  0x3df10bbb3be2ddddU, 0xbcff39993e0dcaaaU, 0x3e34c8ccbd1bf888U, 0xbd385444bea69aeeU,
  0x3df10bbb3db85444U, 0x3e2db1ddbe986d10U, 0x3be2dddd3e4d9910U, 0xbe1bf888bd94e199U,
  0xbd8dcaaabbe2ddddU, 0xbe7822aabeb4c8ccU, 0xbde2ddddbd62ddddU, 0xbde2dddd3df822aaU,
  0xbd62ddddbd54afffU, 0xbdf822aa3ce2ddddU, 0x3d8dcaaabcff3999U, 0x3d710bbbbdaa2666U,
  0xbde2dddd3de9f4ccU, 0x3c2a26663d468221U, 0xbdc682213d86b3bbU, 0x3d0dcaaa3d0dcaaaU,
  0x3dbf6b323d54afffU, 0x3dd4afff3d2a2666U, 0x3d7f3999bdf10bbbU, 0x3c2a2666bd94e199U,
  0x3db854443df10bbbU, 0x3dc68221bb62ddddU, 0x3c62dddd3d1bf888U, 0xbd0dcaaabb62ddddU,
  0x3df10bbb3daa2666U, 0x3c2a2666be666954U, 0x3ddbc6ee3d8dcaaaU, 0x3caa26663d468221U,
  0x3e14e1993db85444U, 0xbc8dcaaabd385444U, 0x3d1bf8883d7f3999U, 0x3daa2666be9dbe44U,
  0x3dc682213ddbc6eeU, 0xbd54afffbd86b3bbU, 0xbe06b3bb3e7822aaU, 0x3dcd9910bde9f4ccU,
  0x3cc68221be313d55U, 0xbe94e1993e0dcaaaU, 0xbee11821bddbc6eeU, 0x3df822aabd1bf888U,
  0xbcff3999bdff3999U, 0x3de2dddd3df10bbbU, 0xbde2ddddbd1bf888U, 0x3c8dcaaa3ce2ddddU,
  0x3d4682213de9f4ccU, 0x3d86b3bbbd8dcaaaU, 0xbde2ddddbdcd9910U, 0xbd3854443ce2ddddU,
  0x3d2a26663d9bf888U, 0xbc2a2666bd710bbbU, 0xbc62ddddbd62ddddU, 0x3d710bbbbce2ddddU,
  0x3da30f773be2ddddU, 0x3cc682213d8dcaaaU, 0x3d710bbb3da30f77U, 0x3ce2ddddbc2a2666U,
  0xbd44f7df3db8a861U, 0x3dd1475d3d93b9e7U, 0x3e076a693e44f7dfU, 0xbe38a8613c93b9e7U,
  0xbe19e1a63e0d9228U, 0x3e576f1cbdac58e3U, 0x3dac58e33eb59482U, 0xbe7c5d96be51475dU,
  0x3df635d73ea94504U, 0xbd93b9e700000000U, 0xbc93b9e700000000U, 0x3dd1475dbe0142aaU,
  0x3ddd96db3e0142aaU, 0xbeda82fb3d7635d7U, 0xbe0d92283dc4f7dfU, 0x3e93b9e73e263124U,
  0x3dd1475dbcc4f7dfU, 0x3dc4f7dfbcf635d7U, 0x3bc4f7dfbcf635d7U, 0xbd93b9e73d7635d7U,
  0xbdb8a8613dd1475dU, 0x3d44f7df3d13b9e7U, 0x3ddd96dbbdb8a861U, 0x3d2c58e3bcc4f7dfU,
  0x3db8a8613c93b9e7U, 0x3d44f7df3d7635d7U, 0xbd13b9e7bd876a69U, 0x3d13b9e73d876a69U,
  0x3d93b9e73da00965U, 0xbd93b9e7bd876a69U, 0x3db8a861bdac58e3U, 0x3bc4f7dfbbc4f7dfU,
  0x3bc4f7df3de9e659U, 0xbddd96dbbe2c58e3U, 0xbe84568abc93b9e7U, 0xbf04568abec1e400U,
  0xbf436def00000000U, 0x3ea31d45be3ed020U, 0x3e19e1a6be51475dU, 0xbe0142aabe90a608U,
  0xbe99e1a6bec1e400U, 0xbdac58e3bea00965U, 0x3d876a69bdac58e3U, 0xbcf635d73de9e659U,
  0xbe700e18be44f7dfU, 0x3e44f7df3d2c58e3U, 0x3e5d96db3e263124U, 0xbeac58e33bc4f7dfU,
  0x3dac58e3bcf635d7U, 0xbd44f7df3db8a861U, 0xbd93b9e73c44f7dfU, 0x3bc4f7dfbdac58e3U,
  0xbdac58e33db8a861U, 0x3c93b9e73df635d7U, 0x3cc4f7dfbda00965U, 0xbd13b9e73d2c58e3U,
  0xbcc4f7df3dc4f7dfU, 0xbd7635d7bbc4f7dfU, 0x3df635d7bc93b9e7U, 0x3dd1475dbd13b9e7U,
  0x3d13b9e73d13b9e7U, 0xbcc4f7df3c44f7dfU, 0xbd13b9e73c93b9e7U, 0x3ddd96db3db8a861U,
  0x3dafd7503d4bdfaaU, 0xbbcbdfaa3ccbdfaaU, 0xbd79becabd46c6e0U, 0x3da31955bdafd750U,
  0x3d2d4aeabbf4a600U, 0x3cb77c80bd81f830U, 0x3dba08e5be114290U, 0xbe0710fabe048495U,
  0xbc6042d5bd41ae15U, 0xbe0ae392bdcbdfaaU, 0xbe17a18d3c377c80U, 0xbd561140bdad4aeaU,
  0xbd79becabce042d5U, 0x3d18e7c0bd6042d5U, 0xbdf9becabe21d322U, 0xbcea746abe1e008aU,
  0xbd9e008abbf4a600U, 0xbde55ba0bdc43a7aU, 0xbd93cef5U, 0xbba319553d50f875U,
  0xbd2d4aea3d9e008aU, 0x3cad4aea3de55ba0U, 0xbca31955bd3c954aU, 0x3de7e8053dd61140U,
  0xbded00d03de7e805U, 0x3d98e7c03d1e008aU, 0xbd6042d5bda08cf0U, 0xbcd611403d13cef5U,
  0xbb74a6003c231955U, 0x3cd61140bbcbdfaaU, 0xbd46c6e0bd2d4aeaU, 0x3d5b2a0a3d914290U,
  0xbdfed795bc848495U, 0x3d8eb62a3d899d60U, 0xbdb4f01a3d5b2a0aU, 0x3d9e008abdf73265U,
  0x3d8710fabd8c29c5U, 0xbdd0f875be18e7c0U, 0x3d74a6003c377c80U, 0x3d6f8d35bd3263b5U,
  0xbd3c954a3da08cf0U, 0xbd3c954abdb263b5U, 0xbda5a5ba3d3c954aU, 0xbdddb670be048495U,
  0xbd6042d53c74a600U, 0x3d81f830bd79becaU, 0xbd283220bdc6c6e0U, 0x3d231955bdf2199aU,
  0x3db4f01abdd0f875U, 0xbdad4aeabdcbdfaaU, 0xbd8eb62abd655ba0U, 0xbdea746abd3c954aU,
  0xbd5b2a0a3d98e7c0U, 0xbdc953453d4bdfaaU, 0x3b74a6003da08cf0U, 0xbdd384dabb74a600U,
  0xbd81f8303de55ba0U, 0xbc4bdfaa3da31955U, 0xbdc6c6e03d18e7c0U, 0x3ddb2a0a3de7e805U,
  0x3da5a5ba3dc43a7aU, 0xbdaabe85bc6042d5U, 0xbc0eb62abda83220U, 0xbc8eb62abd8c29c5U,
  0x3d289de7bd9949baU, 0xbc37f213be3047fdU, 0xbd1949babeac72f2U, 0xbef3583ebd824b78U,
  0xbe47463f3c7542c4U, 0xbd569a6c3cf542c4U, 0xbdde44823d289de7U, 0x3e4ef055bbf542c4U,
  0xbdc7463fbe7917cfU, 0xbded98aebe289de7U, 0x3de5ee98be37f213U, 0xbe20f3d13d89f58eU,
  0x3cf542c4bd89f58eU, 0xbdcef0553de5ee98U, 0x3cb7f2133cd69a6cU, 0xbdb7f2133d37f213U,
  0x3d9949babda0f3d1U, 0x3ded98ae3c7542c4U, 0xbd569a6c3d9949baU, 0x3dfcecda3cf542c4U,
  0x3d824b783dfcecdaU, 0x3d289de73d65ee98U, 0x3cd69a6c3c37f213U, 0x3d09f58e3d289de7U,
  0x3df542c4bdd69a6cU, 0x3c37f2133de5ee98U, 0xbb7542c43d9949baU, 0xbda0f3d13d824b78U,
  0xbdfcecda3c7542c4U, 0x3c9949ba3bf542c4U, 0x3d9949ba3d09f58eU, 0xbd47463f3de5ee98U,
  0xbb7542c4bc7542c4U, 0xbda89de7bcf542c4U, 0x3e37f2133d37f213U, 0xbe7917cfbdcef055U,
  0xbe47463f3e341d08U, 0x3bf542c4be09f58eU, 0xbcf542c4be1574afU, 0xbdde44823c9949baU,
  0xbe2c72f23d289de7U, 0xbd569a6c3d824b78U, 0xbd47463f3e289de7U, 0x3eae5d77bdb7f213U,
  0x3da89de73e7542c4U, 0x3e09f58ebda0f3d1U, 0xbe3f9c293e4ef055U, 0xbe024b78bdd69a6cU,
  0x3dcef055bd47463fU, 0xbbf542c4bd65ee98U, 0xbd1949ba3d65ee98U, 0x3c37f2133d65ee98U,
  0x3d47463f3d7542c4U, 0x3d824b783ded98aeU, 0x3d824b783dbf9c29U, 0x3d65ee98bc7542c4U,
  0xbd7542c4bbf542c4U, 0xbdc7463fbdf542c4U, 0xbb7542c4bd824b78U, 0x3dd69a6c3d824b78U,
  0x3c9949ba00000000U, 0xbd569a6c3df542c4U, 0x3ded98aebdb7f213U, 0xbdb047fdbdf542c4U,
  0xbdb8197ebdb104d1U, 0x3d0d9d74be7ee838U, 0x3e546c2fbea4a0a4U, 0x3e02fe72bee0d05cU,
  0xbd7ee8383e1127caU, 0xbdbf2e2abdc642d6U, 0xbe50e1d83ce29587U, 0xbce29587be82fe72U,
  0xbe6d3489bdc642d6U, 0x3d8d9d74beb104d1U, 0x3dbf2e2abe2d7a7bU, 0x3e22db793c29f025U,
  0x3db104d13dcd5782U, 0x3e70bedfbe14b221U, 0x3e7b5de2bd8d9d74U, 0xbc6295873cfee838U,
  0x3de295873d70bedfU, 0x3d29f0253ddb80dbU, 0xbd546c2fbdbf2e2aU, 0x3d29f0253de9aa33U,
  0x3d94b221bdf7d38cU, 0xbde295873d546c2fU, 0x3de9aa33bd8688c8U, 0x3d94b2213d0d9d74U,
  0xbd546c2fbc629587U, 0x3df0bedfbdbf2e2aU, 0x3d29f0253da9f025U, 0x3d29f025bcfee838U,
  0xbde29587bde29587U, 0x3dc642d63ddb80dbU, 0xbdd46c2fbda2db79U, 0x3da9f025U,
  0x3e3ba3d4be183c77U, 0xbd4642d6bddb80dbU, 0x3d6295873e0a131eU, 0x3e4642d6bd8d9d74U,
  0xbedb80db3dc642d6U, 0x3de9aa33be348f28U, 0xbe3104d1bd8688c8U, 0xbe884df3bddb80dbU,
  0x3dfee838bd70bedfU, 0x3d1bc6cd3be29587U, 0xbdc642d6bc629587U, 0x3d8688c83c629587U,
  0x3e1f51233ddb80dbU, 0xbe6d34893dc642d6U, 0xbcfee8383be29587U, 0xbda2db79U,
  0x3de9aa333dd46c2fU, 0xbd70bedfbdf0bedfU, 0xbd94b221bd8688c8U, 0xbd9bc6cdbdfee838U,
  0xbc629587bd4642d6U, 0x3d8d9d743c29f025U, 0x3ddb80dbU, 0x3da9f025bd94b221U,
  0xbdbf2e2abcc642d6U, 0x3da2db793df0bedfU, 0xbc8d9d743de29587U, 0xbd8688c8bd70bedfU,
  0x3ce29587bca9f025U, 0xbde295873dcd5782U, 0x3dcd57823d29f025U, 0x3cc642d63c8d9d74U,
  0x3da4ab1b3d9efd7bU, 0xbd410f3abda4ab1bU, 0xbb8846fcbd82995cU, 0xbdd7c5b9be1efd7bU,
  0xbdb88acabd79d778U, 0x3cc10f3abde8ce98U, 0xbd68ce98be012df4U, 0xbdeba568bd3b619aU,
  0x3db5b3fabd82995cU, 0xbd85702cbc6320f8U, 0xbe1abb43bd79d778U, 0xbde8ce983caa58baU,
  0x3db88acabdfcae48U, 0xbde8ce98bde04a29U, 0x3cd7c5b9be06db94U, 0x3c93a23bbdb2dd2aU,
  0x3be320f83d3b619aU, 0x3cee7c383dfcae48U, 0x3daa58ba3d90cb6bU, 0x3d7f85183d521819U,
  0x3cd7c5b93dda9c89U, 0xbd8df49bbc35b3faU, 0xbd7429d8bdcc6a79U, 0x3da4ab1b3be320f8U,
  0x3de320f83daa58baU, 0x3c0846fcbdcf4149U, 0xbc1efd7bbdf429d8U, 0x3d79d7783deba568U,
  0x3d6320f83cd7c5b9U, 0x3d82995c3c6320f8U, 0x3dc6bcd9bdd21819U, 0x3d68ce983de04a29U,
  0xbdbe386abc8846fcU, 0xbde5f7c8bdc993a9U, 0xbdf153083d30065aU, 0xbe0c8933bdb0065aU,
  0x3d24ab1b3c4c6a79U, 0xbdeba568bdc10f3aU, 0xbdcf4149bcc10f3aU, 0x3d0df49bbc0846fcU,
  0xbdf700a8bc4c6a79U, 0xbdeba568bd8846fcU, 0x3cd7c5b9bcee7c38U, 0xbcaa58babb35b3faU,
  0xbe194fdb3d8df49bU, 0xbe3448923d79d778U, 0xbdc993a9bd0df49bU, 0xbde8ce98bce320f8U,
  0xbc4c6a793d1efd7bU, 0x3db0065a3d0df49bU, 0x3d93a23b3de04a29U, 0x3c35b3fa3d3b619aU,
  0x3d93a23b3df15308U, 0xbd0df49bbdb2dd2aU, 0x3d6e7c383dff8518U, 0xbd2a58ba3da1d44bU,
  0xbde04a29bdb88acaU, 0xbde04a293dc10f3aU, 0xbdd7c5b9bd9efd7bU, 0xbcaa58ba3d4c6a79U,
  0xbdff8518bdbb619aU, 0x3dc3e60a3d02995cU, 0x3d6e7c383dad2f8aU, 0xbdbb619abd4c6a79U,
  0xbca05995be09715bU, 0x3c09715bbc3741cfU, 0xbcb741cfbe0248c9U, 0xbd4e2a09bdbcfbddU,
  0xbd03b74dbdaeaab9U, 0xbdabcdb2bdaeaab9U, 0xbd09715bbd3cfbddU, 0xbd03b74dbdb741cfU,
  0x3cb741cf3d0f2b6aU, 0xbcabcdb2bdfed784U, 0x3d53e417bda613a4U, 0x3d3187c13d205995U,
  0x3c4e2a09be35d34bU, 0xbdd3e417be0525d0U, 0xbdaeaab9bd1a9f87U, 0xbddf5834bd2bcdb2U,
  0x3de512433cabcdb2U, 0xbca059953d8f2b6aU, 0x3cfbfa7d3d8c4e62U, 0x3dba1ed6bb89715bU,
  0xbce51243bc7bfa7dU, 0xbd42b5ecbc651243U, 0xbab741cf3de51243U, 0xbdfed7843c3741cfU,
  0xbcb741cf3d869454U, 0x3da8f0abbd2bcdb2U, 0xbdbfd8e53cd99e26U, 0xbdd10710bddc7b2dU,
  0xbd2bcdb2bce51243U, 0x3d83b74dbd3741cfU, 0xbda613a43d83b74dU, 0x3dbcfbddbd205995U,
  0x3d76406e3d3741cfU, 0x3ce512433cc2b5ecU, 0xbdbcfbdd3dc86ffaU, 0xbd3187c1bc205995U,
  0x3c4e2a093c3741cfU, 0xbd80da463d651243U, 0xbb89715bbe0525d0U, 0xbb89715bbcd99e26U,
  0xbdeda958bde51243U, 0xbd53e4173d9a9f87U, 0xbe0248c9bd920871U, 0x3d3cfbdd3cf08660U,
  0xbd9d7c8ebe3464c8U, 0xbdc86ffa3d2bcdb2U, 0xbd2613a43d7bfa7dU, 0xbdc592f3bdc2b5ecU,
  0x3cfbfa7dbd53e417U, 0xbd599e263d76406eU, 0xbde51243bce51243U, 0xbcf086603d869454U,
  0x3dd6c11fbdeacc51U, 0xbcfbfa7d3dbfd8e5U, 0xbd9d7c8e3cc2b5ecU, 0xbddf58343cc2b5ecU,
  0xbde2353c3d03b74dU, 0xbdaeaab9bb3741cfU, 0xbdaeaab93dd3e417U, 0x3d80da46bce51243U,
  0xbdcb4d02bdb741cfU, 0x3ca059953ab741cfU, 0xbcce2a09bb89715bU, 0x3d09715b3d4e2a09U,
  0xbe18094abe0de689U, 0xbbd83ab93c222c0bU, 0x3ba22c0b3dbd3362U, 0x3d28ede1bcbd3362U,
  0xbb583ab9bd0724b4U, 0x3d0062de3c0724b4U, 0x3d2fafb6bd0de689U, 0xbd5178e3be34c117U,
  0xbe31602cbccab70dU, 0x3d8724b43cf34210U, 0xbd3d3362bde5be65U, 0xbd9ecb20bda58cf6U,
  0xbdb9d277be34c117U, 0x3c0724b4be23dc80U, 0xbdd83ab9bcafafb6U, 0x3cd83ab9be568a44U,
  0x3dce17f83dac4ecbU, 0xbccab70d3d583ab9U, 0x3d7a03e6bd43f538U, 0xbdcab70d3dafafb6U,
  0x3da8ede13c3d3362U, 0xbd9ecb2000000000U, 0x3df342103d583ab9U, 0xbd2fafb63da58cf6U,
  0x3d0724b43d222c0bU, 0xbd2fafb63de25d7aU, 0xbdc0944d3d7a03e6U, 0xbd8724b43cd83ab9U,
  0xbdcab70d3d94a85fU, 0x3b583ab93dfd64d1U, 0xbde91f4fbd7a03e6U, 0xbdfd64d1bad83ab9U,
  0xbcafafb6bd0062deU, 0xbc8724b4bc94a85fU, 0xbd5efc8f3ddefc8fU, 0xbd5efc8fbc0724b4U,
  0x3cafafb6be532959U, 0x3d3d33623da8ede1U, 0xbe12f7eabccab70dU, 0x3d8de6893ca22c0bU,
  0x3c734210bdce17f8U, 0xbde25d7a3c3d3362U, 0xbdf6a2fb3d0de689U, 0xbdec803a3cbd3362U,
  0xbd83c3c9bc222c0bU, 0xbe3d33623ba22c0bU, 0x3c3d33623b583ab9U, 0xbd83c3c9be34c117U,
  0xbdf34210bdac4ecbU, 0x3d65be65bd5efc8fU, 0xbd9ecb203dd178e3U, 0x3e0062de3defe125U,
  0x3db9d277bc94a85fU, 0x3da8ede13dfd64d1U, 0x3dce17f83d222c0bU, 0xbce5be65bd2fafb6U,
  0xbc3d3362bdec803aU, 0x3d6c803a3c8724b4U, 0x3d98094a3ad83ab9U, 0xbd7a03e63d1b6a35U,
  0xbd3d33623dc0944dU, 0x3c0724b43dc0944dU, 0xbc94a85f3d0de689U, 0xbd98094a3cd83ab9U,
  0xbd2a1ebf3de6e096U, 0x3e2a1ebfbf40e76fU, 0xbd91d1363e0bbdd4U, 0xbe3645843d9df7faU,
  0x3e0bbdd4be2a1ebfU, 0x3d9df7fa3cf3075aU, 0x3c91d1363d426c48U, 0x3ebc58e6bc91d136U,
  0x3d11d136bdce930cU, 0xbd5ab9d1be9aee49U, 0xbe791abc3d85aa72U, 0xbe82a0c0bd2a1ebfU,
  0xbd5ab9d1bdc26c48U, 0xbe97e498bf1aee49U, 0xbe9df7fabead2870U, 0x3d91d1363bc26c48U,
  0x3d5ab9d1bc91d136U, 0x3c426c48bd5ab9d1U, 0x3daa1ebf3d2a1ebfU, 0xbdb64584bcc26c48U,
  0xbd426c48bdf3075aU, 0xbde6e096bdaa1ebfU, 0xbd73075a3d426c48U, 0xbdb64584bd5ab9d1U,
  0xbcc26c48bdc26c48U, 0xbdb645843dff2e1eU, 0x3c91d1363c91d136U, 0xbd426c48bd426c48U,
  0x3d85aa723d73075aU, 0x3dff2e1e3d9df7faU, 0xbd11d1363d73075aU, 0xbde6e0963d73075aU,
  0x3e1df7fa3e303221U, 0xbcc26c483ddab9d1U, 0x3d11d1363de6e096U, 0xbd2a1ebf3eaa1ebfU,
  0xbe9aee493e8bbdd4U, 0xbd2a1ebf3daa1ebfU, 0x3ddab9d1bd73075aU, 0xbdf3075a3e17e498U,
  0x3e3c58e6bd9df7faU, 0x3d2a1ebf3d5ab9d1U, 0x3ddab9d13ea40b5dU, 0x3e11d136bc91d136U,
  0xbd85aa72bde6e096U, 0x3e17e4983c426c48U, 0xbe05aa72bcf3075aU, 0xbe05aa723d2a1ebfU,
  0xbdaa1ebfbc91d136U, 0x3daa1ebfbd85aa72U, 0x3d73075a3cf3075aU, 0xbcf3075a3d11d136U,
  0x3de6e09600000000U, 0x3d2a1ebf3dc26c48U, 0xbd2a1ebfbdce930cU, 0x3ddab9d1bdb64584U,
  0x3df3075a3cc26c48U, 0xbd426c48bdce930cU, 0x3c426c48bdff2e1eU, 0xbddab9d13dce930cU,
  0xbdb645843d426c48U, 0xbdf3075a3db64584U, 0xbdc26c48bd73075aU, 0x3d426c48bd73075aU,
  0xbe0cee57be246b66U, 0xbe2b216a3ca11064U, 0xbed513043e2b216aU, 0x3e27c668bdc9547dU,
  0xbd56c085be1db562U, 0xbdd00a813d56c085U, 0xbcbbe874bc211064U, 0xbd063853bdd6c085U,
  0xbdb53270bd7f049eU, 0xbe642c8dbd13a45bU, 0xbd13a45bbe82dd51U, 0xbe104959be2b216aU,
  0xbe246b66be500a81U, 0xbcbbe874be8cee57U, 0xbc56c0853d863853U, 0xbdae7c6cbe1a5a60U,
  0x3ddd76893d7f049eU, 0xbbd6c085bb56c085U, 0x3d7f049ebbd6c085U, 0xbbd6c085bd211064U,
  0xbd0638533bd6c085U, 0x3d211064bcf19896U, 0x3d063853bcd6c085U, 0x3dc9547dbc863853U,
  0x3dc9547dbd2e7c6cU, 0xbc56c0853dc9547dU, 0x3da11064bd9a5a60U, 0xbdeae291bdc29e79U,
  0x3dc29e79bdc29e79U, 0x3da7c668bddd7689U, 0xbd7f049e3c56c085U, 0xbddd7689bd8cee57U,
  0x3cbbe8743eb384efU, 0x3e02dd513d8cee57U, 0xbd93a45bbd93a45bU, 0xbe7f049e3deae291U,
  0xbdf84e9a3dc29e79U, 0x3d2110643e1a5a60U, 0xbe82dd51bebf4376U, 0x3e5365833d719896U,
  0xbdf198963e642c8dU, 0xbe8b40d6be429e79U, 0x3deae2913c863853U, 0x3db53270be16ff5eU,
  0x3d49547dbdbbe874U, 0x3e429e793ddd7689U, 0x3e063853beccaf7fU, 0x3d7198963e211064U,
  0x3dc9547dbde42c8dU, 0x3da11064bdf19896U, 0x3d3be8743d8cee57U, 0x3db532703d9a5a60U,
  0xbdbbe8743b56c085U, 0xbbd6c0853d719896U, 0xbc2110643deae291U, 0x3dbbe874bd7f049eU,
  0xbdc9547d3d063853U, 0xbd7f049e3d7f049eU, 0x3da7c6683c863853U, 0x3dc9547dbddd7689U,
  0x3cf198963dbbe874U, 0xbcd6c0853ca11064U, 0x3cbbe8743c863853U, 0xbbd6c0853dc29e79U,
  0xbdd6e92a3d3317a3U, 0xbc8f461cbda12ee0U, 0xbe764080be0651baU, 0xbee21aa43ec73d7fU,
  0x3ec97a97be01d789U, 0xbe68d1ee3e3791d4U, 0xbd3317a3bd450066U, 0x3f00b8fdU,
  0x3ea5a9103d0f461cU, 0x3e9ef1c73e25a910U, 0xbddfdd8c3c0f461cU, 0xbe1cb4af3db317a3U,
  0xbe01d789bdcdf4c8U, 0x3d7abab13da12ee0U, 0xbe3791d4bee457bdU, 0x3de8d1eebd983a7eU,
  0xbc8f461cbdd6e92aU, 0xbd56e92a3ddfdd8cU, 0xbd983a7ebda12ee0U, 0x3c56e92a3d212ee0U,
  0xbd3317a3bdaa2341U, 0xbcd6e92abd450066U, 0xbd0f461cbdd6e92aU, 0x3df1c64fbda12ee0U,
  0x3d0f461cbc8f461cU, 0x3d7abab1bcd6e92aU, 0xbc8f461c3dcdf4c8U, 0x3d212ee03c8f461cU,
  0xbdfabab13df1c64fU, 0x3d68d1ee3d8651baU, 0xbdaa23413cfabab1U, 0x3cfabab13d56e92aU,
  0xbe0f461cbda12ee0U, 0xbdb317a3bdbc0c05U, 0x3dcdf4c8bcb317a3U, 0xbd212ee0bd56e92aU,
  0xbedb635b3df1c64fU, 0xbeeb0f06bddfdd8cU, 0xbdaa23413da12ee0U, 0x3e0651babe3791d4U,
  0xbf0e27903cb317a3U, 0xbe9cb4afbea5a910U, 0xbe4df4c83d56e92aU, 0x3dc50066bd0f461cU,
  0x3e2a23413da12ee0U, 0xbe68d1eebdfabab1U, 0x3dc500663dc50066U, 0x3c8f461c3cd6e92aU,
  0xbd212ee0bd7abab1U, 0xbb8f461c3df1c64fU, 0x3cfabab13dcdf4c8U, 0xbdaa2341bdfabab1U,
  0x3c0f461c3d0f461cU, 0xbc0f461cbdd6e92aU, 0xbdfabab13dc50066U, 0x3dd6e92a3daa2341U,
  0xbdaa234100000000U, 0x3daa2341bb8f461cU, 0x3df1c64f3d7abab1U, 0x3daa23413c8f461cU,
  0xbd56e92abdc50066U, 0x3daa23413da12ee0U, 0x3d8f461cbd983a7eU, 0xbd68d1ee3d983a7eU,
  0x3c5409af3d84860dU, 0xbe163187bdb0b2bcU, 0x3e11c6a83e30b2bcU, 0xbe4f9ed1beaa126fU,
  0xbcf760a23d0d5bcaU, 0x3e7760a2bd30b2bcU, 0x3e1a9c65be1f0743U, 0xbdee8ae5bdcb33f2U,
  0x3dee8ae53e237222U, 0x3e0d5bcabd1f0743U, 0x3cf760a2bc0d5bcaU, 0x3ec028c7bd8d5bcaU,
  0x3e2c47de3e11c6a8U, 0x3dcb33f23d30b2bcU, 0xbed63f1e3e0d5bcaU, 0x3b8d5bca3d30b2bcU,
  0xbdb0b2bc3d9f0743U, 0xbda7dd003d7760a2U, 0x3d963187bd9f0743U, 0x3c5409afbd9f0743U,
  0x3d963187bd5409afU, 0x3d0d5bcabc8d5bcaU, 0x3d0d5bca3d7760a2U, 0x3d1f0743bd7760a2U,
  0x3d425e36bc8d5bcaU, 0x3d963187bd425e36U, 0x3c8d5bca3df760a2U, 0x3c0d5bcabdcb33f2U,
  0xbb8d5bcabdb0b2bcU, 0x3d425e36bd84860dU, 0x3cb0b2bc3d65b528U, 0xbde5b5283db98879U,
  0xbcd409afbcb0b2bcU, 0xbeac47de3e65b528U, 0xbd0d5bca3d8d5bcaU, 0xbd1f0743be46c914U,
  0xbdd409afbdc25e36U, 0x3d8d5bcabed8748dU, 0xbcd409afbe6e8ae5U, 0x3d30b2bcbed409afU,
  0xbe8f91393d65b528U, 0xbe4b33f23de5b528U, 0xbe001b2fbe88f0ecU, 0x3de5b528bec028c7U,
  0xbdb0b2bcbe58748dU, 0xbf0c4112bd7760a2U, 0xbd30b2bcbe04860dU, 0xbd963187bc0d5bcaU,
  0xbd7760a23dd409afU, 0x3cb0b2bcbd5409afU, 0xbdd409af3da7dd00U, 0x3d8d5bcabd963187U,
  0xbe001b2fbd9f0743U, 0xbddcdf6c3ddcdf6cU, 0x3da7dd003b8d5bcaU, 0x3db988793d0d5bcaU,
  0x3dd409afbdc25e36U, 0xbdd409af3d7760a2U, 0xbd65b528bd7760a2U, 0x3dd409afbcd409afU,
  0x3cd409af3d9f0743U, 0xbddcdf6cbd8d5bcaU, 0xbd30b2bc3dc25e36U, 0xbd5409af3c5409afU,
  0x3d9501bbbecc1311U, 0x3e48d5cf3e9501bbU, 0xbe8330d4be080cb6U, 0x3e84cf753d762f61U,
  0xbda871433e96a05cU, 0x3d8192333db56648U, 0x3e356648bc1b7c3eU, 0xbe11c47a3dc25b4dU,
  0xbdbbe0cabe796ca3U, 0xbe45988ebd693a5cU, 0xbe0b49f73d356648U, 0xbe080cb6be762f61U,
  0x3e2871433d762f61U, 0xbda1f6c0bd425b4dU, 0xbe3be0ca3d019233U, 0x3daeebc53e693a5cU,
  0xbd1b7c3ebce93a5cU, 0xbd0e8738bd9501bbU, 0xbddc45573de93a5cU, 0xbda1f6c0bd356648U,
  0xbd1b7c3ebc4f5052U, 0x3dbbe0ca3de2bfdaU, 0x3da1f6c03c819233U, 0xbd693a5cbdefb4dfU,
  0xbd5c45573ccf5052U, 0xbdd5cad53dc25b4dU, 0xbdaeebc53d5c4557U, 0xbd8192333c1b7c3eU,
  0x3dc8d5cf3dd5cad5U, 0xbdf62f61bdc25b4dU, 0xbda1f6c03d5c4557U, 0x3dbbe0cabc1b7c3eU,
  0x3d693a5cbd287143U, 0xbecdb1b13e7ca9e4U, 0xbd356648be62bfdaU, 0xbcb56648bd1b7c3eU,
  0xbe880cb6bc4f5052U, 0x3e62bfdabe183efcU, 0xbddc45573db56648U, 0xbdc8d5cfbd4f5052U,
  0xbd762f613dd5cad5U, 0x3d693a5c3d425b4dU, 0x3da1f6c0bda1f6c0U, 0xbcb56648bd9501bbU,
  0x3d019233be11c47aU, 0xbe080cb63e21f6c0U, 0x3e11c47a3e11c47aU, 0x3e819233be322906U,
  0x3d4f50523d287143U, 0x3d4f5052bde93a5cU, 0xbd9501bb3da87143U, 0xbddc45573d693a5cU,
  0xbcb566483ccf5052U, 0x3daeebc5bce93a5cU, 0x3d9501bb3d762f61U, 0x3d0e8738bdc25b4dU,
  0x3cb566483da1f6c0U, 0x3d9501bbbd356648U, 0x3da871433ccf5052U, 0x3d880cb63defb4dfU,
  0xbb4f5052bc819233U, 0xbdbbe0cabd425b4dU, 0xbd3566483de93a5cU, 0x3d425b4dbd880cb6U,
  0xbea77a37be80fa13U, 0xbdcfe72abecfe72aU, 0xbdfe1a8800000000U, 0x3ef47a7fbeb3070fU,
  0xbd0a9a1cbe5b7401U, 0xbee3273cbe1a0091U, 0xbe21b3cbbe82e6e1U, 0x3e06c07f3de700d9U,
  0xbeb4f3ddbe943a25U, 0xbdcfe72abe53c0c7U, 0x3e4c0d8dbe6ada76U, 0xbed3c0c73eaf2d71U,
  0xbdf6674e3e296706U, 0x3e0a9a1cbe86c07fU, 0x3e1626f43d1a0091U, 0xbe7e1a88be124d56U,
  0x3da96706bd38cd7aU, 0x3de700d9bdf6674eU, 0xbd296706bd8a9a1cU, 0xbcb8cd7abd38cd7aU,
  0x3d1a0091bdc080b5U, 0xbdc833ef3dcfe72aU, 0xbda967063d0a9a1cU, 0xbddf4d9fbcb8cd7aU,
  0x3cd79a643cf6674eU, 0x3d82e6e1bdc833efU, 0x3d9a009100000000U, 0x3c76674e3d9a0091U,
  0x3d8a9a1c3d1a0091U, 0x3dc080b53db8cd7aU, 0x3deeb414bdfe1a88U, 0x3de700d93d4833efU,
  0xbd579a643d9a0091U, 0x3d924d56bec080b5U, 0x3de700d93db11a40U, 0x3e38cd7abd82e6e1U,
  0x3cb8cd7abe80fa13U, 0xbdcfe72abcf6674eU, 0x3e82e6e13e4fe72aU, 0x3ebaba493e1a0091U,
  0x3dfe1a883d296706U, 0x3cf6674ebe80fa13U, 0xbc38cd7abe579a64U, 0xbe1dda2e3cd79a64U,
  0x3cf6674e3e5b7401U, 0xbd38cd7abe4833efU, 0xbcf6674ebd579a64U, 0x3d579a64bd76674eU,
  0xbd82e6e13df6674eU, 0xbdd79a643da1b3cbU, 0x3d924d563d76674eU, 0x3dcfe72a3b76674eU,
  0x3d1a0091bdcfe72aU, 0x3dc833efbdcfe72aU, 0x3d1a00913dcfe72aU, 0xbcd79a64bb76674eU,
  0x3b76674e3da96706U, 0xbbf6674e3db11a40U, 0xbcf6674e3d8a9a1cU, 0x3dc833efbbf6674eU,
  0xbc38cd7abdd79a64U, 0x3de700d9bd9a0091U, 0x3de700d9bda1b3cbU, 0xbd1a0091bdd79a64U,
  0x3ddf7d21be919b39U, 0x3e2cb2253ea0d81eU, 0x3d94fe16bed705f7U, 0x3e119b39bbd8b766U,
  0x3d58b7663d8772a0U, 0xbeb5294fbe410357U, 0xbd58b766bddf7d21U, 0xbe6d0898be040fc2U,
  0xbdc46634be3377e0U, 0xbd0772a03e4b2bf0U, 0xbe00ace5bec10357U, 0xbcf3ce53be446634U,
  0xbd3da079bd301503U, 0x3e0ad57dbe9860f4U, 0xbeba3d9c3d0772a0U, 0xbe6642dc3e0772a0U,
  0xbde642dc3d14fe16U, 0xbd22898c00000000U, 0x3b58b7663b58b766U, 0xbca2898c3da94f48U,
  0xbc8772a03d58b766U, 0x3ded0898bd4b2bf0U, 0xbd14fe163d73ce53U, 0x3d8e385bbc58b766U,
  0xbdc4663400000000U, 0xbc22898cbd58b766U, 0x3dd8b766bdb6dabeU, 0xbd8772a03db01503U,
  0xbda94f483c8772a0U, 0xbd3015033dcb2bf0U, 0xbde642dc3dc46634U, 0x3d14fe163d0772a0U,
  0x3dd1f1abbe2cb225U, 0x3c8772a03e00ace5U, 0x3e0ad57d3d9bc3d1U, 0x3de642dc3e1bc3d1U,
  0x3e7731303d8772a0U, 0xbe4103573da94f48U, 0x3e7731303e119b39U, 0xbe3377e03e555488U,
  0x3d0772a03dbda079U, 0xbc58b7663e9860f4U, 0xbcbda079bea43afbU, 0xbe119b39be5f7d21U,
  0x3e4e8ecd3d0772a0U, 0x3e3377e0be706b75U, 0xbe9f26afbda94f48U, 0x3dd1f1abbdb01503U,
  0x3d3da0793dfa940eU, 0x3df3ce53bdb6dabeU, 0x3dd8b7663ddf7d21U, 0x3d4b2bf03dcb2bf0U,
  0xbd9bc3d1bd301503U, 0xbdb6dabebdd1f1abU, 0x3d8e385b3d8772a0U, 0x3ca2898cbdd1f1abU,
  0x3d58b766bd9bc3d1U, 0xbd80ace53df3ce53U, 0xbde642dcbdb6dabeU, 0x3d14fe16bdfa940eU,
  0x3cbda079bcd8b766U, 0xbd94fe163d0772a0U, 0xbd8e385bbb58b766U, 0x3ca2898c3d6642dcU,
  0xbd4331a13e5375c4U, 0xbe4e09b9be1d3d50U, 0x3db8598a3e5375c4U, 0xbe2815673e489dadU,
  0x3eee91febdad8173U, 0x3dce09b93d97d145U, 0x3dee91fe3cad8173U, 0x3eaacb6d3edb97d6U,
  0x3db8598a3eb8598aU, 0x3e078d22bd6e91feU, 0xbd8cf92d3d822116U, 0x3d6e91fe3e1d3d50U,
  0xbdee91febdb8598aU, 0x3e796a153e126539U, 0x3dee91febe3dc596U, 0x3cad8173bdf96a15U,
  0xbdad8173bcd8e1d0U, 0x3dd8e1d0bd97d145U, 0xbcad81733d8cf92dU, 0xbd2d8173bdee91feU,
  0x3dad8173bdad8173U, 0xbdce09b9bd17d145U, 0x3c822116bdb8598aU, 0x3da2a95c3d4331a1U,
  0x3d17d1453d022116U, 0xbd17d1453d2d8173U, 0xbd17d145bd4331a1U, 0x3d8cf92d3dad8173U,
  0x3d4331a13dad8173U, 0x3d58e1d03d022116U, 0x3d58e1d03d2d8173U, 0xbbad8173bcad8173U,
  0xbd97d1453e17d145U, 0xbc2d8173bef96a15U, 0xbd822116be6e91feU, 0xbe5e4ddbbbad8173U,
  0x3f167642bf2c2670U, 0xbe9a874a3dce09b9U, 0x3de3b9e7bc2d8173U, 0xbe5e4ddb3e0cf92dU,
  0xbde3b9e7be796a15U, 0x3de3b9e7be078d22U, 0x3d822116be878d22U, 0xbe4e09b9bcad8173U,
  0x3d0221163d822116U, 0x3e281567bde3b9e7U, 0xbe58e1d0bede4ddbU, 0xbd4331a1bead8173U,
  0x3d4331a13da2a95cU, 0x3dc331a1bdad8173U, 0xbd2d8173bd2d8173U, 0xbcd8e1d03dce09b9U,
  0x3de3b9e7bd8cf92dU, 0xbd6e91fe3dee91feU, 0x3d022116bdad8173U, 0xbd97d145bd17d145U,
  0xbd022116bd022116U, 0xbd4331a1bde3b9e7U, 0x3dc331a1bdc331a1U, 0x3dee91fe3cd8e1d0U,
  0xbdee91febdb8598aU, 0x3d17d145bdee91feU, 0xbde3b9e7bda2a95cU, 0x3db8598aU,
  0x3d8df41abdb4ab0aU, 0x3e37e4f33dfba516U, 0xbdd4ee27bd9adbbfU, 0xbe214f92be810c74U,
  0xbe0df41a3e24897bU, 0xbeafd42c3d878047U, 0x3e3b1edcbe0aba30U, 0xbe24897bbe34ab0aU,
  0xbdd4ee273d9adbbfU, 0xbc4e7a54bd34ab0aU, 0x3dae37373de1d5ccU, 0xbe7531443e753144U,
  0xbd34ab0a3e0aba30U, 0xbc9adbbf3d010c74U, 0x3e1e15a83dfba516U, 0x3d1adbbf3e34ab0aU,
  0x3d4192af3deebd71U, 0xbde1d5ccbd9adbbfU, 0xbd810c74bdb4ab0aU, 0x3dd4ee273cb4ab0aU,
  0xbcce7a543dc80681U, 0x3c1adbbf3ce8499eU, 0x3d27c3643c1adbbfU, 0x3d8df41a3d34ab0aU,
  0x3c4e7a543d753144U, 0x3d010c743d4192afU, 0xbc4e7a543dd4ee27U, 0xbc4e7a543d0df41aU,
  0x3c4e7a543da7c364U, 0xbd010c74bc4e7a54U, 0xbdb4ab0a3b4e7a54U, 0x3d68499ebd9adbbfU,
  0xbd9adbbfbe582810U, 0xbd4192af3de1d5ccU, 0xbbce7a54bb4e7a54U, 0xbe27c364bdb4ab0aU,
  0xbe9c78b43cb4ab0aU, 0x3d010c74be1467ecU, 0x3d4e7a543c1adbbfU, 0xbeb17120beccdd5fU,
  0x3e7ba516U, 0xbdeebd713c9adbbfU, 0xbd9467ecbdbb1edcU, 0xbe112e03bb4e7a54U,
  0xbec192afbd1adbbfU, 0xbcb4ab0abcce7a54U, 0x3d1adbbf3e4b406bU, 0xbde8499ebd1adbbfU,
  0x3d27c3643c810c74U, 0xbb4e7a543d810c74U, 0xbd27c364bdc80681U, 0x3c1adbbfbdce7a54U,
  0xbcb4ab0a3dc192afU, 0x3dc192af3d0df41aU, 0xbd010c743de1d5ccU, 0x3d68499ebd27c364U,
  0x3dc80681bddb61f9U, 0xbddb61f9bda7c364U, 0x3d0df41abd34ab0aU, 0xbd1adbbfbd5b61f9U,
  0xbd0df41abd34ab0aU, 0x3dc806813d4192afU, 0x3d68499ebd010c74U, 0x3d878047bc810c74U,
  0x3dca04e5bd691957U, 0x3dca04e53d8416e4U, 0xbdba7aac3e07f973U, 0x3ec622573cf8a390U,
  0x3d8416e4bcf8a390U, 0x3db2b590bd2af073U, 0x3e3e5d3abe9974f3U, 0xbed79dd73e1b663aU,
  0x3e86082c3e1783acU, 0x3e9974f33ec62257U, 0xbdba7aac3dba7aacU, 0x3e32b590be0416e4U,
  0xbcf8a390bcba7aacU, 0xbd1b663abd8416e4U, 0x3e8bdc01bd78a390U, 0xbdb2b5903e0bdc01U,
  0x3d3a7aac3b78a390U, 0x3c9b663a3c9b663aU, 0xbdf0de743cba7aacU, 0xbbf8a390bdf8a390U,
  0xbb78a390bd9b663aU, 0xbd93a11e3d4a04e5U, 0x3d93a11ebd1b663aU, 0x3de1543abcd98f1eU,
  0x3dba7aac3df0de74U, 0xbcf8a390bd691957U, 0x3cf8a390bcf8a390U, 0xbc3a7aac3df8a390U,
  0x3dba7aacbdb2b590U, 0x3df8a390bcf8a390U, 0x3db2b5903dca04e5U, 0x3bf8a3903d78a390U,
  0xbd8bdc01bd1b663aU, 0xbb78a3903e89eabaU, 0x3cba7aacbe803456U, 0x3db2b5903dd1ca02U,
  0xbdca04e5bde91957U, 0xbeb0c4483c9b663aU, 0x3ec04e813cba7aacU, 0xbcba7aacbde1543aU,
  0x3db2b590be32b590U, 0x3d6919573cf8a390U, 0xbd8416e43d4a04e5U, 0xbef6b249bdba7aacU,
  0xbdf0de74bda32b56U, 0x3d93a11ebe6536c9U, 0xbc78a390bdba7aacU, 0xbe7c861e3d8416e4U,
  0xbdf8a390bd8bdc01U, 0x3dd98f1e3bf8a390U, 0x3b78a3903dca04e5U, 0x3d9b663abd0bdc01U,
  0xbdba7aacbd0bdc01U, 0x3df8a3903cba7aacU, 0x3daaf0733c9b663aU, 0x3d93a11ebd8bdc01U,
  0x3d9b663a3cd98f1eU, 0xbdc23fc8bc3a7aacU, 0xbd8416e43b78a390U, 0x3d9b663abd93a11eU,
  0x3d93a11ebbf8a390U, 0x3db2b590bc78a390U, 0x3df0de74bcd98f1eU, 0x3d9b663a3d78a390U,
  0xbd6e420cbd919a24U, 0x3e2c1341bb53c8eeU, 0xbcee420cbe61057dU, 0xbe2c1341be2574faU,
  0xbe9341b53e18386bU, 0x3eb2b189bd98386bU, 0x3d8afbdcbc1ed6b2U, 0x3cb94fd0bde7a3c4U,
  0xbd045d95bdb2b189U, 0xbe94e947bdfb7e9bU, 0x3d9ed6b2bd845d95U, 0xbd6e420c3db2b189U,
  0xbe119a243dc68c5fU, 0xbe3600ad3da574faU, 0xbd7b7e9b3e1ed6b2U, 0xbed2215c3e845d95U,
  0x3d6e420c00000000U, 0xbd6e420cbcb94fd0U, 0x3dfb7e9bbdfb7e9bU, 0xbd98386bbdf4e053U,
  0x3dbfee18bdda6735U, 0xbd468c5fbc845d95U, 0xbde1057dbde7a3c4U, 0xbb53c8ee3c1ed6b2U,
  0xbdac1341bc9ed6b2U, 0xbcb94fd03dfb7e9bU, 0xbd045d953d1ed6b2U, 0x3de1057dbd468c5fU,
  0x3d845d95bd1ed6b2U, 0x3dbfee183d53c8eeU, 0x3d845d953d98386bU, 0x3bd3c8eebdac1341U,
  0xbc9ed6b23d98386bU, 0xbdd3c8eebd6e420cU, 0x3d2c1341be18386bU, 0xbe87acb8bdda6735U,
  0xbe07acb83d045d95U, 0xbe89544abe18386bU, 0x3e1b878f3d045d95U, 0x3c53c8ee3c9ed6b2U,
  0xbd7b7e9b3dac1341U, 0x3d53c8eebdb94fd0U, 0xbde7a3c4bd8afbdcU, 0x3cee420c3d98386bU,
  0xbd919a243dda6735U, 0xbdf4e053be0afbdcU, 0xbdcd2aa73c845d95U, 0x3d9ed6b2bdb2b189U,
  0x3dbfee18bcd3c8eeU, 0xbd98386b3d7b7e9bU, 0x3dcd2aa73d045d95U, 0xbd9ed6b2bdee420cU,
  0x3dbfee18bc845d95U, 0x3d61057d3d045d95U, 0x3cb94fd03c9ed6b2U, 0xbde7a3c43dda6735U,
  0x3d394fd03d919a24U, 0xbdd3c8ee3dda6735U, 0xbd6e420cbd119a24U, 0xbd53c8eebc9ed6b2U,
  0xbd53c8eebc53c8eeU, 0x3d119a243dbfee18U, 0x3cd3c8ee3de7a3c4U, 0x3bd3c8ee3da574faU,
  0x3c20ccefbc566694U, 0xbe0cb351be100cebU, 0x3ea5d356be6dd9ccU, 0xbe4c59c5be06001cU,
  0xbe34e68d3bd66694U, 0x3d86001c3d136686U, 0x3e16c0203e3ef35cU, 0xbdd66694bb566694U,
  0xbc86001c3ea42689U, 0x3d7e99d03d3b99c2U, 0xbe8959b73e20ccefU, 0x3eaad9bebcf13366U,
  0xbcbb99c23e0cb351U, 0xbe0959b7be9bc688U, 0xbd20ccef3d2e3358U, 0x3c86001cbe530cfaU,
  0xbd8cb351U, 0xbcf13366bc86001cU, 0x3dd666943d49002bU, 0xbdc9002b3d8cb351U,
  0x3d936686bda0ccefU, 0xbd713366bd566694U, 0x3c566694bd20ccefU, 0xbd63ccfd3d2e3358U,
  0xbdea8032bd713366U, 0xbda780243d136686U, 0x3d1366863dc9002bU, 0xbd566694bd8cb351U,
  0xbca0ccef3df13366U, 0x3dea80323bd66694U, 0x3df7e69b3dcfb35fU, 0xbdb4e68dbd3b99c2U,
  0x3d63ccfdbbd66694U, 0x3ddd19c93e136686U, 0xbdf13366be384027U, 0xbd5666943d2e3358U,
  0xbe424cf6bdb4e68dU, 0x3d1366863e3b99c2U, 0x3e6dd9ccbe20ccefU, 0xbed4b9c7be1a19baU,
  0x3e2e3358be900cebU, 0xbe3b99c23eb18cf3U, 0x3d9a19babe4c59c5U, 0xbe566694be91b9b9U,
  0xbe9bc688be566694U, 0x3e49002b3e566694U, 0x3dc24cf63df13366U, 0xbdc9002b3e20ccefU,
  0xbd71336600000000U, 0xbc86001cbdae3358U, 0xbd7133663d9a19baU, 0xbcbb99c2bca0ccefU,
  0x3dd66694bbd66694U, 0x3b566694bb566694U, 0xbc86001c3ca0ccefU, 0xbc86001cbca0ccefU,
  0xbd7133663d936686U, 0x3db4e68d3dc24cf6U, 0xbd86001cbdd66694U, 0x3cf13366bd566694U,
  0x3da0ccefbcf13366U, 0x3df7e69b3ca0ccefU, 0xbb566694bc20ccefU, 0xbdc24cf63d2e3358U,
  0xbd5eb02bbdf0d05eU, 0xbe07f180be040f2bU, 0xbbcf26db3db7d8e2U, 0xbc86a60ebe14e3edU,
  0xbd8bd3d43c110199U, 0xbda321ccU, 0x3c110199bd06a60eU, 0xbc4f26db3d910199U,
  0xbe07f1803ccf26dbU, 0xbe177ad03d4f26dbU, 0xbdeba299bdad7d57U, 0x3c3a6fc5bca5b8afU,
  0x3cd98266bd6e397cU, 0xbd110199bd598266U, 0x3d30143abe0fb628U, 0xbdb7d8e23d49f915U,
  0xbdcc8ff8bdc9f915U, 0x3deba2993d25b8afU, 0xbd9df4073c110199U, 0x3dc9f915bcee397cU,
  0xbd6e397cbdaae674U, 0xbbcf26db3d817849U, 0xbdb541ffbcee397cU, 0x3aa5b8af3dfb2be9U,
  0x3cb0143abd162f5fU, 0xbd2ae674bdc76233U, 0xbd736741bc110199U, 0x3c86a60ebdcf26dbU,
  0x3ccf26db3dd454a0U, 0x3da84f923dcf26dbU, 0xbd3a6fc5bdd454a0U, 0xbdee397c3d208aeaU,
  0x3cee397cbe02c3baU, 0xbd3541ffbddeb02bU, 0xbcee397cbd98c641U, 0xbdf36741bdaae674U,
  0x3bf89506bd5454a0U, 0x3d8bd3d4bdcc8ff8U, 0x3df36741be07f180U, 0xbda321ccbd98c641U,
  0xbde674d33d86a60eU, 0xbcee397cbd736741U, 0xbd0bd3d43d4f26dbU, 0x3d1b5d24bd893cf1U,
  0x3d49f915be14e3edU, 0xbd690bb63d162f5fU, 0xbde3ddf1be246d3eU, 0x3d4f26dbbd5eb02bU,
  0x3b7895063dcf26dbU, 0xbc910199bd0bd3d4U, 0x3ca5b8af3da321ccU, 0x3d0bd3d4bd44cb50U,
  0xbdf36741bcee397cU, 0xbdeba299bddeb02bU, 0xbdb2ab1d3d7dc2ccU, 0x3db7d8e2bd162f5fU,
  0x3d840f2bbdd1bdbdU, 0xbcf89506bd63ddf1U, 0xbc86a60ebccf26dbU, 0x3db2ab1dbd7dc2ccU,
  0xbda08aea3d3f9d8aU, 0xbcb0143abcf89506U, 0xbdd1bdbd3de90bb6U, 0x3bf89506bd162f5fU,
  0x3dd899a43e54dd9dU, 0xbe280d463e067105U, 0xbe5899a4be867105U, 0xbb6f01d0bda4513fU,
  0xbe3e75723d7df1edU, 0x3dd899a4bdf679deU, 0xbe02b4febeed23ccU, 0x3dbab96abe1cd930U,
  0x3e6b45c93e36fd63U, 0xbe4231793e156122U, 0xbd9561223c956122U, 0xbd6f01d0be6f01d0U,
  0xbea4513fbe3e7572U, 0xbe63cdba3e6b45c9U, 0xbe3e75723e3ab96aU, 0xbe7679debdc23179U,
  0xbd6011b3bde011b3U, 0x3da4513f3dfdf1edU, 0xbdd12196bcb3415cU, 0xbde011b33bef01d0U,
  0xbd5121963de789c2U, 0xbcb3415cbd6f01d0U, 0xbdbab96abc956122U, 0x3c33415cbd9cd930U,
  0xbc33415c3dabc94eU, 0x3dc9a988bdbab96aU, 0xbcd121963d33415cU, 0x3cd121963d512196U,
  0x3dbab96a3cd12196U, 0xbde789c23c6f01d0U, 0xbdc23179bde011b3U, 0xbdef01d03cef01d0U,
  0x3e2f85553eada751U, 0xbe884f093d24513fU, 0xbe8fc717bec5ed80U, 0xbdabc94ebb6f01d0U,
  0xbe49a988be11a51bU, 0x3e0de914bede33afU, 0xbe2bc94ebcd12196U, 0xbe2bc94ebe24513fU,
  0x3db3415c3dc23179U, 0xbdef01d0bea80d46U, 0x3d33415c3d7df1edU, 0xbdbab96a3dc23179U,
  0x3dfdf1edbdabc94eU, 0xbe45ed803de011b3U, 0xbd067105bdd12196U, 0xbea09538be067105U,
  0xbdbab96a3dabc94eU, 0x3d33415c3da4513fU, 0xbdbab96abdc23179U, 0xbd867105bdc9a988U,
  0x3d9561223dc23179U, 0xbd9cd9303d6f01d0U, 0x3cef01d0bde011b3U, 0x3d8de914bd8de914U,
  0xbcef01d03d512196U, 0x3c6f01d0bd33415cU, 0xbc9561223d512196U, 0x3def01d03dc9a988U,
  0xbd9cd9303d33415cU, 0xbd8de914bd867105U, 0xbdbab96a3dabc94eU, 0x3d7df1edbc956122U,
  0x3d0ad0fbbe166265U, 0x3d831ab4bd1a3d89U, 0x3e1a3d89bd1a3d89U, 0xbcf6c8db3cb916a4U,
  0xbda1f3d03dd03979U, 0x3d0ad0fbbe503979U, 0xbc3916a43e7e7f22U, 0xbd29aa17beb34defU,
  0x3dd039793dc0ccebU, 0xbdd7efc0bc76c8dbU, 0xbead853abe0ad0fbU, 0x3d831ab4bea5cef3U,
  0x3dc883323e166265U, 0x3dd7efc0bcd7efc0U, 0xbef4db493e031ab4U, 0xbc9a3d89bcb916a4U,
  0xbdd039793c9a3d89U, 0x3db916a43cb916a4U, 0x3d8ad0fbbda9aa17U, 0x3cf6c8db3dd7efc0U,
  0x3de75c4dbc9a3d89U, 0x3de75c4d00000000U, 0x3d9287423df6c8dbU, 0x3cd7efc03db916a4U,
  0xbd0ad0fb3d831ab4U, 0x3d488332bddfa606U, 0x3db916a4bd831ab4U, 0x3da9aa173c76c8dbU,
  0xbd4883323c76c8dbU, 0xbc3916a43d76c8dbU, 0xbcd7efc0bbf6c8dbU, 0x3cd7efc0bdb1605dU,
  0x3dd03979be0eac1fU, 0xbdc883323e675c4dU, 0xbe1e18ac3e3cf1c8U, 0xbeb729133d488332U,
  0xbeb1605d3e1e18acU, 0xbd1a3d89bbf6c8dbU, 0xbd0ad0fbbe9474d4U, 0xbe2d853abe5bcae3U,
  0x3da1f3d03c76c8dbU, 0x3da9aa173d76c8dbU, 0xbd8ad0fb3e7aa3feU, 0x3de75c4dbe128742U,
  0xbc9a3d89be2d853aU, 0xbed4149cbdd7efc0U, 0xbe86f5d83e3916a4U, 0xbe1287423def1294U,
  0xbdc0cceb3dc88332U, 0x3d3916a43df6c8dbU, 0xbdd03979bcb916a4U, 0x3d4883323d3916a4U,
  0x3d57efc03bf6c8dbU, 0x3da1f3d0bdf6c8dbU, 0xbdd7efc03db1605dU, 0xbcf6c8db3dd03979U,
  0x3db916a4bd57efc0U, 0xbd8ad0fb3da9aa17U, 0xbd0ad0fb3d1a3d89U, 0x3ddfa6063b76c8dbU,
  0xbbf6c8dbbd1a3d89U, 0x3d0ad0fbbda9aa17U, 0xbdc0cceb3d57efc0U, 0xbd0ad0fb3dc88332U,
  0xbe25353d3e6883d1U, 0x3e838df3be838df3U, 0x3d869d28bd43cd52U, 0x3ee26567bd5c46fcU,
  0x3ea5353dbe869d28U, 0x3e6265673d92d9feU, 0xbdc3cd523d43cd52U, 0x3f209e6dbf0e432eU,
  0x3e6883d13e1f16d3U, 0xbd12d9febe5c46fcU, 0x3e807ebebe89ac5eU, 0x3e43cd523e18f868U,
  0xbd74c0a63db7907dU, 0xbd43cd52be12d9feU, 0xbcc3cd52bea84472U, 0xbc43cd523e069d28U,
  0xbd9f16d3bd43cd52U, 0xbd869d283d43cd52U, 0xbdab53a8bc92d9feU, 0x3bc3cd52bdd00a27U,
  0xbd43cd52bd43cd52U, 0x3ddc46fcbdf4c0a6U, 0xbd92d9fe3c43cd52U, 0xbd869d283c92d9feU,
  0x3dd00a27bd5c46fcU, 0xbd43cd52bbc3cd52U, 0xbdd00a27bc92d9feU, 0x3d869d283d92d9feU,
  0xbdab53a83d2b53a8U, 0x3dab53a83d5c46fcU, 0xbe007ebe3d9f16d3U, 0x3db7907d3d74c0a6U,
  0xbe8fcac83eb48148U, 0x3de883d1bf25353dU, 0xbd92d9febd92d9feU, 0xbe500a27be838df3U,
  0x3f1770cdbf05158eU, 0xbd92d9febc92d9feU, 0x3cf4c0a63ddc46fcU, 0x3ef7cfdcbf4245b7U,
  0xbd74c0a63d43cd52U, 0xbde883d1bf0cbb93U, 0x3cc3cd52be25353dU, 0x3c43cd523e807ebeU,
  0xbe92d9fe3cc3cd52U, 0x3c43cd52befadf11U, 0x3d2b53a8bd74c0a6U, 0xbe6883d1bdc3cd52U,
  0xbd869d28U, 0x3d5c46fcbcc3cd52U, 0xbd43cd523db7907dU, 0x3c92d9febc92d9feU,
  0x3cf4c0a6bdab53a8U, 0x3ddc46fcbd2b53a8U, 0xbd74c0a63d92d9feU, 0x3de883d1bdb7907dU,
  0xbddc46fcbc92d9feU, 0xbcc3cd52bd5c46fcU, 0xbd43cd523df4c0a6U, 0xbdf4c0a63d9f16d3U,
  0x3d43cd523c92d9feU, 0x3de883d1bde883d1U, 0x3d12d9fe3d869d28U, 0x3d43cd52bd5c46fcU,
  0x3de459bcbd827c6cU, 0xbe4e9a553e027c6cU, 0xbdef3970bea06399U, 0xbd027c6cbe7a1923U,
  0xbd6f39703e4e9a55U, 0xbe336b143e1dabadU, 0xbdb8daeebe7a1923U, 0xbe0d5c1fbe2dfb3aU,
  0xbe12cbf9be983bd3U, 0xbdadfb3abd597a08U, 0xbdce9a553e43baa1U, 0xbc2dfb3a3e90140cU,
  0xbde459bcbd8d5c1fU, 0x3e12cbf93e2dfb3aU, 0xbc827c6c3e69c996U, 0xbd8d5c1f3dfa1923U,
  0x3db8daeebdef3970U, 0x3dadfb3abdd97a08U, 0xbd597a083dce9a55U, 0xbdce9a553da31b86U,
  0xbdce9a55bde459bcU, 0x3d183bd3bd2dfb3aU, 0xbdd97a0800000000U, 0xbd827c6c3dd97a08U,
  0x3c2dfb3abdb8daeeU, 0x3def3970bd43baa1U, 0x3d8d5c1fbdd97a08U, 0xbcd97a08bd827c6cU,
  0xbc2dfb3a3cd97a08U, 0x3d43baa13dadfb3aU, 0xbdd97a083badfb3aU, 0x3d183bd300000000U,
  0xbe027c6c3c2dfb3aU, 0xbeb36b14bdb8daeeU, 0x3e12cbf9be9583e6U, 0x3d183bd3be827c6cU,
  0xbec92a7b3dadfb3aU, 0xbe9af3c0be983bd3U, 0x3e8aa432bdce9a55U, 0xbe69c996be027c6cU,
  0xbee459bc3d43baa1U, 0x3e183bd3bef4a94aU, 0xbf2c9f443e7a1923U, 0x3dce9a55bdb8daeeU,
  0x3e87ec453dc3baa1U, 0xbd027c6cbee9c996U, 0xbe9dabad3d8d5c1fU, 0xbe43baa1be4e9a55U,
  0xbda31b863db8daeeU, 0xbd027c6c3db8daeeU, 0xbd827c6cbd6f3970U, 0xbdc3baa1bd183bd3U,
  0x3dadfb3abd6f3970U, 0x3d983bd3bcadfb3aU, 0xbbadfb3abcadfb3aU, 0xbd2dfb3a3d8d5c1fU,
  0xbd2dfb3a3d8d5c1fU, 0xbd827c6cbc827c6cU, 0xbd027c6c3d597a08U, 0xbdd97a08U,
  0xbd6f39703da31b86U, 0x3cd97a083d983bd3U, 0x3cadfb3a3de459bcU, 0x3d827c6cbd8d5c1fU,
  0x3de462eebe6462eeU, 0xbdd2d1793d2fae90U, 0xbdd2d179bb8c8ba6U, 0xbe7a58c0bdc14004U,
  0xbf0b728fbe414004U, 0xbda6e5d500000000U, 0x3cf5f462bdc14004U, 0x3dc140043e228178U,
  0x3cf5f462be3412edU, 0x3d8c8ba63e26e5d5U, 0xbd75f4623d1e1d1bU, 0xbd955460bb8c8ba6U,
  0xbe8ebdd5be0c8ba6U, 0x3d6462ee3d0c8ba6U, 0xbc52d179bcf5f462U, 0xbded2ba8bda6e5d5U,
  0x3d75f4623db8774aU, 0xbc52d179bd6462eeU, 0xbd2fae903d414004U, 0xbd4140043ddb9a33U,
  0xbd9e1d1b3ded2ba8U, 0x3dfebd1dbc52d179U, 0x3dafae903cf5f462U, 0xbd6462ee3db8774aU,
  0x3d9e1d1bbc0c8ba6U, 0xbd414004bd0c8ba6U, 0x3d955460bc52d179U, 0xbd6462eebde462eeU,
  0x3ddb9a33bd955460U, 0x3d52d1793d75f462U, 0x3ddb9a33bc0c8ba6U, 0xbd75f462bddb9a33U,
  0xbd75f4623c52d179U, 0x3d4140043ddb9a33U, 0xbd955460bd2fae90U, 0xbdd2d1793f0077a6U,
  0xbe2b4a32be1e1d1bU, 0xbe8a59773e414004U, 0xbdd2d179bc0c8ba6U, 0xbc8c8ba63f070e32U,
  0x3d6462eebe5735d6U, 0x3ea28178bc8c8ba6U, 0xbdafae90bd414004U, 0x3e03c2ecbd2fae90U,
  0x3e8827493e3cdba7U, 0x3d8c8ba63d6462eeU, 0xbe0c8ba6be3cdba7U, 0xbe0c8ba6bd75f462U,
  0x3d52d1793dc14004U, 0x3c8c8ba6bdc14004U, 0x3d414004bded2ba8U, 0xbded2ba8bd6462eeU,
  0xbdca08bfbd9e1d1bU, 0x3ddb9a33bd2fae90U, 0xbd4140043dafae90U, 0x3db8774abcd2d179U,
  0x3c52d179bddb9a33U, 0xbd9e1d1b3d52d179U, 0x3ded2ba83ded2ba8U, 0xbcafae903d1e1d1bU,
  0xbc0c8ba6bb8c8ba6U, 0xbd8c8ba63dafae90U, 0xbdf5f462bd1e1d1bU, 0xbcafae903d8c8ba6U,
  0xbd8a8c73bdc98679U, 0x3e1d710fbea22a35U, 0x3ce2b748be5f912eU, 0x3ea87669be4cac93U,
  0xbdcfd2ad3d9d710fU, 0xbe0a8c73be337bc4U, 0x3dc33a453e811a26U, 0x3def4fb0bd90d8a7U,
  0xbeb834eb3d3cee11U, 0x3d9d710f3dcfd2adU, 0xbe4cac93bddc6b14U, 0xbc9724db3d0a8c73U,
  0xbdaa09763c498679U, 0x3d3055aabd498679U, 0x3cfbe8173d0a8c73U, 0x3e7275ca3d84403fU,
  0x3dc98679bce2b748U, 0xbd23bd423d9724dbU, 0x3dcfd2adbd62b748U, 0xbcc98679bde2b748U,
  0xbd9d710fbd6f4fb0U, 0x3c9724db3db055aaU, 0xbdc98679bd23bd42U, 0xbd561ee1bce2b748U,
  0xbdaa0976bdf59be3U, 0x3cfbe8173d8a8c73U, 0xbdb6a1debdbcee11U, 0xbc4986793b498679U,
  0x3e011a263dbcee11U, 0x3df59be33de2b748U, 0x3d62b7483d9d710fU, 0x3ddc6b14bd9724dbU,
  0x3df59be33db6a1deU, 0xbc1724db3e1724dbU, 0xbe433a453daa0976U, 0xbe10d8a700000000U,
  0xbe2a09763e2d2f90U, 0x3dbcee113d7be817U, 0xbc498679be6f4fb0U, 0x3c7be817bdb6a1deU,
  0xbec7f36c3d62b748U, 0x3d9d710fbe52f8c7U, 0xbd62b7483ebe811eU, 0x3e10d8a7bcc98679U,
  0x3d90d8a7be88f966U, 0x3c7be8173d3055aaU, 0x3cfbe8173e52f8c7U, 0xbd9724db3e5944faU,
  0xbdc33a453ddc6b14U, 0xbcc98679bde9037cU, 0xbd3055aabdc98679U, 0x3def4fb03d23bd42U,
  0x3c4986793d7be817U, 0xbd90d8a73d6f4fb0U, 0x3db6a1debdfbe817U, 0xbce2b748bde9037cU,
  0x3d7be817bc7be817U, 0xbd62b748bd84403fU, 0xbcc986793ce2b748U, 0x3d8a8c733d3cee11U,
  0xbd62b748bddc6b14U, 0xbd62b7483d6f4fb0U, 0xbbc986793df59be3U, 0x3c1724dbbcc98679U,
  0x3da9d04fbcb13268U, 0x3e0ff8f53e93aa02U, 0xbe0c47e8be175b0fU, 0x3dc758b63ed44463U,
  0xbe64e11c3dfb0769U, 0x3e59cdf63c313268U, 0x3d04e5ce3e04e5ceU, 0xbe93aa02bddd7f03U,
  0x3e3c458fbd8c47e8U, 0x3c93aa023c93aa02U, 0xbccebacf3e175b0fU, 0xbed44463be389482U,
  0x3cb13268be226e35U, 0xbe1b0c1bbdf3a550U, 0xbdbff69cbcec4336U, 0x3e8134c23eb89482U,
  0x3d4ebacfbc313268U, 0xbd8c47e8bdb89482U, 0xbd13aa02bccebacfU, 0xbde4e11cbd7b0769U,
  0xbd04e5ce3d04e5ceU, 0xbd226e353c6c4336U, 0x3dcebacfbd13aa02U, 0xbd7b07693d13aa02U,
  0xbd226e353c93aa02U, 0xbc93aa02bdc758b6U, 0x3ddd7f03bdec4336U, 0x3dd61ce93d226e35U,
  0xbdc758b63dc758b6U, 0x3c93aa023b6c4336U, 0x3db89482bd6c4336U, 0xbdb89482bcec4336U,
  0xbe29d04f3da9d04fU, 0xbe9b0c1b3d84e5ceU, 0xbdfb0769be34e375U, 0x3c93aa02be59cdf6U,
  0xbead815c3c6c4336U, 0xbd9b0c1bbe975b0fU, 0xbdcebacfbe4b09c2U, 0xbd226e35bd7b0769U,
  0xbed444633b6c4336U, 0x3da9d04fbe175b0fU, 0xbeea6ab03e261f42U, 0xbd7b07693ddd7f03U,
  0x3e9ce4a23e04e5ceU, 0xbe93aa02bdb89482U, 0xbe34e375bd6c4336U, 0xbd9b0c1bbccebacfU,
  0x3d04e5cebcec4336U, 0x3dd61ce9bd84e5ceU, 0x3dfb0769bdb89482U, 0x3d4ebacf3d93aa02U,
  0x3da9d04fbccebacfU, 0x3da26e35bccebacfU, 0xbdc758b63bec4336U, 0x3bec43363d8c47e8U,
  0xbcec4336bd5d7f03U, 0x3d3ff69c3d84e5ceU, 0x3cec43363dbff69cU, 0x3d3ff69cbd226e35U,
  0xbdec43363dec4336U, 0x3d84e5ce3dfb0769U, 0x3cb132683d226e35U, 0xbc3132683d84e5ceU,
  0x3d87a0febdb0e840U, 0xbdb9c0aabd01bb62U, 0xbe062797bd30e840U, 0x3d7d9129bc6be056U,
  0xbcf7ab8ebd60151eU, 0x3cc87eb0bd9951d2U, 0x3d87a0fe3d77ab8eU, 0xbd8a93ccbdb9c0aaU,
  0xbc6be0563cf7ab8eU, 0x3cebe056bdd73cb5U, 0xbdfd9129be29893eU, 0xbdbfa646bdf4b8c0U,
  0xbdeed324be2df573U, 0xbe04ae30bdebe056U, 0xbdab02a5bdcb717dU, 0xbd1f376d3d251d09U,
  0xbdb9c0aabb8d869aU, 0xbde5faba3df7ab8eU, 0xbd30e8403d3cb378U, 0xbabcb378bd0d869aU,
  0xbdce644b3d30e840U, 0xbdeed324bd36cddcU, 0xbdc58be2bd5449e7U, 0x3b3cb378bdd449e7U,
  0x3d429914bd8d869aU, 0xbdb6cddc3db9c0aaU, 0x3dbfa646bdbfa646U, 0xbdd15719bbebe056U,
  0x3d251d09bd01bb62U, 0x3cebe0563d6be056U, 0xbd81bb623ddd2251U, 0xbdd15719bda80fd7U,
  0xbe3b3a113cf7ab8eU, 0xbce0151ebdab02a5U, 0x3da80fd73b8d869aU, 0x3cc87eb0bc81bb62U,
  0xbde307ecbdf7ab8eU, 0x3d60151ebca51d09U, 0xbdab02a5be04ae30U, 0xbd9c449f3c251d09U,
  0xbe280fd7bdadf573U, 0xbdd73cb53abcb378U, 0xbe1079683d136c36U, 0x3bebe056bda22a3bU,
  0xbe14e59dbdb9c0aaU, 0xbd60151ebdd449e7U, 0x3d1f376d3d36cddcU, 0x3d5449e73d5449e7U,
  0x3db6cddcbdb0e840U, 0xbdadf573bcd449e7U, 0x3d9079683bebe056U, 0x3dd15719bd429914U,
  0xbd136c36bd9951d2U, 0x3dc29914bd71c5f2U, 0xbc251d093bbcb378U, 0xbdbfa6463deed324U,
  0x3dd73cb5bcf7ab8eU, 0x3c0d869a3c81bb62U, 0x3d8a93ccbdd15719U, 0xbd3cb378bdb3db0eU,
  0xbd251d09bd429914U, 0xbc5449e73abcb378U, 0xbd1951d2bd251d09U, 0x3df7ab8ebd2b02a5U,
  0x3d0d1e4abdeb327bU, 0xbe0932c83da4a356U, 0xbdbc28623e0932c8U, 0xbef8eac23e24a356U,
  0xbdac7a5abea69917U, 0x3cbc28623db4515eU, 0xbe5b8473bdac7a5aU, 0xbc7ae0833d854746U,
  0x3cfae083bc7ae083U, 0x3d5b84733e5798f1U, 0xbd6b327bbde35b77U, 0xbd4bd66abe24a356U,
  0xbd6b327bbd9ccc52U, 0x3d8d1e4a3e96eb0fU, 0x3e873d07be76f501U, 0xbbfae083be92ff8dU,
  0x3dcbd66abd1ccc52U, 0x3db4515e3cdb8473U, 0xbdd3ad6fbd0d1e4aU, 0x3dfae0833cdb8473U,
