/**
  ******************************************************************************
  * @file    speech_commands_model_data.c
  * @author  AST Embedded Analytics Research Platform
  * @date    Mon Dec 20 11:07:12 2021
  * @brief   AI Tool Automatic Code Generator for Embedded NN computing
  ******************************************************************************
  * @attention
  *
  * Copyright (c) 2021 STMicroelectronics.
  * All rights reserved.
  *
  * This software component is licensed by ST under Ultimate Liberty license
  * SLA0044, the "License"; You may not use this file except in compliance with
  * the License. You may obtain a copy of the License at:
  *                             www.st.com/SLA0044
  *
  ******************************************************************************
  */
#include "speech_commands_model_data.h"
#include "ai_platform_interface.h"


AI_ALIGNED(32)
const ai_u64 s_speech_commands_model_weights_array_u64[ 22111 ] = {
  0xbe7ab0c5bd522603U, 0x3d45d1713e8053eaU, 0xbdf61557bd0ae5ceU, 0x3b6c48863de79a76U,
  0xbe357b5cbded117bU, 0x3c05b80a3db7e146U, 0xbd3074043e1cbc91U, 0xbe0d0b2a3ccfce37U,
  0x3d2689b2bd7b0319U, 0x3c6cac3d3e027cb0U, 0xbe50edfdbdbf49d7U, 0x3d1c58fe3dc9586bU,
  0xbe17f02abd628a84U, 0x3d7386d93d925849U, 0xbddb9368bd804461U, 0xbe0dcaf73e2d5e68U,
  0x3c921ad2be210ee0U, 0x3d2700babe027b49U, 0xbcc6765a3e5bb849U, 0xbc91696dbe6b0254U,
  0x3c07fdedbe0049b2U, 0xbd58a4033e80da25U, 0x3e576f3fbe0f4ae7U, 0xbe0b4d52bde5ed4cU,
  0x3e9432acbda258b7U, 0xbcec3042bde3209fU, 0xbd17665a3db9b2f7U, 0xbd9fb29dbdfd44c9U,
  0x3c20e6c6bd8ac89aU, 0x3d39d44bbc7f76cbU, 0x3da2e5c6bd9f6e6eU, 0x3e339ad93db79b48U,
  0xbe393d9a3e2fd97fU, 0x3d268b293d8657e7U, 0xbd16335abdc6501fU, 0x3ab09a65bc9543d2U,
  0xbf634e76bd1ec574U, 0x3e8a66773ebebc92U, 0xbd3aa260be42a9bdU, 0xbd9e99b03eb08b04U,
  0xbded026c3d21d589U, 0xbca8a7d33d2ab4c1U, 0xbd962f73be088db6U, 0xbe089104be65bb39U,
  0x3de7eaf43dbd796cU, 0xbd188ac6bc2baa8eU, 0x3c70a9e4bcdcf1d4U, 0x3da14d573c9123a0U,
  0x3e053f13bd734293U, 0x3dbc181f3d25614fU, 0xbd3a5f5fbe0bcd7fU, 0x3d7af9ed3dcf01c4U,
  0x3dd914433dbc887dU, 0xbccfb281be2aed96U, 0x3e2e88e6be189d8fU, 0x3c968c513dbde9b1U,
  0x3c378c1f3d8c6ef5U, 0x3c740b253db678b9U, 0x3d82bc3bbc34afe8U, 0xbde49374bcfeca7bU,
  0x3d099cbb3e026babU, 0xbd69d8a33d0d71aeU, 0xbe5fd5e6bd8b733cU, 0xbe24406fbd0b451fU,
  0xbde1e1793c213f97U, 0x3e39bb99be1abd12U, 0xbd9c73b2bbd8c4d6U, 0x3d8e52a6be0e0d5dU,
  0x3da442213d78acfdU, 0xbd288ebf3d03d62dU, 0xbe28208b3c738c46U, 0x3d253d4d3e1c1dfdU,
  0xbbe31e623d2ac12dU, 0x3e6d46f3bb8fa8f5U, 0xbe136df83d8401e5U, 0xbe2d526abdcc9b8dU,
  0xbdb64f243ddd542cU, 0xbc899dd63eaa3eadU, 0xbd28bd49be055cbeU, 0x3cd37a83bba2c7e9U,
  0xbddd79513dc82890U, 0x3dca9dc63d0cc64eU, 0xbe0eb605be4d3be5U, 0xbecd04ef3db1b86dU,
  0x3d900966bdd0ca2cU, 0x3dc4ebccbe5bb693U, 0xbe1827b5bcd94e82U, 0xbeab994bbd3a4799U,
  0xbb847b2ebe08d675U, 0x3e32d2ea3da39911U, 0x3b1243ac3e42d973U, 0x3e435c183e9ba21fU,
  0x3e1d9e453dabafd2U, 0xbe67d7723d2d8e22U, 0xbe3570afbd63e6ceU, 0x3d51076dbd3b2465U,
  0xbd9113d03e3e68c9U, 0xbd3dcd363d81be7dU, 0x3e02b6a93db5cb3aU, 0xbd90bc39bd6d51c6U,
  0x3e79abe9bb32d8acU, 0xbdbcc32cbddf551fU, 0xbd92cef5bd9c9533U, 0x3da62c4c3e3e1371U,
  0xbe36b520bd72765eU, 0xbde9ab083d80aefdU, 0xbe452bd0bd85ff79U, 0xbcdc99dabdbd8838U,
  0xbcd034fa3c51ead5U, 0xbebe868dbdebfb73U, 0xbea012e03df88432U, 0x3e0c83f3bc8b8a38U,
  0xbcc5a5553e0bd3feU, 0x3e2e869ebe6b9418U, 0xbdb69c8ebe428136U, 0xbe31771cbd56a6e1U,
  0xbe77d8e83c17691cU, 0x3d953867bdb9031bU, 0x3dfff1d93d49784cU, 0x3e172276be540daeU,
  0x3df78791be39f433U, 0xbd3c03aabc1419a6U, 0xbdb667fdbdba3e70U, 0x3e09e218bb13a6a0U,
  0xbd9f53673e26b7e4U, 0xbe4bfdaebe34dad4U, 0xbcef9afe3dac241cU, 0xbd6403303d78f4fcU,
  0xbde3cb923d9b8d41U, 0xbdc812fc3dc21285U, 0xbe544caebe0fa506U, 0x3c2b610cbda2f9d0U,
  0xbd88e5f1be693d7bU, 0xbbda88633dd85cf4U, 0xbe1bc1ae3b704c7fU, 0x3def2ababe36ebfeU,
  0xbdcf79acbbc906abU, 0xbdc3f56bbe477bd7U, 0x3e25e2023c3ceaeeU, 0xbdc73e9bbdcfdec9U,
  0xbdb3da5f3cb023fdU, 0x3da4bc2a3d689e5eU, 0xbd621c77bda4d164U, 0x3df5db9fbdcc4943U,
  0x3c0c420bbdc6daf5U, 0x3ea64db33e9cd340U, 0xbde5d6603ddfc07eU, 0x3af881c8bd017626U,
  0xbd924d3a3d90b1eaU, 0xbe179557be5c3103U, 0x3e48f527be67d370U, 0x3ddc02f9be321f5bU,
  0xbe3d8431be01a16cU, 0xbcf89a15bd7dd27bU, 0x3d7b82dcbe48b1b2U, 0x3dba622b3d3b1824U,
  0x3d9604fdbdd9654bU, 0x3b444886bd884ae2U, 0x3d9e4b9b3d9c8e15U, 0xbe6bbd8c3e1810edU,
  0x3da6f58a3e8592b4U, 0xbde66ea9b986359eU, 0xbd9f95f0bcce4b97U, 0xbdb59340be83487fU,
  0xbe90906bbcd330c4U, 0xbe0715be3d56860cU, 0xbda787dabccb72a6U, 0x3ddbfc7fbd4be8f4U,
  0xbdf0fd9e3db04669U, 0xbd01ca74bdae2c54U, 0xbdb1f0d8be2ba3e5U, 0x3c31c935bcdfb2e5U,
  0xbdfd30f83d0ed3faU, 0xbd82e7a53da74e83U, 0x3c32b48c3e23ee80U, 0x3d9ee576bbef3fffU,
  0xbc4b2c4bbda3c0daU, 0xbdb4b422bc25dbe8U, 0x3e4056a23de16803U, 0xbd452c553dba253cU,
  0x3e7da876bc2b0c2bU, 0x3d479b8d3d426c72U, 0x3e50c3e3bd838f80U, 0xbcae2686bce9eaefU,
  0xbd7b9438be51dcc7U, 0xbe080dba3de68029U, 0xbd6dba013cebadcaU, 0xbe167ac13e4feb23U,
  0x3e305e683c23bc37U, 0xbd8e2a70be839e21U, 0xbd1d8206bccc31aeU, 0xbebecdd43dcf392eU,
  0xbdf0818a3db78603U, 0xbccdf74dbdda12a7U, 0xbe7f25ef3deb5f18U, 0xbe358592be862bf8U,
  0xbdb9abbf3db4b3b4U, 0x3c1294afbe9472b6U, 0xbe938f7d3c5c16bcU, 0xbc21a17d3d547527U,
  0x3e2ced0e3def8c8dU, 0x3da384bd3c9a777fU, 0xbe90a850bd80c860U, 0x3dc36298be8cde66U,
  0x3d96f33ebe206953U, 0x3d30dab73e1dd104U, 0xbed0632abe08cea2U, 0x3e6c6d6c3e05aacbU,
  0xbd9849833c3e6398U, 0x3def28a5bd5c657eU, 0xbd675409bc9a89c7U, 0x3e0950bbbe2d6e4dU,
  0x3d6bbbb2be5b5406U, 0x3deb5edf3e1437b8U, 0x3d3f74cdbd88a833U, 0xbc96a994bd5f9290U,
  0x3dae73e8bdccc215U, 0x3e060b2fbe08d756U, 0xbd6a918dbd8a14c1U, 0x3d859a8a3e12027eU,
  0xbdc7380cbe25c5d8U, 0xbd36d324bdd1ded6U, 0xbcb3a810bde16257U, 0x3d14c7b43d5799c2U,
  0xbe097c60bd7e0e9fU, 0x3dca8736be753d71U, 0xbdbc0ade3d10a48eU, 0xbe97ce32bd089838U,
  0xbe9d31bf3b81faceU, 0x3d07eceebe70c6e1U, 0xbe3cc793bd2bf601U, 0xbee839fe3dff3a8eU,
  0x3e086cb1beee5e01U, 0xbd0a41123e5a3628U, 0x3e2d45e53db3b026U, 0x3e7dae1a3d810f09U,
  0x3d45d0c1be372a8eU, 0xbd5b6d8d3db7aa63U, 0x3d0ac49abbae512aU, 0xbd1889a3bc86499dU,
  0xbd6470853e4a6975U, 0x3d9e3d113ea984e0U, 0x3dcc1e643e2e626aU, 0xbba54557bcf66206U,
  0x3e2777f7bde6e7c6U, 0xbe24a0803d4dd51bU, 0xbdb50a89bde310a9U, 0x3d2e38dbbd913f3bU,
  0x3e22c343be304dd4U, 0xbdb270263d206d5cU, 0x3cd437833bf21184U, 0xbd7775a2bd5ec4bdU,
  0xbe0e1297beb86945U, 0xbd9424033c53d772U, 0x3e5bae0cbde8f152U, 0xbdb01d3a3e8652e4U,
  0xbdc2e6ccbd00252fU, 0x3c79eeb2be581f25U, 0xbe8dd2cebe021f30U, 0xbc7d3d4abbdda07dU,
  0xbd88aa0f3d1d7df0U, 0xbe272460bcca4485U, 0xbd4368603daf494fU, 0xbd28e4f13ccebbedU,
  0xbee00e0ebdbb600bU, 0xbdb3f65b3dd7baceU, 0x3d51562cbce42eecU, 0xbd9a318bbd105ca6U,
  0x3dc5d59d3d64c3a1U, 0xbd0c334f3d8ce1ceU, 0xbc0d08433dc026b6U, 0x3de3e0b2be17036aU,
  0xbb8501983d2a5cd9U, 0x3e25083b3cc05e1cU, 0x3d94d734be19f108U, 0x3d83c8853d53d5b9U,
  0xbdb072393d804412U, 0x3e347977bdea5c27U, 0x3d850a98bdbbad8aU, 0xbd40e0e7bd9fe780U,
  0x3df657c23d5d14d2U, 0xbe20570d3df07a06U, 0x3dcdcb5d3dffdb61U, 0x3e31cb563dc633bcU,
  0x3da9e304bdac7d45U, 0xbe167acbbd055f49U, 0xbcb07064bda20fafU, 0x3e0617a9be1b4aa7U,
  0x3e2333b83db38b60U, 0xbcee91e03e0825f6U, 0xbd5ec49ebd826c3eU, 0x3e02af0abe85b3c2U,
  0x3e484f1f3e05496fU, 0xbd8f28cc3e1374deU, 0xbe9b22b1bda7292eU, 0xbdc9e4693e54888dU,
  0x3d64a435bdfdc747U, 0x3de8c509bd9f3206U, 0xbccbf88ebdb946b7U, 0xbd7bad49be553e3fU,
  0xbd014624bec35116U, 0xbe0db930bea5981dU, 0xbe0c9d823d99b693U, 0xbe39a6c1bbff2b6cU,
  0xbcf1fa373e5a2de6U, 0x3ccba9d23d793f69U, 0x3eb76619be9f2ea3U, 0xbe1453c7bdd07721U,
  0xbdfcdaa23e54624fU, 0xbdd80892bd5858a7U, 0x3dd26219be2e8e29U, 0xbd62c494bea368a9U,
  0x3e55bcf43e5d1677U, 0x3d00850c3d09697fU, 0xbe84d135b7b98024U, 0x3e0e379d3d8f2951U,
  0x3db955853da32cc4U, 0x3daec2123c83c0ccU, 0xbe6175743e0463afU, 0xbe7c05cb3e244362U,
  0xbdb7f6d7bd9968a9U, 0xbcd76bb93d7876caU, 0xbd4d6ed9bdafe8bcU, 0xbeac8f12bdd88073U,
  0x3de442573e26813dU, 0xbea47bf83e55af95U, 0xbe218035be156a4eU, 0xbd51d094bdd84be5U,
  0xbf3117edbf6b0479U, 0xbca651a3be5d2cc1U, 0xbf0b11b9bf110b7cU, 0x3e14ddaebf1d2d40U,
  0xbd12d8183e25331bU, 0x3cc3cacb3db78e1eU, 0xbd43cacbU, 0xbe069b6cbe807d15U,
  0x3bc3cacb3d43cacbU, 0xbe5c44243dab5172U, 0xbe0cb9c23cc3cacbU, 0x3c92d818bd74bd7eU,
  0xbd5c44243d2b5172U, 0xbe3dac753d9f14c5U, 0xbdab5172bbc3cacbU, 0x3c43cacbU,
  0xbdab51723c92d818U, 0xbdc3cacb3c92d818U, 0xbe12d8183d92d818U, 0x3c43cacb3d9f14c5U,
  0xbdd007783cc3cacbU, 0xbd74bd7e3cf4bd7eU, 0xbcf4bd7e3d92d818U, 0x3d74bd7e3cf4bd7eU,
  0xbdab5172bdb78e1eU, 0x3bc3cacb3bc3cacbU, 0x3de880d13d43cacbU, 0x3cc3cacb3cf4bd7eU,
  0x3bc3cacbbde880d1U, 0xbd2b5172bbc3cacbU, 0x3d869b6c3dd00778U, 0x3d74bd7e3db78e1eU,
  0x3d9f14c5bdf4bd7eU, 0xbc92d818bd9f14c5U, 0x3de880d13d869b6cU, 0x3d9f14c53d92d818U,
  0x3e0cb9c2bd74bd7eU, 0xbd74bd7ebe807d15U, 0x3d2b51723d12d818U, 0x3e1f14c53d869b6cU,
  0x3e5c4424be500778U, 0xbdc3cacbbddc4424U, 0x3d92d818be43cacbU, 0x3e069b6c3d92d818U,
  0x3e838c40be869b6cU, 0xbd9f14c5bd12d818U, 0x3dc3cacbbe62627bU, 0x3e25331b3d43cacbU,
  0x3ea223f0be3dac75U, 0xbe807d153db78e1eU, 0x3e007d15be95e743U, 0x3e0cb9c2bdab5172U,
  0xbdd007783d12d818U, 0xbcf4bd7e3c43cacbU, 0x3d869b6c3d74bd7eU, 0x3dab51723e8cb9c2U,
  0x3d5c44243d869b6cU, 0x3ddc4424bc43cacbU, 0x3d9f14c53c43cacbU, 0xbc43cacb3db78e1eU,
  0xbd43cacb3d2b5172U, 0x3db78e1e3d5c4424U, 0x3cf4bd7e3db78e1eU, 0xbe0cb9c23c92d818U,
  0xbdf4bd7ebcc3cacbU, 0x3dc3cacbbbc3cacbU, 0xbddc44243cf4bd7eU, 0x3d869b6c3d74bd7eU,
  0xbd12d81800000000U, 0x3dd007783d9f14c5U, 0xbd12d8183d5c4424U, 0x3e62627bbddc4424U,
  0xbd43cacb3cf4bd7eU, 0x3e069b6c3d2b5172U, 0x3d12d818bd2b5172U, 0x3e2b5172bd12d818U,
  0xbd43cacb3d74bd7eU, 0x3dab51723dd00778U, 0xbcf4bd7ebd12d818U, 0x3e12d8183c43cacbU,
  0xbd43cacb3d74bd7eU, 0x3d2b51723e1f14c5U, 0xbdc3cacbbcc3cacbU, 0x3ddc4424bd74bd7eU,
  0x3d869b6c3c92d818U, 0xbc43cacbbddc4424U, 0xbdab5172be25331bU, 0x3d9f14c5bc92d818U,
  0x3d9f14c5bd869b6cU, 0xbddc4424be807d15U, 0xbcc3cacbbe49e921U, 0x3e007d15bbc3cacbU,
  0x3de880d13dd00778U, 0xbdab5172be6e9f27U, 0xbcc3cacbbeb47ef3U, 0x3cf4bd7e3d2b5172U,
  0x3e49e9213e49e921U, 0xbe2b5172be12d818U, 0xbcf4bd7ebf038c40U, 0xbe18f66f3de880d1U,
  0xbe62627bbc92d818U, 0x3c92d8183d92d818U, 0xbc92d8183d12d818U, 0xbe62627b3db78e1eU,
  0xbe007d15bc43cacbU, 0x3ddc44243d74bd7eU, 0x3e3dac75U, 0xbbc3cacbbc92d818U,
  0x3d43cacbbdf4bd7eU, 0xbd869b6c3e500778U, 0x3d43cacb3d9f14c5U, 0xbe89aa973cf4bd7eU,
  0x3db78e1ebdd00778U, 0xbd869b6c3dc3cacbU, 0x3d74bd7ebcf4bd7eU, 0xbd9f14c5be12d818U,
  0x3dd00778be5625ceU, 0xbe1f14c53e5c4424U, 0x3cf4bd7ebc92d818U, 0xbd2b5172bdab5172U,
  0x3e12d818be18f66fU, 0xbe49e9213e1f14c5U, 0x3bc3cacbbd9f14c5U, 0x3d12d818bc43cacbU,
  0x3e007d15bdab5172U, 0xbe069b6c3e7adbd4U, 0xbcf4bd7e3c92d818U, 0xbe007d15bd2b5172U,
  0x3df4bd7ebd9f14c5U, 0xbedf5350bdb78e1eU, 0xbddc4424bc43cacbU, 0xbd74bd7ebdab5172U,
  0x3d92d818be500778U, 0xbe0cb9c2be25331bU, 0xbdf4bd7ebe6e9f27U, 0xbd12d818bd43cacbU,
  0x3d43cacbbddc4424U, 0xbdd00778be378e1eU, 0xbe12d818bdd00778U, 0x3cc3cacb3d74bd7eU,
  0x3dd00778bdd00778U, 0xbe069b6cbe007d15U, 0xbbc3cacb3dab5172U, 0x3e378e1ebd12d818U,
  0x3e807d15bc92d818U, 0xbde880d1bdc3cacbU, 0x3d12d8183cc3cacbU, 0x3d12d818bcf4bd7eU,
  0xbbc3cacb3c43cacbU, 0xbbc3cacbbd92d818U, 0x3bc3cacbbdc3cacbU, 0x3bc3cacbbd43cacbU,
  0x3d5c442400000000U, 0xbdab51723d12d818U, 0xbd74bd7ebddc4424U, 0x3de880d13d9f14c5U,
  0x3cc3cacbU, 0xbdd007783cf4bd7eU, 0xbdf4bd7ebddc4424U, 0x3d92d818bd5c4424U,
  0xbd74bd7e3cf4bd7eU, 0xbd74bd7ebe069b6cU, 0xbdb78e1ebde880d1U, 0x3dc3cacbbbc3cacbU,
  0x3cf4bd7eU, 0x3cc3cacbbcc3cacbU, 0xbe3dac75be8fc8edU, 0x3d12d818bd9f14c5U,
  0x3df4bd7ebcf4bd7eU, 0x3d5c4424bd12d818U, 0xbe316fc8bdd00778U, 0x3df4bd7e3cc3cacbU,
  0x3d5c4424bd92d818U, 0x3e18f66f3dab5172U, 0xbe1f14c5be25331bU, 0x3cc3cacb3e2b5172U,
  0xbc43cacbbcc3cacbU, 0x3e500778bde880d1U, 0xbe316fc8be6880d1U, 0x3e378e1ebcc3cacbU,
  0xbd5c4424bcf4bd7eU, 0x3e3dac75bdab5172U, 0xbd5c4424bd92d818U, 0x3e18f66f3dc3cacbU,
  0x3c43cacb3d869b6cU, 0x3e5c4424bd43cacbU, 0xbd43cacbbdd00778U, 0x3d92d81800000000U,
  0x3de880d100000000U, 0x3e98f66fbe838c40U, 0x3d74bd7e00000000U, 0x3d92d818bd2b5172U,
  0xbcf4bd7e3e378e1eU, 0x3edc4424be6880d1U, 0x3c43cacbbe3dac75U, 0x3dd007783e25331bU,
  0xbcf4bd7e3df4bd7eU, 0xbcc3cacbbc43cacbU, 0x3c92d818bcf4bd7eU, 0xbe1f14c5bdd00778U,
  0x3d5c4424U, 0x3dd00778be069b6cU, 0x3d43cacbbdc3cacbU, 0xbddc4424bddc4424U,
  0xbc43cacbbc43cacbU, 0xbcc3cacbbdd00778U, 0xbe069b6cbe0cb9c2U, 0x3d92d818bdc3cacbU,
  0xbdb78e1e3cc3cacbU, 0x3d5c4424bbc3cacbU, 0xbdb78e1e3d12d818U, 0x3d2b5172be49e921U,
  0x3d9f14c5bd74bd7eU, 0xbd74bd7ebe069b6cU, 0xbe1f14c53d12d818U, 0xbcc3cacbbe500778U,
  0x3e0cb9c2bdc3cacbU, 0xbd12d8183d92d818U, 0xbe43cacb3d92d818U, 0x3e2b5172be18f66fU,
  0x3dd00778be069b6cU, 0x3cc3cacbbbc3cacbU, 0xbd9f14c53d74bd7eU, 0x3e007d15be378e1eU,
  0x3e0cb9c2bdf4bd7eU, 0xbbc3cacbbd5c4424U, 0xbe007d153d869b6cU, 0x3e3dac75be0cb9c2U,
  0xbd2b5172bdab5172U, 0xbdab5172be500778U, 0xbcc3cacbbcf4bd7eU, 0x3d5c4424bcf4bd7eU,
  0x3d2b5172be2b5172U, 0xbc43cacb3c92d818U, 0xbdab5172bdab5172U, 0x3e25331bbe62627bU,
  0x3d869b6cbd74bd7eU, 0x3d43cacbbdb78e1eU, 0xbde880d13d5c4424U, 0x3e007d15bd43cacbU,
  0x3dc3cacbbe316fc8U, 0x3db78e1ebdab5172U, 0x3d869b6cbe2b5172U, 0xbd2b5172bd43cacbU,
  0xbd2b51723e5c4424U, 0x3dab5172bdc3cacbU, 0xbe25331b3e838c40U, 0x3cf4bd7ebe5c4424U,
  0xbcf4bd7e3d12d818U, 0x3d869b6cU, 0xbd12d8183e74bd7eU, 0xbd5c44243dab5172U,
  0xbd43cacb3c92d818U, 0xbcf4bd7e3e98f66fU, 0xbe3dac753e95e743U, 0xbd92d8183dab5172U,
  0xbdb78e1e3d12d818U, 0x3e3dac753e2b5172U, 0xbd92d8183e6e9f27U, 0xbd12d818bcc3cacbU,
  0x3d869b6cbc43cacbU, 0x3d92d818bd869b6cU, 0xbdf4bd7e3e92d818U, 0xbe007d153cf4bd7eU,
  0x3c92d8183dd00778U, 0x3e069b6c3cf4bd7eU, 0xbd92d8183e869b6cU, 0x3dd00778bd43cacbU,
  0x3c43cacb3dab5172U, 0x3e3dac75be62627bU, 0xbe12d8183df4bd7eU, 0x3e2b51723db78e1eU,
  0x3d869b6cbcc3cacbU, 0x3e2b5172bd74bd7eU, 0xbdb78e1ebc92d818U, 0x3e8cb9c23e069b6cU,
  0x3d2b5172bdc3cacbU, 0x3e18f66f3c43cacbU, 0xbd9f14c53bc3cacbU, 0x3e1f14c53e12d818U,
  0x3bc3cacbbd92d818U, 0x3e6880d1be74bd7eU, 0x3d74bd7ebcc3cacbU, 0x3e5c44243d5c4424U,
  0x3e007d153d2b5172U, 0x3e8fc8ed3cf4bd7eU, 0x3dc3cacbbd74bd7eU, 0x3e5007783e007d15U,
  0x3d92d818be0cb9c2U, 0x3e7adbd4be1f14c5U, 0x3e43cacbbe378e1eU, 0x3e6e9f273e378e1eU,
  0x3e49e92100000000U, 0x3e838c40bd869b6cU, 0x3e007d153c92d818U, 0xbcf4bd7ebddc4424U,
  0x3e12d818bd92d818U, 0x3e1f14c53bc3cacbU, 0x3d2b51723d12d818U, 0x3cc3cacb3c43cacbU,
  0x3de880d1bc92d818U, 0x3e007d15bc43cacbU, 0xbd869b6c3d12d818U, 0x3d9f14c5bc92d818U,
  0x3d2b51723d92d818U, 0x3ddc4424bd2b5172U, 0x3d43cacb3bc3cacbU, 0x3d43cacb3d5c4424U,
  0xbe869b6c3d869b6cU, 0x3e007d15bbc3cacbU, 0x3c43cacb3cf4bd7eU, 0x3d43cacb00000000U,
  0xbddc44243db78e1eU, 0x3ddc4424be6880d1U, 0xbe316fc8bdd00778U, 0xbe12d81800000000U,
  0xbe0cb9c23d5c4424U, 0x3c43cacbbdc3cacbU, 0xbe007d15beb78e1eU, 0xbe3dac75be0cb9c2U,
  0xbdab51723dd00778U, 0x3cc3cacbbdf4bd7eU, 0xbe007d15beccf84dU, 0xbdd00778bd92d818U,
  0xbe5007783dd00778U, 0xbd43cacbbe0cb9c2U, 0xbdc3cacbbe869b6cU, 0x3cc3cacb3dd00778U,
  0xbdab51723e007d15U, 0xbc43cacbbd5c4424U, 0xbd74bd7ebe007d15U, 0xbe0cb9c23db78e1eU,
  0xbe8cb9c2bd869b6cU, 0xbd5c4424bd92d818U, 0x3cf4bd7ebd92d818U, 0xbdc3cacb3d43cacbU,
  0xbe5625cebe869b6cU, 0xbd2b51723cf4bd7eU, 0x3cf4bd7ebd74bd7eU, 0xbd5c4424bd5c4424U,
  0x3cc3cacb3de880d1U, 0xbea5331b3d12d818U, 0xbdd00778be9f14c5U, 0xbea223f03cc3cacbU,
  0x3d92d818bbc3cacbU, 0xbd5c44243d74bd7eU, 0x3d2b5172be6e9f27U, 0xbe95e7433e069b6cU,
  0x3e62627b3c92d818U, 0xbcf4bd7e3d43cacbU, 0xbcc3cacbbed934f9U, 0xbd2b5172bcf4bd7eU,
  0x3e807d1500000000U, 0xbcf4bd7e3d2b5172U, 0xbbc3cacbbec0bba0U, 0x3dd00778bbc3cacbU,
  0x3d92d818bd74bd7eU, 0xbe7adbd43e43cacbU, 0x3d43cacbbe500778U, 0x3e3dac75bd43cacbU,
  0x3dab5172bd43cacbU, 0xbdf4bd7e3e1f14c5U, 0xbbc3cacbbe6e9f27U, 0x3e49e921bd9f14c5U,
  0xbcf4bd7eU, 0x3d74bd7e3e18f66fU, 0x3d74bd7ebe007d15U, 0x3e5625ce3dab5172U,
  0xbdc3cacb3dd00778U, 0x3d869b6c3e869b6cU, 0x3e12d8183dab5172U, 0x3e25331bbd43cacbU,
  0xbdf4bd7e3d12d818U, 0x3d43cacb3e18f66fU, 0x3cf4bd7e3cc3cacbU, 0x3e74bd7e3c92d818U,
  0xbe62627b3c43cacbU, 0x3dd007783c92d818U, 0x3d5c44243e25331bU, 0x3e25331bbc92d818U,
  0xbe3dac75bde880d1U, 0x3d92d8183e3dac75U, 0x3d5c44243ddc4424U, 0x3c43cacbbcc3cacbU,
  0xbe62627bbe1f14c5U, 0x3d869b6cbcf4bd7eU, 0x3dd00778bd12d818U, 0xbd869b6cbd9f14c5U,
  0xbd43cacbbe8cb9c2U, 0xbc92d818be74bd7eU, 0xbe838c40be25331bU, 0x3e5007783c92d818U,
  0x3e62627bbd9f14c5U, 0x3d2b5172be807d15U, 0xbdd00778bd5c4424U, 0x3e43cacbbe5c4424U,
  0x3e49e921bdb78e1eU, 0xbdc3cacbbe316fc8U, 0xbcc3cacb3cc3cacbU, 0x3e9c059abe069b6cU,
  0x3d74bd7e3c92d818U, 0xbd9f14c5bea5331bU, 0xbdd007783dc3cacbU, 0x3e378e1ebd92d818U,
  0x3bc3cacb3cc3cacbU, 0xbd92d818bcc3cacbU, 0xbc92d8183e6e9f27U, 0x3e5625ce3e869b6cU,
  0xbdc3cacbbd74bd7eU, 0x3dab5172bd12d818U, 0x3dab51723e2b5172U, 0x3d12d8183e378e1eU,
  0xbe3dac75bdf4bd7eU, 0x3e2b51723cc3cacbU, 0x3d92d8183e1f14c5U, 0xbd74bd7e3e2b5172U,
  0xbe5625cebd869b6cU, 0x3d12d8183e43cacbU, 0x3e12d8183dd00778U, 0x3bc3cacb3d9f14c5U,
  0xbdc3cacbbd5c4424U, 0x3de880d1bd2b5172U, 0x3d5c44243e12d818U, 0x3c92d8183e378e1eU,
  0xbe007d15bdc3cacbU, 0x3dc3cacb3d74bd7eU, 0xbd869b6c3e18f66fU, 0xbd92d8183d74bd7eU,
  0xbc43cacb3e069b6cU, 0x3cc3cacb00000000U, 0x3bc3cacb3d43cacbU, 0xbd12d8183d2b5172U,
  0xbd92d818bdab5172U, 0x3cc3cacbbd2b5172U, 0x3dd00778be62627bU, 0xbdf4bd7e3e12d818U,
  0xbe838c40be2b5172U, 0x3d43cacbbdd00778U, 0x3ddc44243cc3cacbU, 0xbddc4424bddc4424U,
  0xbcf4bd7ebe378e1eU, 0xbdd00778be89aa97U, 0x3d869b6c00000000U, 0x3df4bd7e3dab5172U,
  0xbd74bd7ebddc4424U, 0xbd9f14c5bdb78e1eU, 0x3d12d818bd9f14c5U, 0xbe0cb9c23cf4bd7eU,
  0xbd869b6cbd5c4424U, 0xbdf4bd7ebe25331bU, 0x3ddc4424bd12d818U, 0xbe1f14c5bd12d818U,
  0xbd9f14c53d2b5172U, 0xbe5625ce3d5c4424U, 0x3d5c4424bcf4bd7eU, 0xbe807d153d869b6cU,
  0xbe18f66fbd12d818U, 0xbeb16fc8be7adbd4U, 0xbc92d818bbc3cacbU, 0xbdb78e1e3e007d15U,
  0xbe18f66f3cf4bd7eU, 0xbe8cb9c2be5625ceU, 0xbd5c44243c92d818U, 0xbdd007783d12d818U,
  0xbe12d8183c92d818U, 0xbe807d15be5625ceU, 0xbc92d8183d12d818U, 0xbcf4bd7e3e18f66fU,
  0xbdb78e1e3df4bd7eU, 0xbe3dac75bc92d818U, 0xbd2b51723e007d15U, 0x3ddc44243d12d818U,
  0xbd43cacb3cc3cacbU, 0xbd869b6cbdab5172U, 0x3c92d818bc43cacbU, 0x3dc3cacb3d74bd7eU,
  0x3c92d8183d2b5172U, 0xbd2b5172be25331bU, 0x3c92d8183d12d818U, 0x3e12d8183e18f66fU,
  0xbcc3cacbbd92d818U, 0x3e0cb9c23d74bd7eU, 0x3ddc44243d869b6cU, 0xbe316fc83e3dac75U,
  0xbe9f14c5be500778U, 0xbdf4bd7ebe1f14c5U, 0x3dab5172be6880d1U, 0xbeba9d493de880d1U,
  0xbdf4bd7ebd5c4424U, 0xbd9f14c5U, 0xbdc3cacbbd2b5172U, 0xbe25331b3dc3cacbU,
  0xbe6e9f273d12d818U, 0xbcf4bd7e3bc3cacbU, 0xbd5c4424be25331bU, 0xbe6880d13c92d818U,
  0xbe62627b3e069b6cU, 0x3d43cacb3e007d15U, 0xbdf4bd7ebd74bd7eU, 0xbe95e743bd2b5172U,
  0xbe378e1e3d9f14c5U, 0x3d869b6c3e3dac75U, 0xbd9f14c5bbc3cacbU, 0xbe5c44243d74bd7eU,
  0xbd12d8183d2b5172U, 0x3d43cacbbcf4bd7eU, 0xbc43cacb3ddc4424U, 0xbcc3cacb3dc3cacbU,
  0x3dab5172bd92d818U, 0x3df4bd7ebc43cacbU, 0xbd869b6c3d92d818U, 0x3df4bd7ebd2b5172U,
  0xbdab51723e316fc8U, 0xbe50077800000000U, 0xbe007d153d869b6cU, 0x3bc3cacbbde880d1U,
  0x3d869b6cbd43cacbU, 0xbbc3cacbbe0cb9c2U, 0xbddc44243d9f14c5U, 0x3e316fc83c92d818U,
  0x3d5c44243d5c4424U, 0x3d869b6c3e25331bU, 0xbd74bd7e3e007d15U, 0x3e49e921bd2b5172U,
  0x3c92d818bbc3cacbU, 0x3bc3cacbbdb78e1eU, 0x3c92d8183d5c4424U, 0x3e12d818bd92d818U,
  0x3d43cacbbd92d818U, 0x3cf4bd7ebe1f14c5U, 0xbdf4bd7e3d92d818U, 0x3c43cacbbdc3cacbU,
  0xbeeb8ffcbe5c4424U, 0x3d12d8183e869b6cU, 0xbcf4bd7ebe89aa97U, 0xbe0cb9c2bdc3cacbU,
  0xbe89aa97bd43cacbU, 0x3e807d153de880d1U, 0xbcc3cacbbe12d818U, 0x3c92d8183c92d818U,
  0xbe49e9213d5c4424U, 0x3e2b51723dd00778U, 0xbddc4424be069b6cU, 0xbc92d818bd12d818U,
  0xbe6880d13d92d818U, 0x3c43cacb3e12d818U, 0x3bc3cacb3d2b5172U, 0xbe25331b3cc3cacbU,
  0xbd9f14c53e43cacbU, 0xbbc3cacb3e378e1eU, 0xbd43cacb3d92d818U, 0xbe9f14c53d74bd7eU,
  0x3df4bd7e3dc3cacbU, 0xbe1f14c5bd74bd7eU, 0xbcc3cacb3e9c059aU, 0xbe069b6cbd2b5172U,
  0x3e12d8183de880d1U, 0xbea842463db78e1eU, 0x3d5c44243e89aa97U, 0x3e5c4424bdd00778U,
  0x3e5c44243d92d818U, 0xbe6880d1be500778U, 0xbd869b6c3e2b5172U, 0x3df4bd7e3e62627bU,
  0x3df4bd7e3de880d1U, 0xbe007d15be8fc8edU, 0x3cc3cacb3d869b6cU, 0x3e3dac753d12d818U,
  0x3d43cacb3dc3cacbU, 0xbbc3cacbbcc3cacbU, 0x3d869b6c3d43cacbU, 0x3d869b6c3bc3cacbU,
  0x3dab51723bc3cacbU, 0x3dc3cacbbd92d818U, 0xbe5007783dc3cacbU, 0x3cf4bd7ebdd00778U,
  0xbd9f14c53d92d818U, 0x3d2b51723c92d818U, 0xbd2b517200000000U, 0xbdd00778U,
  0xbd5c4424bd5c4424U, 0x3cc3cacbbd92d818U, 0xbdb78e1ebc92d818U, 0x3cf4bd7e3bc3cacbU,
  0xbd43cacb3cc3cacbU, 0xbd43cacb3d74bd7eU, 0x3c43cacb3cf4bd7eU, 0x3bc3cacbbdb78e1eU,
  0x3cc3cacbbe0cb9c2U, 0xbdab51723c43cacbU, 0xbd74bd7ebd43cacbU, 0xbd92d8183d12d818U,
  0xbdc3cacbbdc3cacbU, 0xbd12d818bd74bd7eU, 0x3d43cacbbd5c4424U, 0x3d5c4424bd5c4424U,
  0xbd43cacbbddc4424U, 0xbd43cacbbd43cacbU, 0xbd43cacbbcc3cacbU, 0x3d5c44243c43cacbU,
  0xbd2b5172bcf4bd7eU, 0xbbc3cacbbd869b6cU, 0x3d9f14c53c92d818U, 0x3cc3cacbbd5c4424U,
  0xbd2b51723d74bd7eU, 0x3cc3cacbU, 0xbd869b6cbdb78e1eU, 0x3d869b6c3c43cacbU,
  0xbc92d818bdab5172U, 0xbd869b6cbd43cacbU, 0xbcf4bd7ebd5c4424U, 0x3cc3cacbbdc3cacbU,
  0x3bc3cacbbd2b5172U, 0xbddc4424bdb78e1eU, 0xbddc4424bc92d818U, 0x3d12d8183d2b5172U,
  0xbdb78e1ebd43cacbU, 0xbd5c4424bd5c4424U, 0x3d43cacbbd5c4424U, 0xbd9f14c53c43cacbU,
  0xbd43cacbbc92d818U, 0xbd92d818bc92d818U, 0xbc92d818bbc3cacbU, 0x3cf4bd7e3c43cacbU,
  0xbd9f14c5bc43cacbU, 0xbd5c4424bcf4bd7eU, 0xbd9f14c5bbc3cacbU, 0x3c92d818bcc3cacbU,
  0x3d12d81800000000U, 0xbdab51723d869b6cU, 0x3cc3cacbbd2b5172U, 0x3d43cacbU,
  0x3d5c4424bddc4424U, 0x3d92d81800000000U, 0x3d869b6cbdc3cacbU, 0x3d12d818bcc3cacbU,
  0x3c92d818bdf4bd7eU, 0x3c92d818bbc3cacbU, 0xbd2b5172bd43cacbU, 0xbd9f14c5bcf4bd7eU,
  0xbdf4bd7ebcf4bd7eU, 0x3d2b51723d869b6cU, 0x3d2b51723d12d818U, 0xbddc44243d43cacbU,
  0xbcf4bd7ebdb78e1eU, 0xbddc4424bcc3cacbU, 0xbddc44243cf4bd7eU, 0x3d869b6cbbc3cacbU,
  0x3cc3cacb3d2b5172U, 0x3cf4bd7e3d2b5172U, 0xbcc3cacb3d74bd7eU, 0x3d74bd7ebd5c4424U,
  0xbc43cacb3bc3cacbU, 0x3d74bd7ebdd00778U, 0xbd2b5172bddc4424U, 0x3d43cacb3d43cacbU,
  0x3d43cacbbdf4bd7eU, 0xbd92d8183d5c4424U, 0xbd2b51723c92d818U, 0xbdf4bd7ebcc3cacbU,
  0xbc92d818bd5c4424U, 0xbde880d13d869b6cU, 0x3d2b5172bc43cacbU, 0x3c92d818be007d15U,
  0x3bc3cacbbd869b6cU, 0xbdd00778bddc4424U, 0xbd2b5172bde880d1U, 0xbd869b6cbdb78e1eU,
  0xbddc4424bd9f14c5U, 0xbd12d8183c92d818U, 0xbde880d1bd92d818U, 0xbde880d13c43cacbU,
  0xbe069b6cbe069b6cU, 0xbdf4bd7ebd2b5172U, 0xbd9f14c5bd869b6cU, 0x3cf4bd7ebc92d818U,
  0x3cc3cacbbd12d818U, 0x3c43cacb3d5c4424U, 0x3c92d8183cc3cacbU, 0x3c43cacb3cf4bd7eU,
  0x3cf4bd7ebd43cacbU, 0x3cc3cacbbd12d818U, 0xbcc3cacbbd43cacbU, 0xbbc3cacb3cc3cacbU,
  0xbd12d8183d9f14c5U, 0xbd12d818bcc3cacbU, 0x3c43cacb00000000U, 0x3bc3cacbbd12d818U,
  0x3d12d818bdab5172U, 0xbdb78e1ebd869b6cU, 0xbd74bd7e3d5c4424U, 0xbbc3cacb3d43cacbU,
  0xbdb78e1ebcc3cacbU, 0xbdb78e1ebd74bd7eU, 0xbd9f14c5bdc3cacbU, 0xbddc44243d92d818U,
  0x3c92d818bde880d1U, 0x3d12d818bd12d818U, 0x3bc3cacb3c92d818U, 0xbc43cacbbbc3cacbU,
  0xbbc3cacbbd92d818U, 0xbd9f14c5bdd00778U, 0xbd74bd7e3d2b5172U, 0xbbc3cacb3d2b5172U,
  0x3cf4bd7ebd43cacbU, 0xbddc4424U, 0xbdd00778bd43cacbU, 0xbdd00778bd92d818U,
  0x3d2b5172bbc3cacbU, 0xbd2b5172bdc3cacbU, 0x3db78e1ebbc3cacbU, 0xbd92d818bd869b6cU,
  0xbdc3cacb3cc3cacbU, 0x3cf4bd7ebd12d818U, 0x3d2b5172bdab5172U, 0x3d74bd7ebc92d818U,
  0xbbc3cacb3c92d818U, 0xbddc4424bd12d818U, 0x3bc3cacbbd74bd7eU, 0x3d5c44243cf4bd7eU,
  0x3c43cacbbd869b6cU, 0x3d2b5172bd869b6cU, 0xbd869b6c3cc3cacbU, 0x3cf4bd7e3d43cacbU,
  0xbdb78e1ebd74bd7eU, 0xbd12d818bdc3cacbU, 0xbd74bd7ebe069b6cU, 0xbc43cacbbdc3cacbU,
  0xbdab5172bc43cacbU, 0xbc43cacbbc92d818U, 0xbd43cacb3cf4bd7eU, 0xbe0cb9c2bd74bd7eU,
  0xbdf4bd7ebd92d818U, 0xbd9f14c5bcf4bd7eU, 0xbd74bd7ebdf4bd7eU, 0xbde880d1bde880d1U,
  0xbe069b6c3bc3cacbU, 0xbdd007783c92d818U, 0x3c92d818bcf4bd7eU, 0xbc43cacbbd43cacbU,
  0xbcf4bd7ebdf4bd7eU, 0xbd12d818bdf4bd7eU, 0xbd2b5172bd74bd7eU, 0x3d2b5172bdab5172U,
  0xbdc3cacb3cc3cacbU, 0x3d5c4424bd43cacbU, 0x3d9f14c5bdb78e1eU, 0x3d74bd7ebd92d818U,
  0xbc43cacbbdab5172U, 0x3cc3cacb3cf4bd7eU, 0xbbc3cacbbcc3cacbU, 0xbdab5172bc43cacbU,
  0x3cc3cacb3bc3cacbU, 0x3d5c44243d5c4424U, 0xbc92d8183c43cacbU, 0xbd5c44243d2b5172U,
  0xbdab51723cf4bd7eU, 0xbc43cacbbd2b5172U, 0x3d5c4424bc43cacbU, 0xbd12d818bd869b6cU,
  0xbcf4bd7ebd5c4424U, 0xbcc3cacbbd74bd7eU, 0xbd9f14c5U, 0x3c43cacbbdf4bd7eU,
  0x3cf4bd7ebcc3cacbU, 0x3d5c442400000000U, 0xbd5c44243d9f14c5U, 0x3cc3cacb3c43cacbU,
  0x3d92d818bde880d1U, 0xbd74bd7e3d2b5172U, 0x3d74bd7e3d9f14c5U, 0x3bc3cacb3d12d818U,
  0xbbc3cacb3c92d818U, 0xbcf4bd7e3d869b6cU, 0x3d5c44243dab5172U, 0xbdf4bd7ebc92d818U,
  0x3cf4bd7ebd869b6cU, 0xbcc3cacbbcf4bd7eU, 0xbcc3cacbbd74bd7eU, 0xbd9f14c53d2b5172U,
  0xbd43cacb3d12d818U, 0x3d5c44243cc3cacbU, 0x3dab5172bbc3cacbU, 0xbcc3cacb3c43cacbU,
  0xbd2b5172be069b6cU, 0x3c92d8183cf4bd7eU, 0x3d12d818bd74bd7eU, 0xbc92d818bd869b6cU,
  0x3d5c4424bc43cacbU, 0xbe007d15bdab5172U, 0x3c92d8183cf4bd7eU, 0x3bc3cacbbd9f14c5U,
  0xbd12d818U, 0xbd12d818bdb78e1eU, 0x3d2b5172bc43cacbU, 0x3d43cacbbdc3cacbU,
  0xbd9f14c5bd869b6cU, 0x3d2b5172bdab5172U, 0xbdab51723d9f14c5U, 0x3d2b5172bd43cacbU,
  0xbddc44243cc3cacbU, 0xbbc3cacbbcc3cacbU, 0x3d74bd7e3c43cacbU, 0xbdd00778be007d15U,
  0x3cf4bd7ebd74bd7eU, 0x3c43cacb00000000U, 0xbd92d8183db78e1eU, 0x3d9f14c5bd43cacbU,
  0xbd2b5172bcc3cacbU, 0x3bc3cacbbdb78e1eU, 0x3d92d8183c43cacbU, 0xbdab5172bd869b6cU,
  0x3d2b5172bd2b5172U, 0x3d2b5172U, 0xbd869b6cbd869b6cU, 0x3cc3cacbbcf4bd7eU,
  0xbde880d1bddc4424U, 0xbdd007783d74bd7eU, 0xbdd00778bcf4bd7eU, 0xbd2b5172U,
  0xbd74bd7ebd12d818U, 0x3c43cacbbe007d15U, 0xbd12d81800000000U, 0xbc43cacbbd92d818U,
  0x3cf4bd7ebe069b6cU, 0xbe007d1500000000U, 0xbd9f14c500000000U, 0xbd92d818bdb78e1eU,
  0xbddc44243d12d818U, 0xbd869b6cbdab5172U, 0xbd92d818be007d15U, 0xbdab5172bdd00778U,
  0xbcc3cacbbdd00778U, 0x3d869b6cbd869b6cU, 0xbcf4bd7ebd5c4424U, 0xbc92d81800000000U,
  0xbcc3cacbbdc3cacbU, 0x3d2b5172bdab5172U, 0xbdab5172bd43cacbU, 0xbd869b6c3c43cacbU,
  0xbd869b6cbdc3cacbU, 0xbd43cacbbddc4424U, 0xbd2b5172bdc3cacbU, 0xbdab5172bd2b5172U,
  0xbd74bd7ebcc3cacbU, 0x3c92d818bd92d818U, 0xbe007d153cf4bd7eU, 0x3d869b6cbd43cacbU,
  0xbd12d818U, 0xbcc3cacbbdc3cacbU, 0xbcf4bd7ebd869b6cU, 0x3bc3cacbbc43cacbU,
  0xbc92d8183c43cacbU, 0xbde880d13d12d818U, 0x3bc3cacbbcc3cacbU, 0x3d2b51723cf4bd7eU,
  0xbe069b6cbdab5172U, 0x3cf4bd7ebc43cacbU, 0xbc43cacbbdb78e1eU, 0xbc43cacbbd92d818U,
  0x3d43cacb3d43cacbU, 0xbd12d818bdd00778U, 0xbd2b51723d869b6cU, 0xbc43cacbbd74bd7eU,
  0x3cc3cacbbd74bd7eU, 0x3d869b6cbddc4424U, 0x3d869b6cbc43cacbU, 0xbcc3cacbbe0cb9c2U,
  0x3db78e1ebe1f14c5U, 0xbdc3cacbbc43cacbU, 0x3d9f14c53cc3cacbU, 0xbe2b51723d869b6cU,
  0x3d43cacbbbc3cacbU, 0x3c43cacb3cc3cacbU, 0x3cf4bd7ebc43cacbU, 0xbe5007783cf4bd7eU,
  0x3d869b6c3dc3cacbU, 0x3d2b5172bdc3cacbU, 0xbd5c4424bc92d818U, 0xbe25331b3d12d818U,
  0x3d869b6c3db78e1eU, 0x3cc3cacbbe25331bU, 0xbcc3cacb3cc3cacbU, 0xbe316fc83cf4bd7eU,
  0x3d9f14c53dab5172U, 0x3c92d818be62627bU, 0xbdb78e1ebd9f14c5U, 0xbe2b51723dd00778U,
  0xbc92d818bcc3cacbU, 0x3d74bd7ebe25331bU, 0xbe500778bdb78e1eU, 0xbe007d1500000000U,
  0xbd43cacbbd869b6cU, 0x3ddc4424bde880d1U, 0xbe6880d1be007d15U, 0xbe43cacbbbc3cacbU,
  0xbe49e9213c43cacbU, 0x3d92d818bdab5172U, 0xbe007d15bd9f14c5U, 0xbe62627bbdd00778U,
  0xbeba9d49bcc3cacbU, 0x3dd00778bde880d1U, 0xbe62627bbc92d818U, 0xbe9f14c5bbc3cacbU,
  0xbeeb8ffc3c92d818U, 0x3df4bd7ebddc4424U, 0xbd5c4424bdd00778U, 0xbed007783d2b5172U,
  0xbeeb8ffc00000000U, 0x3df4bd7ebd5c4424U, 0xbd43cacbbe007d15U, 0xbf09aa973cc3cacbU,
  0xbef1ae53bdf4bd7eU, 0xbe12d818bd9f14c5U, 0xbd12d818be807d15U, 0xbea5331bbd92d818U,
  0x3dc3cacb00000000U, 0x3d869b6c3cf4bd7eU, 0x3de880d1be007d15U, 0x3bc3cacb3c43cacbU,
  0x3d5c44243bc3cacbU, 0x3cc3cacb3dc3cacbU, 0x3e18f66fbcc3cacbU, 0x3d92d818bbc3cacbU,
  0xbd869b6cU, 0xbd74bd7ebd12d818U, 0x3e378e1e3e1f14c5U, 0xbd92d8183ddc4424U,
  0x3d43cacb3c92d818U, 0x3c43cacbbd2b5172U, 0x3ddc44243e9c059aU, 0xbd5c44243de880d1U,
  0xbcc3cacb3d74bd7eU, 0xbd869b6cbdc3cacbU, 0x3cf4bd7e3e49e921U, 0xbcf4bd7e3d74bd7eU,
  0xbd92d8183bc3cacbU, 0xbc43cacbU, 0xbd92d8183eb78e1eU, 0x3c43cacb3c92d818U,
  0xbdc3cacb3d2b5172U, 0x3c43cacb3c92d818U, 0xbe5625ce3e89aa97U, 0xbcc3cacb00000000U,
  0xbe6880d13d12d818U, 0xbc92d818bd9f14c5U, 0xbe12d8183e7adbd4U, 0x3d92d818bc43cacbU,
  0xbe25331bbcf4bd7eU, 0xbd2b5172bdab5172U, 0xbe43cacb3e500778U, 0x3e3dac753bc3cacbU,
  0xbddc4424bdab5172U, 0x3d2b5172bcc3cacbU, 0xbd2b5172bd43cacbU, 0x3e316fc8bcc3cacbU,
  0xbe069b6cbcf4bd7eU, 0xbcc3cacbbe807d15U, 0xbdd00778be25331bU, 0x3e3dac753dab5172U,
  0xbd92d818bdf4bd7eU, 0x3d43cacbbd92d818U, 0x3d2b5172bea84246U, 0xbd12d8183c92d818U,
  0xbe18f66f3d9f14c5U, 0xbc43cacb3c43cacbU, 0x3dc3cacbbcf4bd7eU, 0xbdc3cacb3d43cacbU,
  0xbe95e7433dc3cacbU, 0x3c92d818bd43cacbU, 0x3e378e1e3d2b5172U, 0xbe12d8183db78e1eU,
  0xbdf4bd7e3d2b5172U, 0x3d12d818bd9f14c5U, 0x3de880d100000000U, 0xbe25331b3df4bd7eU,
  0xbdd007783d5c4424U, 0x3c92d818bc43cacbU, 0x3e069b6c3c43cacbU, 0xbe2b5172bcc3cacbU,
  0xbcc3cacb3d5c4424U, 0x3c92d818be62627bU, 0x3bc3cacb3de880d1U, 0xbd9f14c500000000U,
  0x3cf4bd7e3bc3cacbU, 0x3c92d818bd9f14c5U, 0xbd43cacb3d9f14c5U, 0x3c43cacbbcf4bd7eU,
  0x3d5c4424bdab5172U, 0xbe838c40bc43cacbU, 0xbdb78e1ebc43cacbU, 0xbbc3cacb3d12d818U,
  0x3dd00778bc43cacbU, 0xbe0cb9c23cf4bd7eU, 0xbdb78e1ebbc3cacbU, 0xbc43cacb3c43cacbU,
  0x3cc3cacbbcf4bd7eU, 0xbe2b5172bc92d818U, 0xbe12d8183cf4bd7eU, 0x3d74bd7ebd43cacbU,
  0xbc43cacbbc43cacbU, 0x3e378e1ebd43cacbU, 0x3d869b6cbddc4424U, 0xbc43cacb3d92d818U,
  0xbd869b6cbc92d818U, 0x3dd00778bcf4bd7eU, 0x3dab5172bd74bd7eU, 0x3c92d818bddc4424U,
  0xbd9f14c5bbc3cacbU, 0x3e316fc8bd869b6cU, 0x3bc3cacbbd12d818U, 0xbdb78e1ebd74bd7eU,
  0x3d92d8183de880d1U, 0x3ddc4424bd12d818U, 0x3dd00778bde880d1U, 0x3e43cacb3df4bd7eU,
  0x3c92d818bd2b5172U, 0x3d74bd7ebd9f14c5U, 0x3dab51723d92d818U, 0xbd5c4424bd869b6cU,
  0xbc43cacbbddc4424U, 0x3bc3cacbbe5625ceU, 0x3cf4bd7e3d869b6cU, 0xbe069b6c3d869b6cU,
  0x3dc3cacbbdd00778U, 0xbdb78e1ebed934f9U, 0x3d43cacb3e316fc8U, 0xbea223f03c43cacbU,
  0x3c43cacbbe0cb9c2U, 0xbdc3cacbbe869b6cU, 0x3e316fc83e8fc8edU, 0xbe12d8183d74bd7eU,
  0x3bc3cacbbdab5172U, 0xbe18f66fbe807d15U, 0xbdb78e1e3e838c40U, 0xbe316fc83d2b5172U,
  0x3cf4bd7ebd9f14c5U, 0xbe869b6cbdab5172U, 0xbd5c44243e6e9f27U, 0xbdf4bd7e3e316fc8U,
  0x3d12d8183c92d818U, 0xbd869b6cbddc4424U, 0xbdc3cacb3ea223f0U, 0xbd869b6c3e838c40U,
  0xbd869b6c3cc3cacbU, 0x3ddc4424bcc3cacbU, 0xbd43cacb3bc3cacbU, 0x3dab51723de880d1U,
  0xbe2b51723e0cb9c2U, 0xbc43cacbbd869b6cU, 0xbbc3cacb3d2b5172U, 0x3d9f14c5bd74bd7eU,
  0xbcc3cacb3dc3cacbU, 0x3d869b6cbdc3cacbU, 0x3e25331b3e12d818U, 0x3dd007783e1f14c5U,
  0xbde880d1be069b6cU, 0x3dd00778be74bd7eU, 0x3d869b6cbdb78e1eU, 0x3e5007783e1f14c5U,
  0x3d43cacb3e12d818U, 0x3de880d1bcf4bd7eU, 0x3bc3cacbbe43cacbU, 0x3e7adbd43dc3cacbU,
  0xbd43cacb3d2b5172U, 0x3d92d818be95e743U, 0xbd74bd7ebe0cb9c2U, 0xbd74bd7e3e5625ceU,
  0xbdb78e1ebcf4bd7eU, 0x3ddc4424bec9e921U, 0xbe25331bbc92d818U, 0xbd12d8183e007d15U,
  0xbc92d818bd92d818U, 0x3cf4bd7ebec3cacbU, 0xbe5625cebd92d818U, 0xbc92d8183e25331bU,
  0x3bc3cacbbc92d818U, 0xbd12d818bea5331bU, 0xbe62627b3e25331bU, 0xbcc3cacb3d12d818U,
  0x3d92d8183d5c4424U, 0xbd869b6cbe5625ceU, 0xbe5c44243d9f14c5U, 0xbe49e921bc43cacbU,
  0x3d12d8183cf4bd7eU, 0xbdc3cacbbdf4bd7eU, 0xbc92d8183e2b5172U, 0x3cf4bd7ebc92d818U,
  0xbd74bd7e3d92d818U, 0xbd869b6cbe1f14c5U, 0xbddc44243eae609dU, 0xbd74bd7ebe069b6cU,
  0xbc43cacb3e069b6cU, 0xbd9f14c5be007d15U, 0x3d9f14c53e378e1eU, 0x3d869b6cbcf4bd7eU,
  0x3cf4bd7e3cf4bd7eU, 0xbd869b6cbd9f14c5U, 0x3c43cacb3d2b5172U, 0x3e378e1ebdab5172U,
  0x3e069b6cbc43cacbU, 0xbc43cacbbd9f14c5U, 0x3c92d818bd2b5172U, 0x3d12d818bcc3cacbU,
  0x3df4bd7ebcf4bd7eU, 0x3d5c44243bc3cacbU, 0xbd74bd7ebe0cb9c2U, 0x3dab5172be2b5172U,
  0x3d2b51723e95e743U, 0x3d43cacb3d74bd7eU, 0x3dc3cacbbe1f14c5U, 0xbe3dac753e74bd7eU,
  0xbc43cacb3e869b6cU, 0xbdab5172be807d15U, 0x3ddc4424be89aa97U, 0xbc92d8183c92d818U,
  0xbe12d8183e6e9f27U, 0xbd9f14c5be95e743U, 0xbdd00778bcf4bd7eU, 0x3e3dac75bc43cacbU,
  0xbd43cacb3e18f66fU, 0xbcc3cacbbe2b5172U, 0xbd43cacb3e0cb9c2U, 0xbd92d818U,
  0xbc43cacb3e2b5172U, 0xbd92d818bea5331bU, 0xbe5625ce3e3dac75U, 0xbbc3cacbbdd00778U,
  0x3d869b6c3e500778U, 0xbe6e9f27be2b5172U, 0xbe1f14c53e9f14c5U, 0xbe3dac75bdc3cacbU,
  0x3c92d8183e2b5172U, 0xbde880d1be378e1eU, 0xbdb78e1e3e5625ceU, 0xbd74bd7e3e378e1eU,
  0xbd92d8183d74bd7eU, 0x3cc3cacbbe807d15U, 0xbd92d8183eeb8ffcU, 0x3e49e9213d92d818U,
  0x3e0cb9c23dab5172U, 0xbe316fc8beb78e1eU, 0x3d869b6c3ea84246U, 0x3e007d153d2b5172U,
  0x3bc3cacb3cc3cacbU, 0xbe500778be74bd7eU, 0x3c92d8183d92d818U, 0x3e2b5172bd74bd7eU,
  0x3dab5172bd9f14c5U, 0xbd12d818be12d818U, 0xbdab51723d92d818U, 0x3df4bd7ebe25331bU,
  0x3c43cacbbde880d1U, 0x3e9f14c53bc3cacbU, 0xbe500778bd92d818U, 0x3e25331bbe12d818U,
  0x3d92d818be62627bU, 0xbddc4424bc43cacbU, 0x3d869b6c3c43cacbU, 0xbe7adbd4bd869b6cU,
  0xbc92d818be18f66fU, 0xbe1f14c5bcf4bd7eU, 0x3e18f66f3d869b6cU, 0xbe069b6cbdb78e1eU,
  0xbdd00778bcc3cacbU, 0xbe2b51723cc3cacbU, 0x3e316fc83ddc4424U, 0xbd74bd7ebcc3cacbU,
  0xbdf4bd7e3d869b6cU, 0xbd12d8183cc3cacbU, 0xbcf4bd7e3d9f14c5U, 0xbc92d8183d5c4424U,
  0xbe069b6c3d9f14c5U, 0x3e43cacb3e069b6cU, 0xbd2b51723d5c4424U, 0x3db78e1ebd12d818U,
  0xbd5c44243d5c4424U, 0x3e2b51723dc3cacbU, 0x3e1f14c5bd2b5172U, 0x3e25331bbe500778U,
  0x3e1f14c53d74bd7eU, 0x3df4bd7e3e0cb9c2U, 0x3d43cacbbeae609dU, 0xbdab5172be6880d1U,
  0x3dd00778bd9f14c5U, 0xbe0cb9c2bd12d818U, 0x3cc3cacbbe98f66fU, 0xbcf4bd7ebe43cacbU,
  0x3dd00778be3dac75U, 0xbea5331b3d869b6cU, 0xbe007d15be12d818U, 0x3d92d818bd2b5172U,
  0x3cc3cacb3d12d818U, 0xbe6e9f27bcf4bd7eU, 0xbd74bd7e00000000U, 0xbbc3cacbbc43cacbU,
  0xbe0cb9c2bd12d818U, 0xbe007d15bd12d818U, 0xbcf4bd7e3db78e1eU, 0x3d43cacbbd2b5172U,
  0xbddc4424bc43cacbU, 0x3d43cacbbdd00778U, 0xbdb78e1e3dc3cacbU, 0x3e5007783d9f14c5U,
  0xbe2b5172bd5c4424U, 0x3e18f66f3c43cacbU, 0xbde880d13bc3cacbU, 0xbcf4bd7e3ddc4424U,
  0xbd9f14c5bd9f14c5U, 0x3d43cacbbd9f14c5U, 0xbd43cacb3df4bd7eU, 0xbdd007783d5c4424U,
  0xbe18f66fbe007d15U, 0xbc92d818bd74bd7eU, 0x3d869b6cbe25331bU, 0x3d43cacb3dab5172U,
  0xbe378e1ebe069b6cU, 0x3de880d13c43cacbU, 0x3d2b5172be1f14c5U, 0xbe807d15bd5c4424U,
  0xbd74bd7ebd12d818U, 0xbbc3cacbbde880d1U, 0xbc92d818be7adbd4U, 0xbdb78e1ebd43cacbU,
  0xbd12d8183bc3cacbU, 0xbeeb8ffcbe838c40U, 0xbe95e743U, 0xbe0cb9c2be838c40U,
  0x3cc3cacbU, 0x3cc3cacb3d2b5172U, 0xbc92d818be8cb9c2U, 0xbe316fc8be92d818U,
  0x3e0cb9c23d2b5172U, 0xbd2b51723bc3cacbU, 0xbde880d1be18f66fU, 0xbe069b6cbe2b5172U,
  0x3e069b6c3dab5172U, 0xbd92d818bd12d818U, 0xbd92d818bdb78e1eU, 0xbe18f66fbe2b5172U,
  0x3d869b6c3bc3cacbU, 0xbdb78e1ebd869b6cU, 0xbd869b6c3d74bd7eU, 0xbe2b5172bd9f14c5U,
  0xbc43cacbbdb78e1eU, 0xbdb78e1ebdd00778U, 0x3bc3cacbbd92d818U, 0x3c92d8183e007d15U,
  0xbddc4424be3dac75U, 0xbd5c4424bd12d818U, 0x3cf4bd7ebe0cb9c2U, 0x3d2b51723e18f66fU,
  0x3bc3cacbbd869b6cU, 0xbd74bd7ebe5c4424U, 0x3cf4bd7e3de880d1U, 0x3e0cb9c23ea5331bU,
  0xbd12d8183cf4bd7eU, 0x3d43cacbbd869b6cU, 0xbdc3cacb3e869b6cU, 0xbbc3cacb3e378e1eU,
  0xbcf4bd7e3e25331bU, 0x3e2b51723c92d818U, 0xbde880d13e18f66fU, 0x3d9f14c53d2b5172U,
  0xbe49e9213e25331bU, 0x3dc3cacb3dd00778U, 0xbcf4bd7ebd869b6cU, 0xbe12d818bd43cacbU,
  0x3d2b51723cf4bd7eU, 0xbc92d818bd9f14c5U, 0x3d2b5172bd5c4424U, 0xbbc3cacb3dc3cacbU,
  0x3d12d818be18f66fU, 0xbddc4424bde880d1U, 0x3e12d818be1f14c5U, 0x3d869b6cbc43cacbU,
  0xbd43cacbbddc4424U, 0x3d43cacbbc43cacbU, 0x3e49e921bd9f14c5U, 0xbd5c4424bd9f14c5U,
  0x3c92d818bdb78e1eU, 0xbdd00778bdf4bd7eU, 0x3de880d1bdab5172U, 0x3d92d818be007d15U,
  0xbdb78e1e3d74bd7eU, 0xbcf4bd7e3d869b6cU, 0x3d9f14c5bd2b5172U, 0x3e378e1ebe007d15U,
  0x3cf4bd7e3e378e1eU, 0x3e6880d1be500778U, 0xbe0cb9c23db78e1eU, 0x3dab5172bdc3cacbU,
  0x3c43cacb3cc3cacbU, 0xbd869b6c3cf4bd7eU, 0xbe74bd7ebd869b6cU, 0x3dab5172be12d818U,
  0xbd74bd7e3dd00778U, 0xbcc3cacb3cc3cacbU, 0xbd92d818be49e921U, 0x3de880d1bd12d818U,
  0xbdc3cacb3de880d1U, 0x3e12d81800000000U, 0xbd869b6c3e6880d1U, 0x3e6e9f273dc3cacbU,
  0xbd5c44243dd00778U, 0xbd74bd7ebc43cacbU, 0x3df4bd7e3e0cb9c2U, 0x3d869b6c3e0cb9c2U,
  0x3cf4bd7e3dc3cacbU, 0x3d43cacbbdab5172U, 0x3dc3cacb3e98f66fU, 0x3e18f66fbd2b5172U,
  0xbe069b6cbd9f14c5U, 0xbddc4424U, 0x3e838c4000000000U, 0x3cf4bd7ebbc3cacbU,
  0xbd43cacbbd12d818U, 0xbe500778bea223f0U, 0x3e43cacbbd12d818U, 0x3e5c44243cf4bd7eU,
  0x3d869b6cbdc3cacbU, 0xbe3dac75be2b5172U, 0x3d74bd7ebdb78e1eU, 0x3d869b6c3e069b6cU,
  0xbde880d1bd92d818U, 0xbdc3cacbbe316fc8U, 0x3e007d15be316fc8U, 0xbd9f14c5bd12d818U,
  0x3cc3cacbbe5c4424U, 0x3d74bd7e3e12d818U, 0x3db78e1e3db78e1eU, 0xbe89aa973dab5172U,
  0x3db78e1ebdab5172U, 0x3d74bd7e3dab5172U, 0x3d43cacbbc43cacbU, 0xbe0cb9c2bcc3cacbU,
  0xbdd00778bdb78e1eU, 0x3e62627bbdb78e1eU, 0xbcc3cacb3d869b6cU, 0xbbc3cacbbe069b6cU,
  0xbbc3cacb3d74bd7eU, 0x3e1f14c53cc3cacbU, 0xbd12d8183dd00778U, 0x3d12d818bd5c4424U,
  0xbdd007783bc3cacbU, 0x3d5c4424bddc4424U, 0xbe25331b3cc3cacbU, 0x3d74bd7e3c92d818U,
  0x3d869b6cbd12d818U, 0x3dd00778be25331bU, 0xbd2b51723dc3cacbU, 0x3e2b517200000000U,
  0x3cc3cacb3e25331bU, 0xbd2b51723d869b6cU, 0xbc43cacb3e9f14c5U, 0x3d2b51723e378e1eU,
  0xbde880d13eb16fc8U, 0x3d5c44243d5c4424U, 0xbd869b6c3e49e921U, 0x3db78e1ebe0cb9c2U,
  0xbe0cb9c23e5c4424U, 0x3e007d15bbc3cacbU, 0x3d43cacb3d74bd7eU, 0x3e9f14c53cf4bd7eU,
  0xbe007d153e378e1eU, 0x3d9f14c5bd43cacbU, 0x3e3dac75be8fc8edU, 0x3e25331bbd92d818U,
  0xbddc44243e43cacbU, 0x3e18f66fbe378e1eU, 0x3e378e1ebe43cacbU, 0x3e500778bdb78e1eU,
  0x3cc3cacbbcf4bd7eU, 0x3bc3cacbbe1f14c5U, 0x3e25331bbdd00778U, 0x3e069b6cbbc3cacbU,
  0xbe18f66fbd5c4424U, 0xbe2b5172bcf4bd7eU, 0x3e007d15bd869b6cU, 0xbd9f14c53e18f66fU,
  0xbdc3cacb3cc3cacbU, 0x3de880d13d74bd7eU, 0x3dd00778be25331bU, 0xbc43cacbbd869b6cU,
  0x3c92d818bdb78e1eU, 0x3d5c44243de880d1U, 0xbd43cacbbde880d1U, 0xbe12d818bbc3cacbU,
  0x3cc3cacb3dd00778U, 0xbd92d8183e9f14c5U, 0xbd9f14c5bbc3cacbU, 0xbe1f14c53cf4bd7eU,
  0xbe007d15bd5c4424U, 0xbd92d8183db78e1eU, 0xbc92d818bdb78e1eU, 0xbdd007783ddc4424U,
  0xbe1f14c5bd43cacbU, 0x3de880d13d74bd7eU, 0x3e3dac753e5625ceU, 0xbd5c4424be18f66fU,
  0x3d43cacb3e62627bU, 0xbd74bd7e3df4bd7eU, 0x3e007d153e378e1eU, 0xbe74bd7ebbc3cacbU,
  0xbe069b6c3e2b5172U, 0x3d869b6cbd92d818U, 0xbe069b6cU, 0x3e25331bbe1f14c5U,
  0xbe0cb9c23ddc4424U, 0xbcf4bd7ebd12d818U, 0xbd92d8183db78e1eU, 0x3d9f14c5bdf4bd7eU,
  0xbbc3cacb3e6880d1U, 0x3df4bd7e3cc3cacbU, 0x3dc3cacbbe0cb9c2U, 0x3d5c4424be2b5172U,
  0xbe18f66f3db78e1eU, 0xbd9f14c53d5c4424U, 0x3dd00778bed316a3U, 0x3dab5172bdf4bd7eU,
  0x3dd00778bd92d818U, 0x3e18f66f3e2b5172U, 0x3d92d818bedc4424U, 0x3dc3cacb00000000U,
  0x3d5c4424be007d15U, 0x3e25331bbd5c4424U, 0x3e49e921be316fc8U, 0x3c43cacbbd9f14c5U,
  0xbde880d1U, 0x3ec0bba0bc92d818U, 0xbddc4424be3dac75U, 0xbcf4bd7ebe62627bU,
  0xbe7adbd4bd869b6cU, 0x3e378e1e3bc3cacbU, 0xbd9f14c5be0cb9c2U, 0xbe378e1ebe007d15U,
  0xbdab51723c92d818U, 0x3e5625cebe500778U, 0xbdc3cacbbe500778U, 0xbe92d81800000000U,
  0x3d12d8183df4bd7eU, 0x3d869b6cbe1f14c5U, 0xbe5c4424be8cb9c2U, 0xbe807d15be49e921U,
  0xbd5c4424bd5c4424U, 0x3d2b5172be25331bU, 0x3ddc4424be9f14c5U, 0xbe500778bddc4424U,
  0xbcc3cacbbe007d15U, 0x3c43cacbbd9f14c5U, 0xbd2b5172be74bd7eU, 0xbdc3cacbbd869b6cU,
  0x3c43cacb3e007d15U, 0xbcf4bd7e3bc3cacbU, 0x3c92d818be2b5172U, 0x3d869b6c3d5c4424U,
  0xbcc3cacb3d9f14c5U, 0xbd9f14c53ddc4424U, 0xbdc3cacbbddc4424U, 0x3dd007783dc3cacbU,
  0x3cc3cacb3de880d1U, 0xbd5c44243e316fc8U, 0xbe43cacbbe069b6cU, 0x3d5c4424bcc3cacbU,
  0x3d12d8183de880d1U, 0x3bc3cacb3e1f14c5U, 0xbe43cacbbd43cacbU, 0x3d869b6c3d2b5172U,
  0xbc43cacb3de880d1U, 0x3d43cacb3e007d15U, 0xbe8cb9c2bbc3cacbU, 0x3dab51723d869b6cU,
  0xbe6e9f27bc92d818U, 0xbd5c44243de880d1U, 0xbe500778bcc3cacbU, 0x3e007d153db78e1eU,
  0xbeb47ef3bd869b6cU, 0xbd2b51723e12d818U, 0xbdd007783d2b5172U, 0xbc43cacb3d92d818U,
  0xbe43cacbbd43cacbU, 0x3bc3cacb00000000U, 0xbd92d8183bc3cacbU, 0xbd9f14c53cf4bd7eU,
  0xbd43cacbbcc3cacbU, 0x3cc3cacbbe378e1eU, 0xbd5c4424U, 0xbe316fc8be378e1eU,
  0xbe18f66fbddc4424U, 0x3dab5172bef4bd7eU, 0xbdb78e1ebd74bd7eU, 0xbe7adbd4bec0bba0U,
  0x3c92d8183d74bd7eU, 0xbbc3cacbbe6e9f27U, 0x3d92d8183d9f14c5U, 0xbdd00778bcf4bd7eU,
  0xbd74bd7ebbc3cacbU, 0x3c92d818be6e9f27U, 0x3bc3cacb3dab5172U, 0x3d43cacb3e6e9f27U,
  0xbbc3cacbbdc3cacbU, 0x3c43cacb3bc3cacbU, 0x3c92d8183e5c4424U, 0x3d12d8183db78e1eU,
  0xbd9f14c5bd92d818U, 0x3d5c44243ddc4424U, 0x3c43cacb3dab5172U, 0xbbc3cacb3dab5172U,
  0xbde880d1bcf4bd7eU, 0x3d74bd7e3e0cb9c2U, 0x3e1f14c53bc3cacbU, 0xbdd007783cc3cacbU,
  0xbe62627bbcf4bd7eU, 0x3d9f14c53de880d1U, 0x3de880d1bd2b5172U, 0xbde880d1bd2b5172U,
  0xbe378e1ebcc3cacbU, 0xbbc3cacb3e0cb9c2U, 0x3de880d13dc3cacbU, 0xbeba9d49be069b6cU,
  0x3de880d13cc3cacbU, 0x3d43cacb3e5c4424U, 0xbc92d818be74bd7eU, 0xbe007d15be378e1eU,
  0x3e62627b3dd00778U, 0xbde880d13e18f66fU, 0x3cc3cacbbe6e9f27U, 0xbcf4bd7ebe49e921U,
  0x3e0cb9c23dab5172U, 0xbe378e1ebc92d818U, 0xbd74bd7ebe62627bU, 0x3cf4bd7e3d5c4424U,
  0x3e7adbd43d12d818U, 0xbd869b6c3e007d15U, 0x3de880d13c92d818U, 0xbd2b51723dab5172U,
  0x3e25331bbbc3cacbU, 0x3c43cacb3cf4bd7eU, 0x3db78e1e3de880d1U, 0x3d92d8183e9c059aU,
  0xbd9f14c53e069b6cU, 0x3bc3cacbbe069b6cU, 0xbc92d8183e069b6cU, 0xbde880d13e12d818U,
  0xbdb78e1e3d92d818U, 0xbd92d818be49e921U, 0xbc92d818bd869b6cU, 0xbd43cacbbcc3cacbU,
  0x3cc3cacbbe069b6cU, 0xbd5c4424be5625ceU, 0xbe18f66f3cc3cacbU, 0xbdf4bd7e3d12d818U,
  0x3e12d8183bc3cacbU, 0xbe25331bbe069b6cU, 0xbdd00778bd869b6cU, 0x3d9f14c5bd74bd7eU,
  0xbdab5172bddc4424U, 0xbc43cacb3e0cb9c2U, 0xbd74bd7ebe1f14c5U, 0xbe12d818be0cb9c2U,
  0x3d5c4424bdc3cacbU, 0xbbc3cacb3dd00778U, 0x3bc3cacbbe316fc8U, 0x3e62627bbe869b6cU,
  0x3e12d8183d2b5172U, 0xbbc3cacb3e92d818U, 0x3c92d818bea84246U, 0x3d9f14c5be18f66fU,
  0x3dc3cacb3d92d818U, 0xbcc3cacb3e007d15U, 0xbd2b5172be5c4424U, 0x3e1f14c5bdb78e1eU,
  0x3db78e1ebd2b5172U, 0x3d12d818bdd00778U, 0xbcf4bd7e3e62627bU, 0x3dd007783dc3cacbU,
  0xbddc442400000000U, 0xbbc3cacb3dab5172U, 0xbdd007783e8fc8edU, 0xbcc3cacb3dd00778U,
  0xbe2b5172bbc3cacbU, 0x3d869b6cbdb78e1eU, 0xbd92d8183e89aa97U, 0xbd92d818bd12d818U,
  0xbd92d818bd9f14c5U, 0xbd2b51723e5625ceU, 0xbdb78e1e3f09aa97U, 0xbdb78e1e3d9f14c5U,
  0xbe316fc8bd43cacbU, 0x3d12d818bd9f14c5U, 0x3e25331bbd92d818U, 0xbcf4bd7e3d5c4424U,
  0xbdab5172be25331bU, 0x3d2b5172bdd00778U, 0xbdb78e1ebdb78e1eU, 0xbe2b51723e12d818U,
  0xbc43cacb3d5c4424U, 0x3c92d818bd92d818U, 0xbd12d8183dab5172U, 0x3e1f14c53d5c4424U,
  0xbe49e921be2b5172U, 0x3e18f66f00000000U, 0xbd12d818be1f14c5U, 0x3eb16fc83e7adbd4U,
  0x3d92d818be18f66fU, 0xbe5007783d5c4424U, 0xbe6880d1U, 0xbd12d8183bc3cacbU,
  0xbd5c4424bdd00778U, 0xbdd00778bdb78e1eU, 0xbe0cb9c2U, 0x3ddc44243d92d818U,
  0x3de880d1be316fc8U, 0xbdb78e1e3e007d15U, 0x3d2b5172bdab5172U, 0x3e007d153c92d818U,
  0x3d2b5172be3dac75U, 0xbe18f66f3d2b5172U, 0xbc92d8183d12d818U, 0xbdb78e1ebc43cacbU,
  0xbe12d818be3dac75U, 0xbe0cb9c2be316fc8U, 0xbd869b6cbe49e921U, 0xbdd00778bd92d818U,
  0xbe0cb9c2bc92d818U, 0x3d12d818bd12d818U, 0xbd2b51723c92d818U, 0xbeb16fc8bd5c4424U,
  0xbe18f66fbd12d818U, 0xbd43cacbbe069b6cU, 0x3db78e1e3c92d818U, 0xbe12d8183e069b6cU,
  0xbd12d8183cc3cacbU, 0xbd74bd7ebe3dac75U, 0x3d12d8183db78e1eU, 0x3cf4bd7ebd12d818U,
  0xbcc3cacb3e0cb9c2U, 0x3dab5172bcc3cacbU, 0x3d9f14c53d92d818U, 0x3e378e1e3e74bd7eU,
  0xbe62627b3cf4bd7eU, 0x3e007d15bcf4bd7eU, 0xbdf4bd7ebd2b5172U, 0x3e069b6c3d43cacbU,
  0xbe5625ce3e0cb9c2U, 0x3ddc4424bde880d1U, 0xbd5c44243dab5172U, 0x3dc3cacbbe069b6cU,
  0xbdab51723e18f66fU, 0x3d12d818be62627bU, 0x3d12d818bbc3cacbU, 0x3d5c4424bcc3cacbU,
  0xbde880d13e007d15U, 0xbde880d13d2b5172U, 0xbd92d8183cc3cacbU, 0x3d869b6c3d92d818U,
  0xbd9f14c53cf4bd7eU, 0x3d5c44243dab5172U, 0x3c92d818be378e1eU, 0xbe12d818bdc3cacbU,
  0xbddc44243d2b5172U, 0x3cc3cacbbdb78e1eU, 0xbc43cacbbe0cb9c2U, 0xbe7adbd4bd5c4424U,
  0x3c92d8183d2b5172U, 0xbe43cacbbe43cacbU, 0x3c92d818be62627bU, 0xbd43cacbbe7adbd4U,
  0xbdb78e1ebd2b5172U, 0x3e6880d1be9f14c5U, 0x3d12d818be43cacbU, 0xbe6e9f273cc3cacbU,
  0xbd2b5172bcc3cacbU, 0xbd92d818be069b6cU, 0x3d12d818bcf4bd7eU, 0xbea5331b3e12d818U,
  0x3d869b6c3d9f14c5U, 0xbdab51723d12d818U, 0x3cc3cacb3d2b5172U, 0xbe12d8183dd00778U,
  0x3c43cacb3df4bd7eU, 0xbd2b51723e069b6cU, 0x3d869b6c3e869b6cU, 0xbe12d8183e838c40U,
  0xbe5c4424bd92d818U, 0x3ddc44243dab5172U, 0xbd5c44243d2b5172U, 0xbd12d8183e069b6cU,
  0xbe43cacb3df4bd7eU, 0x3dd00778bdf4bd7eU, 0x3d43cacbbe500778U, 0xbd12d8183ddc4424U,
  0xbddc4424be12d818U, 0xbd869b6cbddc4424U, 0x3d92d8183c92d818U, 0x3bc3cacbbd869b6cU,
  0xbcc3cacb3e0cb9c2U, 0x3d92d818be74bd7eU, 0xbcc3cacb3d869b6cU, 0xbdd00778bd869b6cU,
  0x3d43cacbbde880d1U, 0xbd9f14c5bcf4bd7eU, 0xbde880d13d43cacbU, 0xbe069b6cbd869b6cU,
  0xbc92d818bd92d818U, 0x3d74bd7ebdc3cacbU, 0x3db78e1ebc92d818U, 0xbdf4bd7e3e0cb9c2U,
  0xbd2b51723e0cb9c2U, 0x3e500778bddc4424U, 0xbe069b6cbe95e743U, 0xbdc3cacb3d12d818U,
  0x3bc3cacbbdc3cacbU, 0x3d74bd7ebd869b6cU, 0xbd5c4424bde880d1U, 0xbd74bd7e3d2b5172U,
  0xbddc44243d74bd7eU, 0x3d12d818be0cb9c2U, 0xbe12d818bdd00778U, 0xbe6e9f273e7adbd4U,
  0x3d9f14c53dab5172U, 0x3e9f14c5bdd00778U, 0xbe0cb9c2bcc3cacbU, 0xbe8fc8ed3dc3cacbU,
  0xbdc3cacb3e1f14c5U, 0x3d92d8183dab5172U, 0xbcc3cacb3e5c4424U, 0xbe43cacb3d92d818U,
  0xbd43cacb3e74bd7eU, 0xbe069b6cbe500778U, 0x3d869b6c3e18f66fU, 0xbe1f14c53e069b6cU,
  0xbcc3cacb3e43cacbU, 0xbbc3cacb3e0cb9c2U, 0xbd9f14c5bd43cacbU, 0x3e1f14c5bd92d818U,
  0x3cc3cacb3d869b6cU, 0x3c92d8183db78e1eU, 0xbe12d818bc43cacbU, 0x3e12d818bdf4bd7eU,
  0xbd12d8183d43cacbU, 0xbd43cacb3e18f66fU, 0xbe5625ce3c43cacbU, 0x3dd00778be62627bU,
  0x3c92d8183dab5172U, 0x3c43cacb3de880d1U, 0xbea842463cc3cacbU, 0x3d92d818be0cb9c2U,
  0xbcf4bd7e3d869b6cU, 0x3cf4bd7e3de880d1U, 0xbe0cb9c23cc3cacbU, 0x3d9f14c5be069b6cU,
  0xbe1f14c500000000U, 0x3cf4bd7e3df4bd7eU, 0xbcf4bd7e3cf4bd7eU, 0x3d869b6cbe007d15U,
  0xbeba9d49bcf4bd7eU, 0xbc92d8183dab5172U, 0xbc92d8183c43cacbU, 0x3bc3cacbbe0cb9c2U,
  0xbddc4424bd92d818U, 0xbbc3cacb3d43cacbU, 0x3bc3cacb00000000U, 0xbe43cacbbe2b5172U,
  0xbd74bd7ebc43cacbU, 0xbbc3cacb3c43cacbU, 0x3d9f14c53d5c4424U, 0xbe869b6cbd2b5172U,
  0x3d2b517200000000U, 0x3d2b5172bdb78e1eU, 0xbcc3cacb00000000U, 0xbed00778bdf4bd7eU,
  0xbcf4bd7ebd9f14c5U, 0x3d92d818be1f14c5U, 0xbd74bd7ebe0cb9c2U, 0xbe2b5172bd5c4424U,
  0xbdd00778bdf4bd7eU, 0x3d92d818bea223f0U, 0xbd5c4424be9c059aU, 0xbe0cb9c2bdc3cacbU,
  0xbe069b6c3d5c4424U, 0x3c43cacb3d9f14c5U, 0x3d2b51723d2b5172U, 0xbd5c4424be007d15U,
  0xbc43cacbbc43cacbU, 0x3dc3cacb3d12d818U, 0x3d5c44243e0cb9c2U, 0xbe378e1ebcc3cacbU,
  0xbbc3cacbbcc3cacbU, 0x3dab5172bc92d818U, 0x3d2b51723e007d15U, 0xbe92d8183d9f14c5U,
  0x3dc3cacb3c92d818U, 0xbe1f14c5bdb78e1eU, 0xbd12d818bd12d818U, 0xbe95e7433d2b5172U,
  0x3e12d8183d5c4424U, 0xbe378e1ebde880d1U, 0x3d5c44243d92d818U, 0xbe807d15bddc4424U,
  0x3e12d8183d2b5172U, 0xbec6d9f6bddc4424U, 0xbd2b51723d9f14c5U, 0xbe378e1e3c43cacbU,
  0x3e5007783e316fc8U, 0xbe74bd7ebd5c4424U, 0xbd74bd7e3c92d818U, 0xbe5625ce3d74bd7eU,
  0x3d92d8183dd00778U, 0xbe25331bbdf4bd7eU, 0xbe25331bbd2b5172U, 0xbdd007783d869b6cU,
  0x3d9f14c5bbc3cacbU, 0x3cf4bd7ebddc4424U, 0xbd2b51723d74bd7eU, 0xbe007d153dc3cacbU,
  0x3d2b5172bdf4bd7eU, 0x3d74bd7e3cf4bd7eU, 0xbc43cacb3dc3cacbU, 0xbd9f14c53c43cacbU,
  0xbd12d818bde880d1U, 0x3e1f14c500000000U, 0xbc43cacb3d9f14c5U, 0xbd869b6c3dc3cacbU,
  0xbdab5172bdf4bd7eU, 0x3e98f66fbd5c4424U, 0xbd869b6c3d9f14c5U, 0x3e2b51723e500778U,
  0x3d74bd7ebd2b5172U, 0x3cf4bd7ebd12d818U, 0xbe43cacbU, 0xbdd0077800000000U,
  0xbcf4bd7ebd869b6cU, 0x3c92d8183e18f66fU, 0x3bc3cacbbe25331bU, 0x3d2b5172bdb78e1eU,
  0x3cc3cacbbd5c4424U, 0x3d92d8183e25331bU, 0xbd92d818bd43cacbU, 0xbde880d1bd12d818U,
  0xbd9f14c5bd92d818U, 0x3d5c44243e18f66fU, 0xbc43cacbbc43cacbU, 0xbd2b51723e18f66fU,
  0x3c92d81800000000U, 0xbd5c44243c92d818U, 0xbc43cacb3e378e1eU, 0xbdd007783e1f14c5U,
  0xbd74bd7ebd12d818U, 0x3db78e1e3cc3cacbU, 0x3dd007783e12d818U, 0xbd9f14c53db78e1eU,
  0xbdf4bd7e3d43cacbU, 0xbd74bd7e3d5c4424U, 0x3ddc44243e378e1eU, 0xbd5c44243e1f14c5U,
  0xbde880d13d2b5172U, 0xbe838c40bdd00778U, 0x3e3dac753e74bd7eU, 0xbd869b6c3c43cacbU,
  0xbc43cacbbbc3cacbU, 0xbe8cb9c2be007d15U, 0x3df4bd7e3e069b6cU, 0xbd74bd7e00000000U,
  0xbc92d8183d92d818U, 0xbe9c059a3d43cacbU, 0x3e0cb9c2bbc3cacbU, 0xbd74bd7e3cf4bd7eU,
  0x3d92d8183c92d818U, 0xbdab5172bdc3cacbU, 0x3db78e1ebdf4bd7eU, 0xbd2b51723c92d818U,
  0xbbc3cacbbdf4bd7eU, 0xbe43cacbU, 0x3d12d818be74bd7eU, 0xbd5c44243dc3cacbU,
  0xbd869b6cbe007d15U, 0x3dc3cacb3cc3cacbU, 0xbd9f14c53cf4bd7eU, 0x3cc3cacb3ddc4424U,
  0x3d869b6c3df4bd7eU, 0xbbc3cacb3c92d818U, 0xbbc3cacb3ddc4424U, 0xbe069b6cbd43cacbU,
  0xbdc3cacb3d2b5172U, 0xbe18f66f3d5c4424U, 0x3d869b6cbdab5172U, 0xbe74bd7e3e007d15U,
  0xbd2b51723d43cacbU, 0xbd9f14c5bd74bd7eU, 0xbcc3cacbbe3dac75U, 0xbe807d153bc3cacbU,
  0x3d5c4424bbc3cacbU, 0xbe007d153db78e1eU, 0xbcf4bd7e00000000U, 0xbe1f14c53bc3cacbU,
  0x3cf4bd7ebcc3cacbU, 0xbddc44243e007d15U, 0xbbc3cacbbdc3cacbU, 0xbe9c059a00000000U,
  0x3ddc44243d92d818U, 0xbe838c403c92d818U, 0x3e2b5172be007d15U, 0xbd74bd7ebd2b5172U,
  0x3cc3cacb3cc3cacbU, 0xbe2b51723e7adbd4U, 0x3d2b5172bd869b6cU, 0xbdb78e1e3bc3cacbU,
  0x3cf4bd7e3d92d818U, 0xbe12d8183e5625ceU, 0x3d869b6cbd12d818U, 0xbd92d81800000000U,
  0x3d869b6cbcc3cacbU, 0xbddc44243d2b5172U, 0xbc92d818bc92d818U, 0xbdf4bd7ebcc3cacbU,
  0x3c43cacb3cf4bd7eU, 0xbdb78e1e3de880d1U, 0xbcf4bd7e3bc3cacbU, 0x3dd007783cf4bd7eU,
  0xbd2b5172bdc3cacbU, 0x3c92d818bdc3cacbU, 0xbdd007783e0cb9c2U, 0x3e5007783cc3cacbU,
  0xbe069b6cbe43cacbU, 0xbbc3cacbbd869b6cU, 0xbcc3cacb3d12d818U, 0x3dd00778U,
  0xbd92d818be378e1eU, 0x3c43cacb3d5c4424U, 0xbc92d818be18f66fU, 0x3dd007783de880d1U,
  0x3c43cacbbd92d818U, 0x3d9f14c5bbc3cacbU, 0xbd2b5172bd9f14c5U, 0x3e007d153db78e1eU,
  0xbd2b5172be1f14c5U, 0xbbc3cacb3d869b6cU, 0x3cf4bd7ebe18f66fU, 0xbe49e9213e43cacbU,
  0x3bc3cacbbdb78e1eU, 0x3d9f14c53df4bd7eU, 0x3dab5172bdc3cacbU, 0x3cc3cacb3e378e1eU,
  0x3d869b6cbe6880d1U, 0xbd869b6cbe378e1eU, 0x3e74bd7e3cc3cacbU, 0xbdd007783e869b6cU,
  0x3bc3cacbbdc3cacbU, 0xbd869b6cbe807d15U, 0x3e18f66fbd869b6cU, 0xbd92d8183d5c4424U,
  0xbd74bd7ebd869b6cU, 0xbe6880d1be9f14c5U, 0x3e069b6cbcf4bd7eU, 0xbde880d13e1f14c5U,
  0x3c43cacbbc92d818U, 0xbd43cacbbdf4bd7eU, 0x3e25331bbd74bd7eU, 0xbe2b51723e49e921U,
  0x3d92d818bd5c4424U, 0x3d869b6cbe1f14c5U, 0x3d74bd7ebc92d818U, 0xbd92d8183e43cacbU,
  0xbddc44243cf4bd7eU, 0x3cf4bd7ebdb78e1eU, 0xbe807d153e49e921U, 0x3e0cb9c23e069b6cU,
  0xbde880d13c43cacbU, 0xbdab5172be5c4424U, 0xbde880d13d12d818U, 0xbc43cacb3dab5172U,
  0x3dc3cacbbe007d15U, 0x3d5c4424bd12d818U, 0xbd2b5172be007d15U, 0xbe3dac75bdb78e1eU,
  0x3bc3cacb3c43cacbU, 0x3d74bd7ebdab5172U, 0xbdab51723db78e1eU, 0xbbc3cacbbdd00778U,
  0x3c43cacbbdd00778U, 0x3e2b5172bd74bd7eU, 0x3d9f14c5be1f14c5U, 0x3e2b51723c92d818U,
  0x3dab5172bd74bd7eU, 0xbd5c4424U, 0xbe0cb9c2be7adbd4U, 0xbc43cacbbc43cacbU,
  0x3d74bd7ebd869b6cU, 0x3d9f14c5bc43cacbU, 0xbe007d15be500778U, 0x3c43cacbbcf4bd7eU,
  0x3dd00778bdf4bd7eU, 0xbd12d818bd43cacbU, 0xbd2b5172be500778U, 0x3d74bd7e3e316fc8U,
  0x3d5c4424be3dac75U, 0x3dd00778bc92d818U, 0xbd9f14c5be49e921U, 0xbdc3cacb3df4bd7eU,
  0xbc92d818be0cb9c2U, 0x3e12d81800000000U, 0x3db78e1ebddc4424U, 0xbe869b6c3d92d818U,
  0xbdc3cacbbdc3cacbU, 0x3e316fc83e2b5172U, 0x3df4bd7e3d2b5172U, 0xbdd00778bd74bd7eU,
  0xbdab517200000000U, 0x3c92d8183e12d818U, 0x3e18f66f3df4bd7eU, 0xbd43cacb3d74bd7eU,
  0xbd12d818U, 0x3d43cacbbd12d818U, 0x3d92d8183e807d15U, 0xbdd007783e2b5172U,
  0xbd12d8183dab5172U, 0xbd5c44243d9f14c5U, 0x3e25331b3e3dac75U, 0xbcf4bd7e3e069b6cU,
  0xbe0cb9c23dc3cacbU, 0x3d43cacb3bc3cacbU, 0x3dab5172bd74bd7eU, 0xbcf4bd7ebd2b5172U,
  0xbdd007783cc3cacbU, 0xbbc3cacbbde880d1U, 0x3e007d15bdb78e1eU, 0xbde880d13d9f14c5U,
  0x3c43cacbbd12d818U, 0xbdc3cacb3c43cacbU, 0x3e7adbd4be869b6cU, 0xbeb47ef33d92d818U,
  0xbe12d8183c43cacbU, 0xbd12d8183cf4bd7eU, 0x3ddc4424be5625ceU, 0xbebdac753c43cacbU,
  0xbe89aa97bc43cacbU, 0x3d43cacb3d5c4424U, 0xbd12d818bcc3cacbU, 0xbe25331b00000000U,
  0xbebdac753cc3cacbU, 0xbbc3cacb3dc3cacbU, 0xbd12d8183d2b5172U, 0xbbc3cacb3d2b5172U,
  0xbeab5172bbc3cacbU, 0xbd12d8183e069b6cU, 0x3d12d8183d12d818U, 0x3d92d818be1f14c5U,
  0xbe25331b3dab5172U, 0x3c92d8183e18f66fU, 0xbc43cacb3d12d818U, 0x3dab5172be3dac75U,
  0x3dd007783dc3cacbU, 0x3cf4bd7eU, 0x3d869b6c3c92d818U, 0x3e25331bbd74bd7eU,
  0x3d9f14c53bc3cacbU, 0xbc92d818be25331bU, 0x3dc3cacbbe316fc8U, 0x3dc3cacbbd74bd7eU,
  0x3c43cacbbcf4bd7eU, 0xbd92d818bd92d818U, 0x3d92d818be43cacbU, 0x3df4bd7ebc43cacbU,
  0xbdb78e1ebe9c059aU, 0xbc92d818be500778U, 0xbcc3cacbbe6880d1U, 0x3e007d153de880d1U,
  0x3dc3cacb3cf4bd7eU, 0x3dd007783cf4bd7eU, 0xbd5c44243e8cb9c2U, 0xbdc3cacb3d5c4424U,
  0x3cf4bd7ebd43cacbU, 0x3d43cacb3d12d818U, 0x3d869b6c3e74bd7eU, 0xbd92d8183db78e1eU,
  0xbd9f14c5U, 0x3dd007783d2b5172U, 0xbd12d8183eeb8ffcU, 0xbe316fc83d43cacbU,
  0xbe500778be0cb9c2U, 0x3d9f14c5bdb78e1eU, 0xbd2b51723e1f14c5U, 0xbe378e1ebd43cacbU,
  0xbe2b5172bd9f14c5U, 0x3e25331bbe316fc8U, 0x3e2b51723ddc4424U, 0xbe12d818be2b5172U,
  0x3dc3cacb3c43cacbU, 0x3c92d818be6880d1U, 0x3e18f66f3d12d818U, 0xbe0cb9c2U,
  0xbbc3cacb3e12d818U, 0x3d2b5172be6880d1U, 0x3de880d1be5c4424U, 0xbde880d1be6e9f27U,
  0x3e0cb9c23e2b5172U, 0xbcf4bd7ebe7adbd4U, 0x3c43cacbbe49e921U, 0x3bc3cacbbe25331bU,
  0x3e007d15bdd00778U, 0xbe9c059abc43cacbU, 0xbd92d818bde880d1U, 0xbc43cacb3d869b6cU,
  0x3dd00778bdb78e1eU, 0x3dd007783eae609dU, 0xbd92d8183dd00778U, 0x3cc3cacb3e43cacbU,
  0x3df4bd7ebe12d818U, 0x3e12d8183dab5172U, 0xbe069b6c3e25331bU, 0xbdab51723e007d15U,
  0xbe316fc8bdc3cacbU, 0x3df4bd7e3e62627bU, 0xbe6880d13eba9d49U, 0x3ddc44243df4bd7eU,
  0x3d92d8183e49e921U, 0xbe18f66fbd92d818U, 0xbd2b5172be007d15U, 0xbe18f66f3e25331bU,
  0xbd43cacb3e43cacbU, 0xbe2b5172be1f14c5U, 0xbd869b6cbd5c4424U, 0xbddc44243d5c4424U,
  0x3cf4bd7e3dd00778U, 0x3c43cacbbd74bd7eU, 0x3d43cacb3d2b5172U, 0x3de880d1bd2b5172U,
  0x3d12d8183cf4bd7eU, 0xbe18f66fbd5c4424U, 0x3dc3cacbbd12d818U, 0x3dd00778bdab5172U,
  0x3c43cacb3dab5172U, 0x3e3dac753df4bd7eU, 0xbc43cacb3e18f66fU, 0xbc43cacbbcf4bd7eU,
  0xbe62627bbd92d818U, 0x3e43cacb3d74bd7eU, 0x3de880d13bc3cacbU, 0x3cf4bd7ebde880d1U,
  0xbdc3cacbbddc4424U, 0x3e0cb9c23e378e1eU, 0x3e316fc83bc3cacbU, 0xbdf4bd7e3de880d1U,
  0xbe5c4424be18f66fU, 0x3e3dac753dab5172U, 0x3d2b5172bd12d818U, 0xbe25331b3c43cacbU,
  0xbdab5172be2b5172U, 0x3d2b51723d43cacbU, 0xbdb78e1ebde880d1U, 0xbd92d8183c92d818U,
  0x3c43cacb3d5c4424U, 0xbe3dac75bd9f14c5U, 0xbe0cb9c2be25331bU, 0xbdf4bd7e3db78e1eU,
  0x3d869b6c3c92d818U, 0xbd5c44243bc3cacbU, 0xbddc4424be069b6cU, 0xbdab51723d92d818U,
  0xbe007d153e1f14c5U, 0xbe9f14c53d12d818U, 0xbe2b51723d74bd7eU, 0x3e1f14c53d74bd7eU,
  0xbd92d8183d74bd7eU, 0xbd9f14c53cf4bd7eU, 0xbd43cacb3dd00778U, 0xbd5c4424bd12d818U,
  0x3c92d818bdf4bd7eU, 0xbddc4424be43cacbU, 0xbc92d8183ddc4424U, 0xbd43cacbbd43cacbU,
  0x3d12d818U, 0xbc92d818be6e9f27U, 0x3d92d8183ddc4424U, 0x3e18f66fbdc3cacbU,
  0x3d12d8183c43cacbU, 0xbd9f14c5bd5c4424U, 0xbd869b6c3de880d1U, 0x3e316fc8be0cb9c2U,
  0xbbc3cacbbd43cacbU, 0x3e069b6c3e5c4424U, 0xbe0cb9c2bd43cacbU, 0x3e18f66f3d43cacbU,
  0xbe0cb9c2bcc3cacbU, 0x3e7adbd43e0cb9c2U, 0xbe18f66fbd5c4424U, 0x3d5c44243e25331bU,
  0xbe5625ce3cf4bd7eU, 0x3e89aa973df4bd7eU, 0x3d74bd7ebe25331bU, 0x3d43cacb3e0cb9c2U,
  0xbe12d818bde880d1U, 0x3ee571a63d74bd7eU, 0x3d869b6cbeb78e1eU, 0xbddc44243ddc4424U,
  0x3d2b5172be6880d1U, 0x3c43cacbbdab5172U, 0x3e49e921be89aa97U, 0xbe2b51723dab5172U,
  0xbd2b5172be316fc8U, 0xbe89aa97bd9f14c5U, 0x3e18f66fbcc3cacbU, 0xbe6880d13d869b6cU,
  0x3e6880d1bdab5172U, 0xbed007783cf4bd7eU, 0xbdab51723d869b6cU, 0xbe2b517200000000U,
  0x3d92d818bd869b6cU, 0xbe1f14c53bc3cacbU, 0xbe5c44243e869b6cU, 0xbdc3cacb3d2b5172U,
  0x3e5007783cc3cacbU, 0xbde880d1bd74bd7eU, 0xbcf4bd7e3dd00778U, 0x3d43cacbbd5c4424U,
  0xbbc3cacbbd2b5172U, 0xbe43cacbbd9f14c5U, 0x3c43cacbU, 0xbd12d818bcc3cacbU,
  0x3db78e1ebcc3cacbU, 0xbdf4bd7ebddc4424U, 0xbc92d8183ddc4424U, 0x3c92d818bc92d818U,
  0xbbc3cacb3d92d818U, 0xbbc3cacbU, 0xbe0cb9c23eb78e1eU, 0xbe007d153c92d818U,
  0x3e1f14c53de880d1U, 0x3d92d8183d2b5172U, 0x3e89aa97U, 0x3ddc44243d12d818U,
  0x3c92d8183d9f14c5U, 0x3d5c44243cf4bd7eU, 0xbcf4bd7ebd43cacbU, 0x3d2b5172bbc3cacbU,
  0xbd43cacb3ddc4424U, 0x3d12d818bd5c4424U, 0x3d9f14c5be378e1eU, 0x3e49e9213c43cacbU,
  0x3d2b5172bd43cacbU, 0x3db78e1ebe007d15U, 0xbdb78e1ebeee9f27U, 0xbc92d8183db78e1eU,
  0xbe49e9213db78e1eU, 0xbd2b5172be7adbd4U, 0xbd12d818bf007d15U, 0x3d12d818U,
  0xbcc3cacb3bc3cacbU, 0xbe2b5172U, 0xbd12d818be43cacbU, 0x3d2b51723c43cacbU,
  0xbd12d818U, 0xbde880d1bd2b5172U, 0xbd2b51723e3dac75U, 0xbc43cacb3ddc4424U,
  0xbd9f14c53d869b6cU, 0xbe18f66fbd92d818U, 0xbe98f66f3e1f14c5U, 0xbd74bd7e3cc3cacbU,
  0x3e500778bbc3cacbU, 0xbd12d818be9c059aU, 0xbc43cacb3dc3cacbU, 0xbcf4bd7e3dab5172U,
  0x3e18f66fbd869b6cU, 0x3dd00778be8fc8edU, 0xbd869b6cbe069b6cU, 0x3c92d8183e49e921U,
  0x3df4bd7ebcf4bd7eU, 0x3e25331bbde880d1U, 0xbdb78e1e3d869b6cU, 0xbde880d1bcc3cacbU,
  0xbddc4424bde880d1U, 0xbddc4424bddc4424U, 0xbd92d8183dab5172U, 0xbe838c40be500778U,
  0xbc43cacbbd5c4424U, 0xbde880d13d869b6cU, 0xbbc3cacb3eb16fc8U, 0x3d92d8183e378e1eU,
  0xbd5c44243e5625ceU, 0x3e62627bbd43cacbU, 0xbcc3cacb3c43cacbU, 0x3cf4bd7e3e6880d1U,
  0xbc43cacb3e5c4424U, 0x3ddc4424bd92d818U, 0xbd43cacb3bc3cacbU, 0x3e6880d13d12d818U,
  0x3cc3cacb3eab5172U, 0x3e1f14c53d5c4424U, 0xbd869b6c3d869b6cU, 0x3e74bd7ebcf4bd7eU,
  0xbd92d8183df4bd7eU, 0xbc92d818be500778U, 0x3d5c4424be95e743U, 0x3cc3cacb3d43cacbU,
  0x3d5c4424be12d818U, 0x3d5c4424be12d818U, 0x3cc3cacb3d43cacbU, 0xbe5c4424be6e9f27U,
  0xbdc3cacbbe7adbd4U, 0xbe18f66fbe9f14c5U, 0x3e316fc83c92d818U, 0xbe25331bbe92d818U,
  0xbbc3cacbbdab5172U, 0x3d74bd7ebe95e743U, 0x3d869b6c3df4bd7eU, 0xbbc3cacbbe807d15U,
  0xbd2b5172bdd00778U, 0x3cf4bd7e3e1f14c5U, 0xbe007d153d869b6cU, 0xbc43cacbbed00778U,
  0xbde880d1bdc3cacbU, 0x3d12d8183e12d818U, 0xbdb78e1e3d92d818U, 0xbcc3cacbbe7adbd4U,
  0xbe2b5172bdb78e1eU, 0xbcf4bd7e3e25331bU, 0x3d12d8183d92d818U, 0xbcf4bd7ebe069b6cU,
  0xbdc3cacbbd869b6cU, 0xbcf4bd7e3e0cb9c2U, 0x3d43cacb3d869b6cU, 0xbdb78e1ebe18f66fU,
  0xbd12d818bdab5172U, 0xbc43cacbbe378e1eU, 0x3d92d8183d12d818U, 0xbdc3cacbbe838c40U,
  0xbdab51723cf4bd7eU, 0xbd2b5172be7adbd4U, 0x3d5c4424be500778U, 0xbde880d1be18f66fU,
  0x0U, 0x3bc3cacbbe1f14c5U, 0x3d12d818befadbd4U, 0xbdf4bd7ebdc3cacbU,
  0x3cc3cacb3d9f14c5U, 0xbd12d818be2b5172U, 0x3df4bd7ebeb47ef3U, 0xbddc4424bdc3cacbU,
  0x3d2b51723d5c4424U, 0xbd74bd7ebe069b6cU, 0x3d12d818be8cb9c2U, 0xbcf4bd7ebd92d818U,
  0xbc43cacb3e3dac75U, 0xbd92d8183d869b6cU, 0xbc43cacbbe6880d1U, 0xbd9f14c5bd92d818U,
  0x3cf4bd7e3e12d818U, 0xbbc3cacbbc43cacbU, 0xbd74bd7ebe8fc8edU, 0xbe500778bc43cacbU,
  0xbe378e1ebbc3cacbU, 0xbe007d153e89aa97U, 0xbd92d818bdf4bd7eU, 0x3d43cacbbd2b5172U,
  0x3ea842463db78e1eU, 0xbe49e921be74bd7eU, 0xbd5c44243e8cb9c2U, 0x3d5c4424bc92d818U,
  0x3e5625ce3db78e1eU, 0xbe92d818be3dac75U, 0xbddc44243e378e1eU, 0x3e838c403c43cacbU,
  0x3e6880d13d92d818U, 0xbec9e921be74bd7eU, 0xbd74bd7e3e500778U, 0x3e49e9213e12d818U,
  0x3e5625ce3e18f66fU, 0xbe500778be869b6cU, 0xbcf4bd7e3e316fc8U, 0x3db78e1e3dc3cacbU,
  0x3d74bd7e3e2b5172U, 0xbe1f14c5bd43cacbU, 0x3e6880d1U, 0x3d92d8183dc3cacbU,
  0x3db78e1e3e007d15U, 0x3d43cacbbd74bd7eU, 0x3d92d8183df4bd7eU, 0x3d43cacb3dd00778U,
  0xbd5c44243df4bd7eU, 0x3e069b6c3c43cacbU, 0x3d12d8183e25331bU, 0x3ddc44243db78e1eU,
  0xbcc3cacb3dd00778U, 0x3e069b6c3d12d818U, 0x3c43cacb3e62627bU, 0x3c92d8183d869b6cU,
  0x3d43cacbbbc3cacbU, 0x3e5625ce3dab5172U, 0x3d74bd7e3e500778U, 0x3d9f14c53c43cacbU,
  0xbe18f66f3d12d818U, 0x3e43cacbbd2b5172U, 0xbdab51723e18f66fU, 0x3e12d818bdf4bd7eU,
  0x3d74bd7ebdd00778U, 0x3ddc44243dc3cacbU, 0xbd74bd7ebd2b5172U, 0x3e3dac75bcc3cacbU,
  0xbdb78e1ebe378e1eU, 0x3e25331b3dc3cacbU, 0x3d869b6c3bc3cacbU, 0x3e5625ce3d2b5172U,
  0x3dab51723db78e1eU, 0x3c92d8183d2b5172U, 0x3e18f66f3ec6d9f6U, 0xbe007d15bd869b6cU,
  0xbd869b6cbcf4bd7eU, 0x3e007d153db78e1eU, 0x3dab51723eae609dU, 0xbe378e1ebdf4bd7eU,
  0x3c43cacb3e1f14c5U, 0x3d92d8183e49e921U, 0xbd12d8183e12d818U, 0xbde880d100000000U,
  0xbd74bd7e3d869b6cU, 0x3dc3cacb3e007d15U, 0x3db78e1e3df4bd7eU, 0xbd9f14c53d74bd7eU,
  0xbcf4bd7e3cf4bd7eU, 0xbdf4bd7ebe25331bU, 0x3d74bd7e3c43cacbU, 0xbd74bd7e3d43cacbU,
  0x3d2b51723dc3cacbU, 0xbe9f14c5bd74bd7eU, 0x3e18f66fbd74bd7eU, 0xbd43cacb3bc3cacbU,
  0x3c92d8183c92d818U, 0xbd869b6cbd92d818U, 0x3bc3cacbbec6d9f6U, 0x3d9f14c500000000U,
  0x3db78e1ebcf4bd7eU, 0xbe007d15bd43cacbU, 0xbc43cacbbec6d9f6U, 0x3d5c4424bcc3cacbU,
  0x3d869b6cbddc4424U, 0x3db78e1e3d9f14c5U, 0xbe18f66fbd74bd7eU, 0xbcc3cacbbc92d818U,
  0x3cc3cacbbe12d818U, 0x3db78e1ebdb78e1eU, 0xbd74bd7ebe316fc8U, 0x3db78e1ebd12d818U,
  0xbc43cacbbd74bd7eU, 0x3dc3cacb3dab5172U, 0xbcc3cacbbe2b5172U, 0x3c92d8183db78e1eU,
  0xbc92d818bdf4bd7eU, 0x3e7adbd4be18f66fU, 0xbe8fc8edbe1f14c5U, 0x3e12d8183dc3cacbU,
  0x3e95e743bc43cacbU, 0xbe5c44243cc3cacbU, 0xbe62627b3ec3cacbU, 0xbdb78e1ebdab5172U,
  0x3c43cacb3cc3cacbU, 0xbd5c44243dc3cacbU, 0xbe838c403e0cb9c2U, 0xbd869b6c3c43cacbU,
  0xbc92d818bdab5172U, 0xbe12d8183d9f14c5U, 0xbe12d818bcc3cacbU, 0x3cc3cacbbd2b5172U,
  0x3d43cacbbe2b5172U, 0xbc92d818bdc3cacbU, 0xbe5625cebc43cacbU, 0x3c92d8183d74bd7eU,
  0xbd2b5172bd92d818U, 0x3d12d818be1f14c5U, 0x3d2b5172bcf4bd7eU, 0x3dc3cacbbcc3cacbU,
  0xbcc3cacbbdab5172U, 0x3bc3cacb3e18f66fU, 0x3e18f66fbc92d818U, 0xbd9f14c500000000U,
  0xbd2b51723d869b6cU, 0x3e18f66fbd43cacbU, 0xbd869b6cbd92d818U, 0x3dc3cacbbd869b6cU,
  0xbe3dac75bd5c4424U, 0x3e007d153dab5172U, 0x3cf4bd7e3cf4bd7eU, 0xbc43cacb3db78e1eU,
  0xbd5c442400000000U, 0x3d74bd7ebd869b6cU, 0xbdc3cacbbdc3cacbU, 0xbbc3cacb3e43cacbU,
  0xbdf4bd7e3d74bd7eU, 0x3e5625ce3d2b5172U, 0xbe2b5172bdb78e1eU, 0x3e3dac753dc3cacbU,
  0xbd9f14c53dab5172U, 0x3e3dac75bc43cacbU, 0xbd74bd7e3e069b6cU, 0x3e18f66f3e807d15U,
  0xbd2b5172bcf4bd7eU, 0x3e007d15bde880d1U, 0xbd12d818bcf4bd7eU, 0x3e2b51723de880d1U,
  0x3e8cb9c2bdd00778U, 0xbe89aa97be007d15U, 0x3bc3cacb3ec0bba0U, 0x3db78e1e3e3dac75U,
  0xbcc3cacbbe3dac75U, 0xbe12d8183cc3cacbU, 0xbd869b6c3dc3cacbU, 0xbc92d8183cf4bd7eU,
  0x3e2b5172be0cb9c2U, 0xbdab51723d74bd7eU, 0xbde880d13de880d1U, 0xbcf4bd7e3df4bd7eU,
  0x3d5c4424bd74bd7eU, 0x3cf4bd7ebdab5172U, 0xbd92d8183e25331bU, 0xbdb78e1e3e12d818U,
  0xbdc3cacbbe3dac75U, 0xbd869b6c3d74bd7eU, 0xbd12d8183d43cacbU, 0x3d12d8183e12d818U,
  0xbcc3cacbU, 0xbe316fc83dc3cacbU, 0xbcc3cacbbc43cacbU, 0xbd5c4424bc92d818U,
  0x3d12d8183cf4bd7eU, 0xbe89aa97be5c4424U, 0xbd5c4424be43cacbU, 0x3cc3cacb3cf4bd7eU,
  0xbd74bd7e3ddc4424U, 0x3d43cacbbe74bd7eU, 0xbd92d818be5625ceU, 0x3ddc44243c92d818U,
  0xbdab5172bddc4424U, 0x3d9f14c5U, 0xbe89aa97U, 0x3df4bd7ebbc3cacbU,
  0xbd9f14c5bd12d818U, 0x3d74bd7ebd9f14c5U, 0xbddc4424be6880d1U, 0x3d869b6cbd74bd7eU,
  0x3df4bd7ebbc3cacbU, 0x3db78e1ebeba9d49U, 0x3bc3cacb3d2b5172U, 0x3d43cacb3d43cacbU,
  0xbde880d13dab5172U, 0x3d5c4424be5c4424U, 0xbe838c40be6880d1U, 0xbd869b6cbd92d818U,
  0x3d92d81800000000U, 0xbcc3cacb3db78e1eU, 0xbe316fc83edc4424U, 0x3dab51723c43cacbU,
  0x3e43cacbbdd00778U, 0x3cf4bd7e3d9f14c5U, 0xbe6e9f273cc3cacbU, 0xbdc3cacbbd43cacbU,
  0x3e43cacbbe2b5172U, 0xbcf4bd7ebd2b5172U, 0xbd92d8183e7adbd4U, 0xbd869b6c00000000U,
  0x3ddc4424bddc4424U, 0xbcf4bd7ebcf4bd7eU, 0xbd9f14c53e2b5172U, 0xbdd00778bd12d818U,
  0x3bc3cacbbd5c4424U, 0xbdb78e1e3d9f14c5U, 0x3d92d8183e5625ceU, 0x3bc3cacb3e25331bU,
  0x3c92d8183d869b6cU, 0x3e069b6cbd43cacbU, 0x3d9f14c53d12d818U, 0x3e3dac753dab5172U,
  0xbd12d81800000000U, 0x3e007d15be807d15U, 0x3d43cacbbe500778U, 0x3dc3cacbbdf4bd7eU,
  0xbbc3cacbbcf4bd7eU, 0xbddc4424be8cb9c2U, 0xbdc3cacb3dab5172U, 0xbd869b6cbbc3cacbU,
  0x3de880d13df4bd7eU, 0x3d74bd7ebc92d818U, 0xbdab51723d9f14c5U, 0xbddc4424bc43cacbU,
  0x3c43cacb3e1f14c5U, 0x3dab5172be3dac75U, 0x3dd007783c43cacbU, 0x3d869b6c3d92d818U,
  0x3d12d8183c43cacbU, 0x3dab5172be49e921U, 0xbd43cacb3dab5172U, 0xbd5c44243d5c4424U,
  0xbe18f66fbcc3cacbU, 0x3d5c4424bedc4424U, 0xbd12d818be069b6cU, 0x3d43cacbbe25331bU,
  0xbd74bd7e3d869b6cU, 0xbe069b6c3e25331bU, 0x3d12d818be89aa97U, 0xbe12d818be1f14c5U,
  0x3bc3cacb00000000U, 0xbe49e9213e18f66fU, 0xbdc3cacbU, 0xbcf4bd7ebd5c4424U,
  0xbd12d818bdc3cacbU, 0xbe8fc8ed3d43cacbU, 0xbdc3cacb00000000U, 0x3c43cacb3db78e1eU,
  0xbdab5172be89aa97U, 0xbdc3cacbbd43cacbU, 0xbcf4bd7e3d43cacbU, 0x3d2b51723bc3cacbU,
  0xbd2b5172be6880d1U, 0x3c92d818bd5c4424U, 0xbdab51723d12d818U, 0x3d43cacb3cc3cacbU,
  0xbd5c4424be0cb9c2U, 0x3db78e1e00000000U, 0xbe3dac753bc3cacbU, 0x3d92d8183e12d818U,
  0xbdb78e1ebe12d818U, 0x3d5c44243bc3cacbU, 0xbd92d81800000000U, 0x3e3dac753d92d818U,
  0x3db78e1ebe378e1eU, 0x3d92d818bcf4bd7eU, 0xbddc4424bd9f14c5U, 0x3e316fc83cf4bd7eU,
  0x3e12d818be3dac75U, 0x3d5c4424bcf4bd7eU, 0xbd5c4424be43cacbU, 0x3db78e1e3d2b5172U,
  0x3dd00778be869b6cU, 0x3cf4bd7e3c92d818U, 0xbd74bd7ebe74bd7eU, 0x3cc3cacb3d12d818U,
  0x3e18f66fbe378e1eU, 0x3c43cacb3d9f14c5U, 0xbd869b6cbec0bba0U, 0x3c92d818bbc3cacbU,
  0x3d92d818bec9e921U, 0xbd2b51723d43cacbU, 0xbde880d1beae609dU, 0xbd12d818bc92d818U,
  0xbbc3cacbbe89aa97U, 0xbc43cacb3c92d818U, 0x3c92d818be007d15U, 0xbd12d8183d43cacbU,
  0xbdd007783bc3cacbU, 0x3d2b51723d2b5172U, 0x3db78e1ebdf4bd7eU, 0xbde880d13d74bd7eU,
  0xbe89aa973e12d818U, 0xbc92d818bd12d818U, 0x3d869b6cbdab5172U, 0x3ddc44243dd00778U,
  0xbebdac753dc3cacbU, 0xbdab517200000000U, 0x3db78e1e3d74bd7eU, 0xbbc3cacbbd43cacbU,
  0xbeab51723e0cb9c2U, 0xbcc3cacb3cc3cacbU, 0xbd2b5172bcc3cacbU, 0xbd74bd7ebbc3cacbU,
  0xbe6880d13e18f66fU, 0xbdc3cacbbd5c4424U, 0x3d74bd7e3e18f66fU, 0x3d9f14c53bc3cacbU,
  0xbe6e9f273e869b6cU, 0x3c43cacbbd869b6cU, 0x3c43cacb3cc3cacbU, 0x3d74bd7e3cf4bd7eU,
  0xbe5625ce3e0cb9c2U, 0xbbc3cacbbdc3cacbU, 0x3cf4bd7e3e007d15U, 0xbd9f14c53df4bd7eU,
  0xbd43cacb3d869b6cU, 0xbbc3cacbbe316fc8U, 0x3ddc44243d5c4424U, 0xbdd007783db78e1eU,
  0xbe5c4424bddc4424U, 0xbd92d818U, 0x3d43cacb3bc3cacbU, 0xbe12d8183d869b6cU,
  0xbde880d1bcf4bd7eU, 0xbc43cacbbe12d818U, 0x3db78e1ebe25331bU, 0xbd869b6c3c92d818U,
  0x3c92d818bd2b5172U, 0xbd12d8183d869b6cU, 0x3bc3cacbbe6e9f27U, 0xbdf4bd7ebc43cacbU,
  0x3cc3cacbbd9f14c5U, 0x3dab51723db78e1eU, 0xbd74bd7e00000000U, 0x3d74bd7e3de880d1U,
  0x3e007d15bc92d818U, 0xbdab5172bd5c4424U, 0xbcc3cacb3df4bd7eU, 0x3d43cacbbcc3cacbU,
  0x3dd00778bcc3cacbU, 0x3dab51723bc3cacbU, 0xbd92d8183d5c4424U, 0xbdf4bd7e3de880d1U,
  0xbcc3cacb3dd00778U, 0xbd869b6c3e0cb9c2U, 0xbd869b6c3d43cacbU, 0x3e0cb9c2bdf4bd7eU,
  0xbd869b6c3e25331bU, 0xbc92d8183dc3cacbU, 0xbe007d15bd5c4424U, 0x3e9f14c5bd9f14c5U,
  0xbc43cacb3e007d15U, 0x3dab5172bd12d818U, 0xbe18f66f3dd00778U, 0x3e62627bbd2b5172U,
  0x3c43cacb3dab5172U, 0x3cc3cacbbd12d818U, 0xbe0cb9c23d5c4424U, 0x3e5c4424bd5c4424U,
  0xbd43cacb3e069b6cU, 0xbe2b5172bd9f14c5U, 0xbc43cacb3e12d818U, 0x3e6e9f273c43cacbU,
  0xbde880d1bd5c4424U, 0x3d12d818be316fc8U, 0x3ddc4424bd5c4424U, 0x3e62627b3d12d818U,
  0xbd9f14c53c92d818U, 0xbbc3cacbbe43cacbU, 0x3db78e1e3c92d818U, 0x3dc3cacbbe18f66fU,
  0x3e0cb9c2bd74bd7eU, 0x3ddc4424bd92d818U, 0x3dc3cacbbe5c4424U, 0x3e378e1e3d5c4424U,
  0x3cf4bd7ebe838c40U, 0xbc92d8183bc3cacbU, 0x3d9f14c5be43cacbU, 0x3ddc4424bc43cacbU,
  0xbdab5172be3dac75U, 0x3d9f14c5bcf4bd7eU, 0xbc43cacb3e0cb9c2U, 0xbd74bd7e3e1f14c5U,
  0xbd869b6cbeab5172U, 0x3cc3cacb3e069b6cU, 0xbcc3cacb3bc3cacbU, 0x3e869b6c3e1f14c5U,
  0xbe3dac75beccf84dU, 0xbcf4bd7ebc43cacbU, 0x3bc3cacbbbc3cacbU, 0x3dc3cacb3de880d1U,
  0xbe5625cebdf4bd7eU, 0x3c92d8183dab5172U, 0xbc43cacb3c92d818U, 0xbe838c403d2b5172U,
  0xbd43cacb3dd00778U, 0x3c92d818U, 0xbd43cacbbe007d15U, 0xbdf4bd7ebe7adbd4U,
  0xbdab51723de880d1U, 0xbd2b5172bc92d818U, 0xbd869b6cbdd00778U, 0x3d2b5172be8cb9c2U,
  0xbcf4bd7e3e378e1eU, 0xbe74bd7ebe5c4424U, 0xbcf4bd7ebd43cacbU, 0xbe1f14c5be62627bU,
  0x3d2b51723e74bd7eU, 0xbeab5172be500778U, 0xbdc3cacbbd92d818U, 0x3e0cb9c2bea5331bU,
  0x3cc3cacb3e316fc8U, 0xbd74bd7ebdb78e1eU, 0xbe18f66fbe25331bU, 0x3d12d818be49e921U,
  0xbd12d8183e007d15U, 0x3d5c44243c92d818U, 0x3c92d8183bc3cacbU, 0x3dab5172bdf4bd7eU,
  0x3d2b51723d5c4424U, 0x3e1f14c5bde880d1U, 0xbd12d818bd43cacbU, 0x3e2b51723dc3cacbU,
  0xbd9f14c53cf4bd7eU, 0x3d43cacb3db78e1eU, 0x3d12d818bddc4424U, 0x3e069b6cbd2b5172U,
  0xbd9f14c5bd43cacbU, 0x3c92d8183e7adbd4U, 0xbdc3cacb3dab5172U, 0x3e5007783d869b6cU,
  0xbcf4bd7ebde880d1U, 0xbe0cb9c2be316fc8U, 0xbe378e1ebe378e1eU, 0x3e3dac75bddc4424U,
  0x3d5c4424be49e921U, 0x3d12d818U, 0x3d92d818be95e743U, 0xbde880d13bc3cacbU,
  0xbe378e1ebeba9d49U, 0x3e43cacb3e316fc8U, 0x3e92d8183d74bd7eU, 0xbe12d818bd92d818U,
  0xbddc4424bdab5172U, 0x3e3dac75bdab5172U, 0x3e069b6c3d5c4424U, 0xbec6d9f6be007d15U,
  0xbe1f14c5bd43cacbU, 0xbcc3cacb00000000U, 0x3e62627b3dab5172U, 0xbe316fc8bc92d818U,
  0xbe18f66f3d12d818U, 0x3c92d818be12d818U, 0x3e007d15U, 0xbd12d818bdf4bd7eU,
  0xbe18f66f3e838c40U, 0xbe0cb9c2be3dac75U, 0x3cf4bd7ebe0cb9c2U, 0x3e3dac75be2b5172U,
  0x3e838c40U, 0xbd869b6cbd869b6cU, 0xbcc3cacbbd43cacbU, 0x3e069b6cbd92d818U,
  0x3dc3cacb3e43cacbU, 0xbdf4bd7ebe3dac75U, 0x3de880d13cf4bd7eU, 0xbe0cb9c2be316fc8U,
  0x3e316fc83e5625ceU, 0x3bc3cacbbed00778U, 0x3d2b5172be49e921U, 0x3de880d1bd43cacbU,
  0x3d869b6c3e12d818U, 0xbe12d818be069b6cU, 0xbddc4424be0cb9c2U, 0xbdc3cacbU,
  0x3d869b6cbdb78e1eU, 0x3de880d13d92d818U, 0xbd9f14c5bdab5172U, 0x3e3dac75be95e743U,
  0x3d869b6cbe869b6cU, 0x3d869b6c3d92d818U, 0xbc43cacb3df4bd7eU, 0x3d43cacbbd5c4424U,
  0xbe89aa973df4bd7eU, 0x3e007d153d92d818U, 0x3dab51723dab5172U, 0x3d2b5172bcc3cacbU,
  0xbcc3cacbbe5625ceU, 0x3e3dac753dc3cacbU, 0x3e92d8183e807d15U, 0xbe6e9f27bddc4424U,
  0xbe62627bbe6880d1U, 0x3e95e7433d92d818U, 0x3e12d818bcf4bd7eU, 0xbe6e9f27be5625ceU,
  0xbe1f14c5bea84246U, 0x3e43cacbbe007d15U, 0x3d74bd7e3d12d818U, 0xbec3cacbbd12d818U,
  0xbcf4bd7ebe069b6cU, 0x3e25331bbeae609dU, 0x3d5c4424bd5c4424U, 0xbe18f66fbc43cacbU,
  0x3d92d818bd12d818U, 0x3e500778bf1d8d2fU, 0x3bc3cacbbdc3cacbU, 0x3e25331bbdd00778U,
  0x3e5625ce3d5c4424U, 0x3d9f14c5be9c059aU, 0x3c43cacbbdab5172U, 0x3d5c4424be378e1eU,
  0x3db78e1e3d74bd7eU, 0x3c43cacbbd12d818U, 0x3c43cacbbe500778U, 0x3dc3cacbbd43cacbU,
  0x3e12d8183ddc4424U, 0x3df4bd7e3e25331bU, 0x3ddc4424be007d15U, 0xbdd00778be43cacbU,
  0x3e316fc83d92d818U, 0x3cf4bd7ebe9f14c5U, 0x3d5c44243e1f14c5U, 0x3e378e1e3bc3cacbU,
  0xbe007d15be0cb9c2U, 0xbea5331bbcc3cacbU, 0xbd869b6c3e2b5172U, 0xbd5c44243e18f66fU,
  0xbe869b6cbdb78e1eU, 0xbe95e7433d5c4424U, 0xbe316fc83db78e1eU, 0xbdb78e1e3d12d818U,
  0xbe8cb9c2bbc3cacbU, 0xbde880d1bc43cacbU, 0xbe8fc8ed3d9f14c5U, 0x3df4bd7eU,
  0xbe869b6c3c92d818U, 0xbd2b5172bd2b5172U, 0xbe98f66f3dc3cacbU, 0xbd12d818U,
  0xbe5007783cf4bd7eU, 0x3cf4bd7ebc43cacbU, 0xbeb47ef33db78e1eU, 0xbd2b5172bbc3cacbU,
  0xbe62627b00000000U, 0x3cf4bd7ebd2b5172U, 0xbec3cacb3ddc4424U, 0x3bc3cacb3d12d818U,
  0xbd92d8183cc3cacbU, 0x3c92d8183d2b5172U, 0xbe9f14c53c43cacbU, 0xbbc3cacb3e007d15U,
  0xbdb78e1e3c43cacbU, 0x3c43cacbbd9f14c5U, 0xbe6880d1bbc3cacbU, 0xbc92d8183d5c4424U,
  0xbd5c44243d74bd7eU, 0x3c43cacbbcf4bd7eU, 0xbe12d818bd74bd7eU, 0xbe25331b3d2b5172U,
  0xbd869b6c3bc3cacbU, 0xbdb78e1ebbc3cacbU, 0xbe74bd7ebd43cacbU, 0x3d5c4424U,
  0x3bc3cacbbd2b5172U, 0xbcf4bd7ebd92d818U, 0xbe43cacbbc92d818U, 0x3d12d8183d43cacbU,
  0xbd9f14c5bd43cacbU, 0xbc92d818bd12d818U, 0xbe12d8183d92d818U, 0xbd92d8183db78e1eU,
  0x3e25331bbe069b6cU, 0x3e2b51723e007d15U, 0x3bc3cacbbd2b5172U, 0xbc43cacbbe378e1eU,
  0x3e43cacbbe5625ceU, 0x3db78e1e3e49e921U, 0x3d12d818be0cb9c2U, 0x3e2b5172bdc3cacbU,
  0x3e007d15be25331bU, 0x3ddc44243e1f14c5U, 0x3bc3cacbbe378e1eU, 0x3e2b5172bd2b5172U,
  0x3bc3cacbbdf4bd7eU, 0x3cc3cacb3e069b6cU, 0x3c92d818bcf4bd7eU, 0x3e869b6cbd12d818U,
  0x3c92d818bdb78e1eU, 0x3d5c44243dab5172U, 0x3cf4bd7e3c92d818U, 0x3ea84246bbc3cacbU,
  0xbd5c4424bd2b5172U, 0x3c92d8183dc3cacbU, 0x3d869b6cbc92d818U, 0x3ea5331bbe0cb9c2U,
  0x3c43cacbbd869b6cU, 0x3d2b51723dab5172U, 0x3db78e1ebbc3cacbU, 0x3e9c059abd74bd7eU,
  0x3c43cacbbd12d818U, 0xbc92d818bd12d818U, 0x3dd007783d2b5172U, 0x3db78e1e3bc3cacbU,
  0xbcc3cacb3d2b5172U, 0xbd43cacb3cc3cacbU, 0x3cf4bd7e3bc3cacbU, 0x3df4bd7e3bc3cacbU,
  0x3d12d8183d5c4424U, 0x3bc3cacb3e0cb9c2U, 0x3d2b5172bc43cacbU, 0x3dc3cacbbdf4bd7eU,
  0x3d12d8183cf4bd7eU, 0x3e1f14c53d9f14c5U, 0xbcf4bd7e3cf4bd7eU, 0x3de880d1bcc3cacbU,
  0xbbc3cacb3c43cacbU, 0x3de880d13d74bd7eU, 0xbc92d818bd43cacbU, 0x3e6880d1bd74bd7eU,
  0xbd12d818bde880d1U, 0x3d5c44243dab5172U, 0x3d9f14c500000000U, 0xbd5c4424bc43cacbU,
  0xbc92d818bdc3cacbU, 0xbdc3cacb3db78e1eU, 0x3cc3cacbbe069b6cU, 0x3e3dac75bc43cacbU,
  0xbdb78e1ebe6880d1U, 0xbe18f66f3d12d818U, 0x3d74bd7ebdd00778U, 0x3df4bd7ebd869b6cU,
  0x3bc3cacbbe62627bU, 0xbd869b6c3cf4bd7eU, 0xbcf4bd7ebdd00778U, 0x3c92d818be2b5172U,
  0x3d9f14c5be92d818U, 0xbd43cacb3c43cacbU, 0x3d2b5172bdd00778U, 0xbdc3cacb3d869b6cU,
  0xbd43cacbbe18f66fU, 0xbde880d13d43cacbU, 0x3d5c4424bdc3cacbU, 0x3d5c44243d12d818U,
  0xbcf4bd7ebde880d1U, 0x3c92d8183dab5172U, 0x3e18f66f3db78e1eU, 0x3db78e1e3bc3cacbU,
  0xbd74bd7ebe18f66fU, 0x3db78e1e3cc3cacbU, 0x3c43cacb3e1f14c5U, 0x3ddc44243e2b5172U,
  0xbcf4bd7ebbc3cacbU, 0xbd9f14c53d74bd7eU, 0x3df4bd7e3d74bd7eU, 0x3cf4bd7e3dab5172U,
  0xbcf4bd7e3dd00778U, 0x3d5c44243df4bd7eU, 0x3d12d8183dc3cacbU, 0x3e007d153dd00778U,
  0xbcc3cacb3c92d818U, 0xbd43cacb3db78e1eU, 0xbdab51723c92d818U, 0x3d43cacbbbc3cacbU,
  0xbcc3cacb3cf4bd7eU, 0xbdd00778bcc3cacbU, 0xbc43cacb3e316fc8U, 0xbcc3cacbbdb78e1eU,
  0x3dd007783d869b6cU, 0xbcf4bd7ebcf4bd7eU, 0xbbc3cacbbe49e921U, 0x3db78e1ebe2b5172U,
  0x3d869b6cbd9f14c5U, 0x3db78e1e3cf4bd7eU, 0xbbc3cacbbd869b6cU, 0x3c92d8183c92d818U,
  0xbc43cacbbcf4bd7eU, 0x3d43cacb3c43cacbU, 0x3ddc4424bdc3cacbU, 0xbcc3cacbbd9f14c5U,
  0xbde880d13bc3cacbU, 0x3c43cacbbdab5172U, 0x3dc3cacb3df4bd7eU, 0x3e5625ce3e378e1eU,
  0xbdc3cacbbc43cacbU, 0x3dc3cacbbdc3cacbU, 0x3d74bd7e3d74bd7eU, 0x3e18f66f3e6e9f27U,
  0xbcf4bd7ebc92d818U, 0x3cc3cacb3c43cacbU, 0x3d12d8183d92d818U, 0x3bc3cacb3d9f14c5U,
  0xbd12d8183d74bd7eU, 0xbdab5172U, 0x3d12d818bdab5172U, 0x3ddc44243e0cb9c2U,
  0xbdb78e1ebd43cacbU, 0x3d2b51723c43cacbU, 0xbcc3cacb3d869b6cU, 0xbd5c44243df4bd7eU,
  0x3d92d818bc43cacbU, 0x3bc3cacb3c43cacbU, 0x3c92d818bc43cacbU, 0x3c43cacb3dc3cacbU,
  0xbd74bd7ebc92d818U, 0xbe2b5172bcc3cacbU, 0xbd5c4424bd74bd7eU, 0x3bc3cacb3dd00778U,
  0xbc43cacb3d5c4424U, 0xbe6880d13d74bd7eU, 0xbc92d818be3dac75U, 0xbcc3cacb3de880d1U,
  0xbc43cacb3dd00778U, 0xbe378e1e3d12d818U, 0xbe069b6c00000000U, 0xbd74bd7e3d2b5172U,
  0x3d43cacb3dd00778U, 0xbdb78e1ebdab5172U, 0xbe43cacb3e2b5172U, 0x3cc3cacbbdab5172U,
  0xbcc3cacb3bc3cacbU, 0xbcf4bd7ebbc3cacbU, 0xbdd007783d869b6cU, 0x3e12d8183de880d1U,
  0xbcf4bd7ebc43cacbU, 0x3d2b51723d869b6cU, 0xbdf4bd7e3d12d818U, 0x3e838c403e49e921U,
  0xbe2b51723c92d818U, 0x3e18f66f3e2b5172U, 0xbbc3cacb3e316fc8U, 0x3d9f14c53df4bd7eU,
  0xbdab5172bd12d818U, 0x3d2b51723e98f66fU, 0xbdd007783e3dac75U, 0xbd12d8183c43cacbU,
  0xbe43cacb3cc3cacbU, 0x3c43cacb3d12d818U, 0xbd9f14c53e0cb9c2U, 0xbe6e9f273ddc4424U,
  0xbe007d153db78e1eU, 0x3d869b6c3e5625ceU, 0xbdc3cacb3cf4bd7eU, 0x3e1f14c53d9f14c5U,
  0xbddc4424bddc4424U, 0x3bc3cacbbd12d818U, 0x3c92d8183cc3cacbU, 0x3c43cacb3d869b6cU,
  0x3c43cacb3d92d818U, 0xbdab51723cc3cacbU, 0x3c92d818bcc3cacbU, 0xbe43cacb3e1f14c5U,
  0x3c92d818bc43cacbU, 0xbe62627b3bc3cacbU, 0x3c43cacb3d12d818U, 0x3d43cacbU,
  0x3cc3cacbbdc3cacbU, 0xbe3dac75bdb78e1eU, 0x3bc3cacb3cf4bd7eU, 0x3d92d818bbc3cacbU,
  0x3dab5172bd869b6cU, 0xbd43cacb00000000U, 0x3d869b6c3e0cb9c2U, 0x3d2b5172bd9f14c5U,
  0x3d869b6c3dd00778U, 0x3cc3cacbbe25331bU, 0xbe18f66f3e069b6cU, 0xbe378e1e3e500778U,
  0xbc92d8183e807d15U, 0x3d869b6c3e007d15U, 0xbd869b6c3d9f14c5U, 0x3dab51723dd00778U,
  0x3d74bd7e3ea223f0U, 0xbdb78e1e3d9f14c5U, 0xbe18f66f3d12d818U, 0x3e3dac75bc92d818U,
  0xbd74bd7e3ec0bba0U, 0x3e0cb9c23de880d1U, 0xbe12d8183c92d818U, 0x3bc3cacbbd9f14c5U,
  0xbdd007783e2b5172U, 0x3d12d8183d869b6cU, 0xbd74bd7e3e1f14c5U, 0xbcc3cacb3e007d15U,
  0xbbc3cacb3e12d818U, 0x3cf4bd7ebc43cacbU, 0xbe43cacb3e89aa97U, 0xbd5c44243d43cacbU,
  0x3dd007783e2b5172U, 0x3d74bd7ebd92d818U, 0xbcf4bd7e3d43cacbU, 0xbd869b6cbcf4bd7eU,
  0x3e007d153e0cb9c2U, 0xbe25331bbc43cacbU, 0xbbc3cacb3d2b5172U, 0xbe1f14c53cf4bd7eU,
  0x3c43cacb3de880d1U, 0xbdab5172bdf4bd7eU, 0xbdb78e1e3c43cacbU, 0xbd43cacb3e0cb9c2U,
  0x3e3dac753e12d818U, 0xbd5c4424bd9f14c5U, 0x3d92d8183d12d818U, 0xbdd007783e25331bU,
  0x3e0cb9c2bd5c4424U, 0xbcf4bd7ebddc4424U, 0x3c43cacbbcc3cacbU, 0xbe62627b3e807d15U,
  0x3e2b51723dc3cacbU, 0xbd92d8183e069b6cU, 0x3dd007783dab5172U, 0xbd74bd7e3ddc4424U,
  0xbc92d8183d92d818U, 0xbd74bd7e3d869b6cU, 0x3cf4bd7e3d12d818U, 0xbe12d818bd5c4424U,
  0x3bc3cacbbd43cacbU, 0xbe6880d100000000U, 0x3d74bd7e3d43cacbU, 0x3d92d818bdf4bd7eU,
  0xbd12d818bdb78e1eU, 0xbd2b5172bcf4bd7eU, 0x3d5c44243d2b5172U, 0x3d869b6cbd869b6cU,
  0xbbc3cacbbd92d818U, 0x3ddc4424bdd00778U, 0x3d5c44243d12d818U, 0x3dd00778be12d818U,
  0x3d92d818bd12d818U, 0x3d869b6cbd9f14c5U, 0x3d12d8183c43cacbU, 0x3dab5172be5625ceU,
  0x3d43cacbbd92d818U, 0x3d92d818bd9f14c5U, 0xbc43cacbbc43cacbU, 0x3e12d818be316fc8U,
  0x3d74bd7ebe007d15U, 0xbcc3cacbbe007d15U, 0xbe007d15bd12d818U, 0x3d74bd7ebe25331bU,
  0x3d12d8183d869b6cU, 0x3cf4bd7ebddc4424U, 0xbe500778bbc3cacbU, 0x3cf4bd7ebe43cacbU,
  0xbde880d1bbc3cacbU, 0x3d92d818bd9f14c5U, 0xbe0cb9c2bddc4424U, 0x3e12d818be18f66fU,
  0xbe069b6c3cc3cacbU, 0x3d5c4424bd9f14c5U, 0xbd9f14c5be62627bU, 0x3e007d1500000000U,
  0xbe3dac753c43cacbU, 0x3bc3cacbbe2b5172U, 0xbd74bd7ebe7adbd4U, 0x3e18f66fbdd00778U,
  0xbd869b6c3d9f14c5U, 0x3d43cacb3d5c4424U, 0xbd9f14c5be6880d1U, 0x3d43cacbbd2b5172U,
  0xbe5625cebde880d1U, 0x3de880d1bd2b5172U, 0xbc43cacbbd9f14c5U, 0x3c43cacb3e5625ceU,
  0xbd9f14c5bcc3cacbU, 0x3cf4bd7e00000000U, 0x3cc3cacbbdc3cacbU, 0x3e1f14c53e25331bU,
  0x3c92d8183d43cacbU, 0x3bc3cacbbc43cacbU, 0x3d9f14c53df4bd7eU, 0xbe5c44243dd00778U,
  0x3d2b5172bdab5172U, 0x3d2b51723d92d818U, 0xbe069b6cbbc3cacbU, 0xbe43cacbbd9f14c5U,
  0x3d92d818bcf4bd7eU, 0x3ddc44243cf4bd7eU, 0xbea842463e500778U, 0xbd74bd7e3d5c4424U,
  0x3d12d8183cf4bd7eU, 0x3e1f14c53dc3cacbU, 0xbe18f66f3e25331bU, 0x3d5c44243d12d818U,
  0xbc92d8183e0cb9c2U, 0x3e2b51723d74bd7eU, 0xbe74bd7e3d2b5172U, 0xbd74bd7e3d2b5172U,
  0xbbc3cacb3dab5172U, 0x3db78e1e3df4bd7eU, 0xbe9c059a3cc3cacbU, 0x3e0cb9c23c92d818U,
  0xbd5c44243e3dac75U, 0x3e25331bbcc3cacbU, 0xbe74bd7ebc43cacbU, 0x3e18f66fbddc4424U,
  0xbddc44243d74bd7eU, 0x3dc3cacb3d92d818U, 0xbe838c40bd869b6cU, 0x3d869b6cbdd00778U,
  0xbcc3cacb3d12d818U, 0x3e12d818bc92d818U, 0xbe25331bbd74bd7eU, 0x3e500778bd12d818U,
  0xbd9f14c5bc43cacbU, 0xbcf4bd7ebd92d818U, 0xbe8fc8edbdc3cacbU, 0x3e8fc8edbd869b6cU,
  0xbe8fc8edbc43cacbU, 0x3e12d81800000000U, 0x3d92d8183c43cacbU, 0x3d2b51723e500778U,
  0xbe95e743bd5c4424U, 0x3e6e9f2700000000U, 0x3d2b5172bd5c4424U, 0x3d9f14c53e007d15U,
  0xbe3dac75be069b6cU, 0x3e007d153d869b6cU, 0x3d2b5172be1f14c5U, 0xbe869b6c3cc3cacbU,
  0xbc92d818be1f14c5U, 0x3de880d13dab5172U, 0xbe12d818U, 0xbd12d8183d12d818U,
  0x3dab5172bd92d818U, 0xbdc3cacbbdc3cacbU, 0x3d5c4424be316fc8U, 0x3d92d818bde880d1U,
  0x3e316fc8bdd00778U, 0xbd869b6cbe3dac75U, 0x3d43cacbbec3cacbU, 0xbd5c44243de880d1U,
  0x3e5c4424bd9f14c5U, 0xbe12d818be62627bU, 0x3d43cacbbee571a6U, 0x3dd00778be1f14c5U,
  0x3e7adbd43cf4bd7eU, 0xbee880d1be378e1eU, 0xbd5c4424befadbd4U, 0x3e89aa97be95e743U,
  0x3dc3cacb3c92d818U, 0xbe807d15be5625ceU, 0xbde880d1bf09aa97U, 0x3e43cacbbe007d15U,
  0x3e0cb9c2bbc3cacbU, 0xbe378e1ebe98f66fU, 0xbddc4424bebdac75U, 0x3e069b6cbdc3cacbU,
  0x3d9f14c5bd869b6cU, 0xbe7adbd4bc43cacbU, 0xbe007d15beeb8ffcU, 0x3e8cb9c2bd9f14c5U,
  0x3e2b5172be007d15U, 0x3cf4bd7ebd5c4424U, 0xbcf4bd7ebe18f66fU, 0x3e0cb9c2bd12d818U,
  0x3c92d8183e378e1eU, 0x3ddc4424bbc3cacbU, 0xbe316fc83dc3cacbU, 0x3dab51723de880d1U,
  0xbd2b51723e500778U, 0x3e98f66f3bc3cacbU, 0xbe18f66f3d2b5172U, 0x3dab5172bcf4bd7eU,
  0xbd5c44243db78e1eU, 0x3c92d8183de880d1U, 0x3d43cacbbe378e1eU, 0x3d12d818bddc4424U,
  0xbd92d818bd43cacbU, 0x3cc3cacb3d12d818U, 0x3dc3cacbbea84246U, 0x3df4bd7ebe316fc8U,
  0x3d12d818be007d15U, 0x3dab5172be316fc8U, 0x3c43cacbbf038c40U, 0x3cf4bd7ebe6e9f27U,
  0x3d5c4424be18f66fU, 0x3cc3cacb3d5c4424U, 0x3d74bd7ebe838c40U, 0x3ddc4424be6e9f27U,
  0xbcc3cacbbd2b5172U, 0xbd2b51723e069b6cU, 0x3db78e1ebe43cacbU, 0x3dd007783c43cacbU,
  0x3d9f14c53cc3cacbU, 0x3dab51723ea223f0U, 0x3d5c4424be6e9f27U, 0x3e0cb9c200000000U,
  0x3de880d13d74bd7eU, 0xbc43cacb3e62627bU, 0x3dc3cacbbe807d15U, 0x3e92d818bdc3cacbU,
  0x3d9f14c5bd43cacbU, 0x3cf4bd7e00000000U, 0x3d92d818bdf4bd7eU, 0x3e9f14c53c43cacbU,
  0x3d12d8183dc3cacbU, 0xbcc3cacbbd74bd7eU, 0x3d74bd7ebddc4424U, 0x3db78e1ebd5c4424U,
  0xbd5c44243d43cacbU, 0x3cc3cacbbe2b5172U, 0x3c92d8183d12d818U, 0x3e89aa973d5c4424U,
  0xbd2b51723e12d818U, 0x3e3dac75bddc4424U, 0xbddc44243e007d15U, 0xbd5c4424bd43cacbU,
  0x3d869b6c3c43cacbU, 0x3e7adbd43d92d818U, 0xbddc44243e89aa97U, 0xbd43cacb00000000U,
  0xbdd0077800000000U, 0x3e1f14c53cf4bd7eU, 0xbddc4424bdb78e1eU, 0xbe49e921bdf4bd7eU,
  0x3c92d8183bc3cacbU, 0x3d869b6cbcc3cacbU, 0xbe18f66fbe9c059aU, 0x3c43cacbbc92d818U,
  0x3d2b5172be1f14c5U, 0x3c92d818be3dac75U, 0x3d74bd7ebe49e921U, 0x3d5c442400000000U,
  0x3e74bd7ebe43cacbU, 0x3e007d15bd9f14c5U, 0xbd5c4424bdd00778U, 0xbd74bd7e3c43cacbU,
  0xbc43cacb3c92d818U, 0x3e12d8183d43cacbU, 0x3bc3cacbbe838c40U, 0xbe3dac75bd9f14c5U,
  0xbd12d818bbc3cacbU, 0x3e378e1ebe18f66fU, 0x3c92d818be2b5172U, 0x3d12d818bc92d818U,
  0xbd2b5172be49e921U, 0x3c43cacbbd12d818U, 0x3dd00778be9c059aU, 0x3e25331bbc92d818U,
  0x3c92d818bd9f14c5U, 0x3c92d818be5625ceU, 0x3ddc4424be89aa97U, 0x3e2b5172be0cb9c2U,
  0xbd9f14c5bde880d1U, 0xbd9f14c5bd74bd7eU, 0xbbc3cacbbe5625ceU, 0xbe62627bU,
  0x3dab5172bbc3cacbU, 0xbd9f14c5be069b6cU, 0xbe18f66fbe6880d1U, 0xbc92d8183d5c4424U,
  0xbbc3cacbbdc3cacbU, 0x3e25331bbd92d818U, 0x3c92d8183c43cacbU, 0xbe12d818be869b6cU,
  0x3bc3cacb3e838c40U, 0x3d74bd7ebdab5172U, 0xbe007d15be378e1eU, 0x3e12d818beb47ef3U,
  0x3dab51723e5625ceU, 0x3de880d1be74bd7eU, 0xbdc3cacb3d43cacbU, 0x3e2b5172be9f14c5U,
  0xbd5c44243e62627bU, 0x3cc3cacbbd12d818U, 0xbd12d8183dab5172U, 0x3d43cacbbd9f14c5U,
  0x3db78e1e3db78e1eU, 0xbc43cacb3d2b5172U, 0xbdd007783d5c4424U, 0x3d869b6c3cf4bd7eU,
  0x3dc3cacb3d43cacbU, 0x3e378e1e3e12d818U, 0x3dc3cacb3e25331bU, 0xbdd007783bc3cacbU,
  0xbe25331b3e18f66fU, 0x3dc3cacbbcc3cacbU, 0x3d92d8183d2b5172U, 0xbcc3cacb3e069b6cU,
  0xbd9f14c53e7adbd4U, 0x3dab51723d869b6cU, 0x3e316fc8bd74bd7eU, 0xbd74bd7e3e43cacbU,
  0xbe0cb9c23df4bd7eU, 0xbd43cacb3c92d818U, 0xbc43cacb3d12d818U, 0x3d12d8183eba9d49U,
  0xbd43cacb3d43cacbU, 0x3ddc4424bdb78e1eU, 0x3e12d8183e069b6cU, 0xbde880d13e49e921U,
  0x3e12d8183df4bd7eU, 0x3cc3cacbbde880d1U, 0x3de880d13cf4bd7eU, 0x3e18f66f3e0cb9c2U,
  0x3e8cb9c2bc92d818U, 0xbd74bd7ebde880d1U, 0xbddc44243dd00778U, 0x3d869b6c3de880d1U,
  0x3d74bd7e3e069b6cU, 0xbe500778bc43cacbU, 0x3d43cacbbe5625ceU, 0xbd12d818be7adbd4U,
  0x3d74bd7ebd2b5172U, 0xbe50077800000000U, 0xbd2b5172bcf4bd7eU, 0xbcf4bd7ebe007d15U,
  0x3dab5172be3dac75U, 0xbd74bd7e3d43cacbU, 0xbcf4bd7e3c43cacbU, 0xbc43cacb3d9f14c5U,
  0x3dab5172be6e9f27U, 0x3cf4bd7e3de880d1U, 0xbcf4bd7e3cf4bd7eU, 0x3d2b51723e6e9f27U,
  0x3dab5172be3dac75U, 0x3d43cacb3cf4bd7eU, 0xbd869b6c3bc3cacbU, 0x3cc3cacb3e6e9f27U,
  0x3d43cacbbcc3cacbU, 0x3db78e1ebd9f14c5U, 0x3c43cacb00000000U, 0xbcf4bd7e3e316fc8U,
  0x3bc3cacbbc43cacbU, 0x3d74bd7ebe12d818U, 0x3de880d1bd2b5172U, 0xbdb78e1e3d2b5172U,
  0xbe25331b3d5c4424U, 0x3de880d1bed625ceU, 0x3dab5172bd9f14c5U, 0xbdf4bd7ebd43cacbU,
  0xbd12d8183cf4bd7eU, 0x3d5c4424bea223f0U, 0x3d9f14c5be43cacbU, 0xbec0bba0be316fc8U,
  0xbc92d8183dd00778U, 0x3d43cacbbe6e9f27U, 0xbc92d818bea5331bU, 0xbe43cacbbe8fc8edU,
  0xbd92d8183dab5172U, 0x3d92d818be500778U, 0xbde880d1bea223f0U, 0xbdf4bd7ebdc3cacbU,
  0xbe0cb9c23dc3cacbU, 0x3dd00778bdf4bd7eU, 0xbdab5172bddc4424U, 0xbdd00778be25331bU,
  0xbd43cacbbbc3cacbU, 0xbe74bd7ebd869b6cU, 0xbc92d818bc92d818U, 0x3df4bd7ebdc3cacbU,
  0x3c43cacbbd9f14c5U, 0xbe007d153db78e1eU, 0xbd74bd7ebe1f14c5U, 0x3d12d8183d869b6cU,
  0x3d74bd7ebc43cacbU, 0xbd869b6c3bc3cacbU, 0xbe3dac75be62627bU, 0xbe316fc83eab5172U,
  0xbcc3cacbbbc3cacbU, 0x3d9f14c53d12d818U, 0xbe7adbd4be8fc8edU, 0xbd869b6c3e0cb9c2U,
  0xbc43cacb3cf4bd7eU, 0x3d74bd7e3e0cb9c2U, 0xbc43cacbbeab5172U, 0xbe18f66f3e12d818U,
  0x3d43cacb3dab5172U, 0x3e2b51723e500778U, 0x3e007d15be95e743U, 0xbe43cacbbc43cacbU,
  0xbbc3cacb3d92d818U, 0x3e5625ce3e5625ceU, 0x3e6880d1be5625ceU, 0x3d43cacbbc92d818U,
  0x3d43cacb3d5c4424U, 0xbd12d818bee880d1U, 0x3e5625ce3c43cacbU, 0x3dd007783dd00778U,
  0x3cc3cacb3cf4bd7eU, 0xbe62627bbe43cacbU, 0x3e378e1ebbc3cacbU, 0x3e069b6c3cf4bd7eU,
  0xbc43cacbbd43cacbU, 0xbe6880d1be89aa97U, 0x3d2b51723d92d818U, 0x3e43cacb3d9f14c5U,
  0xbc43cacbbdb78e1eU, 0xbd92d818bc43cacbU, 0x3c43cacb3e12d818U, 0x3e838c403df4bd7eU,
  0xbbc3cacbbd12d818U, 0x3db78e1e00000000U, 0xbe2b5172bdd00778U, 0x3e869b6c3c92d818U,
  0xbe069b6c3d43cacbU, 0x3e43cacb3dab5172U, 0xbddc44243dc3cacbU, 0xbdb78e1e3e49e921U,
  0xbcc3cacb3d5c4424U, 0x3e18f66fbc92d818U, 0xbd5c44243e62627bU, 0xbd5c44243e316fc8U,
  0xbdc3cacbbc43cacbU, 0x3d74bd7e3de880d1U, 0xbe1f14c53e18f66fU, 0xbe92d8183d2b5172U,
  0xbbc3cacbbd12d818U, 0x3d92d8183dab5172U, 0xbd5c44243e7adbd4U, 0xbea842463d12d818U,
  0x3e12d818bbc3cacbU, 0xbe378e1e3c92d818U, 0xbd2b51723dab5172U, 0xbe25331bbe6e9f27U,
  0x3e49e921bcc3cacbU, 0xbe8cb9c23d43cacbU, 0xbc92d818bd9f14c5U, 0xbcc3cacbbe3dac75U,
  0x3e316fc8bc92d818U, 0xbe838c40bddc4424U, 0xbd43cacbbe5c4424U, 0x3d92d818bde880d1U,
  0x3d869b6cbcf4bd7eU, 0xbe316fc8be378e1eU, 0xbe316fc8beb78e1eU, 0x3cf4bd7ebd74bd7eU,
  0x3bc3cacbbcc3cacbU, 0xbbc3cacbbd43cacbU, 0xbe069b6cbd92d818U, 0xbe069b6c3ddc4424U,
  0xbd12d818bd9f14c5U, 0x3e807d153d12d818U, 0xbd43cacbbd9f14c5U, 0xbdb78e1e3e5c4424U,
  0xbd43cacbbdc3cacbU, 0x3c92d8183d869b6cU, 0xbd2b51723d74bd7eU, 0xbd9f14c53df4bd7eU,
  0xbdd00778bd869b6cU, 0x3e18f66f3df4bd7eU, 0xbde880d13e500778U, 0xbd43cacb3e12d818U,
  0xbd92d818bc92d818U, 0x3d5c4424bd5c4424U, 0xbc92d818bd43cacbU, 0x3d5c4424bd43cacbU,
  0x3d12d818bdab5172U, 0x3c43cacbbd92d818U, 0xbcc3cacb3e0cb9c2U, 0x3e869b6cbc92d818U,
  0x3cc3cacbbdf4bd7eU, 0xbd43cacbbe007d15U, 0xbd92d8183bc3cacbU, 0x3d869b6cbe49e921U,
  0x3e18f66fbc43cacbU, 0xbde880d13c43cacbU, 0xbd5c4424bdf4bd7eU, 0x3d9f14c5be62627bU,
  0x3e43cacb3d74bd7eU, 0xbd92d8183d92d818U, 0x3d869b6cbdb78e1eU, 0x3de880d1be8cb9c2U,
  0x3e18f66fbd43cacbU, 0xbc43cacb3bc3cacbU, 0xbc92d818bc43cacbU, 0x3e5c44243d43cacbU,
  0x3cf4bd7e3c43cacbU, 0xbcc3cacbbe6880d1U, 0x3c43cacbbc43cacbU, 0x3d9f14c5bd74bd7eU,
  0xbcc3cacb00000000U, 0xbd12d8183d5c4424U, 0x3d74bd7e3d12d818U, 0x3c92d8183d5c4424U,
  0xbe007d1500000000U, 0x3e5625cebe007d15U, 0xbc92d8183e069b6cU, 0xbe25331b3e3dac75U,
  0xbe2b51723cc3cacbU, 0x3c92d818bdab5172U, 0xbe12d8183e869b6cU, 0xbc43cacb3e89aa97U,
  0xbdf4bd7e3d43cacbU, 0x3d9f14c5be5c4424U, 0xbd2b51723d5c4424U, 0x3dd007783d9f14c5U,
  0xbd74bd7e3e838c40U, 0x3bc3cacb3dc3cacbU, 0x3d869b6cbc92d818U, 0x3e5007783dab5172U,
  0xbd43cacbbdab5172U, 0xbd12d8183db78e1eU, 0x3dab5172be18f66fU, 0xbe18f66f3e25331bU,
  0x3d12d818bc92d818U, 0x3d5c44243e12d818U, 0x3dc3cacb3d43cacbU, 0x3e1f14c53cc3cacbU,
  0x3df4bd7e3c43cacbU, 0xbd12d818be3dac75U, 0x3d74bd7e3e25331bU, 0x3e3dac75bddc4424U,
  0x3e3dac75bcc3cacbU, 0xbe7adbd4be2b5172U, 0xbc43cacb3dd00778U, 0x3ed00778be1f14c5U,
  0x3db78e1ebcf4bd7eU, 0xbe1f14c5be1f14c5U, 0x3c92d818bc43cacbU, 0x3e9f14c5be378e1eU,
  0x3db78e1ebdd00778U, 0x3d2b5172bddc4424U, 0x3c43cacbbe25331bU, 0x3e007d15be0cb9c2U,
  0xbd5c4424bd74bd7eU, 0xbdb78e1e00000000U, 0xbbc3cacbbe007d15U, 0x3d12d818be12d818U,
  0xbe89aa97bc43cacbU, 0x3e5007783c92d818U, 0xbcc3cacbbde880d1U, 0xbeae609dbcc3cacbU,
  0xbe316fc83c43cacbU, 0xbd869b6cbe807d15U, 0xbe316fc8bd92d818U, 0xbe807d153d12d818U,
  0xbd74bd7e3d12d818U, 0xbd43cacbbe25331bU, 0xbd92d8183d12d818U, 0xbdd00778bc92d818U,
  0x3c92d8183e12d818U, 0x3e1f14c53c43cacbU, 0x3d2b51723e500778U, 0x3ddc4424bc43cacbU,
  0xbde880d13dc3cacbU, 0xbd5c44243d12d818U, 0xbd12d8183e89aa97U, 0x3c92d8183bc3cacbU,
  0xbd12d818be3dac75U, 0x3e5c4424bd2b5172U, 0xbdc3cacbbdf4bd7eU, 0xbdf4bd7ebe378e1eU,
  0x3ddc4424bd92d818U, 0x3dab51723d9f14c5U, 0x3c43cacb3e1f14c5U, 0x3ddc4424be3dac75U,
  0x3dd00778be5c4424U, 0xbe0cb9c2bd9f14c5U, 0xbd74bd7eU, 0x3c92d818be7adbd4U,
  0x3e378e1ebe49e921U, 0x3d12d8183c92d818U, 0x3c92d818be62627bU, 0x3e007d153d5c4424U,
  0xbd869b6cbe12d818U, 0xbe49e921bdd00778U, 0x3dd00778bdab5172U, 0xbd12d8183e007d15U,
  0xbe1f14c53d9f14c5U, 0x3c92d8183d92d818U, 0x3d869b6cbdf4bd7eU, 0x3dd00778U,
  0xbed625ce3c43cacbU, 0x3d12d818bd2b5172U, 0x3dc3cacb3d869b6cU, 0x3d74bd7e3e6e9f27U,
  0xbe92d8183d5c4424U, 0x3e5007783d2b5172U, 0xbc92d8183e2b5172U, 0xbc92d8183e007d15U,
  0xbe62627b3e069b6cU, 0x3d12d818bde880d1U, 0xbd12d8183dd00778U, 0x3e18f66f3cf4bd7eU,
  0xbd92d8183dd00778U, 0x3de880d1be74bd7eU, 0xbd9f14c53e98f66fU, 0x3d43cacbbd2b5172U,
  0x3cf4bd7e3d5c4424U, 0xbd5c4424be007d15U, 0x3e8cb9c2U, 0x3c92d818bdb78e1eU,
  0x3bc3cacb3e18f66fU, 0xbe89aa97bc43cacbU, 0xbd74bd7e3e95e743U, 0xbe316fc8be6e9f27U,
  0xbe838c40bdab5172U, 0xbdd007783d2b5172U, 0x3d5c44243d5c4424U, 0xbde880d1be5625ceU,
  0xbe069b6cbe069b6cU, 0xbd92d8183dc3cacbU, 0x3de880d13d12d818U, 0xbd5c4424bcc3cacbU,
  0xbe18f66fbe92d818U, 0x3cf4bd7ebd43cacbU, 0x3d869b6c3dc3cacbU, 0xbe89aa97bd9f14c5U,
  0xbc92d818be1f14c5U, 0xbc43cacbbe807d15U, 0x3dd00778bcc3cacbU, 0xbe98f66fbe62627bU,
  0xbd869b6cbd74bd7eU, 0x3cf4bd7ebe6880d1U, 0x3d74bd7ebeab5172U, 0xbe9c059abe378e1eU,
  0xbe0cb9c23e12d818U, 0xbd2b5172be069b6cU, 0xbe007d15be7adbd4U, 0xbde880d1bbc3cacbU,
  0xbe1f14c53e378e1eU, 0xbdab51723d92d818U, 0xbe12d818bcf4bd7eU, 0xbd9f14c5be1f14c5U,
  0xbe62627b3dd00778U, 0xbddc44243e1f14c5U, 0xbc92d8183cc3cacbU, 0xbcf4bd7ebd2b5172U,
  0xbd9f14c53c43cacbU, 0xbe49e9213e25331bU, 0xbd869b6c3dab5172U, 0x3d74bd7ebde880d1U,
  0xbdc3cacbbcc3cacbU, 0xbe5625ce3e49e921U, 0xbd12d8183dab5172U, 0xbcc3cacbbe069b6cU,
  0x3bc3cacb3cf4bd7eU, 0xbddc44243e62627bU, 0x3d12d8183cc3cacbU, 0x3d92d818be0cb9c2U,
  0xbd74bd7e3d43cacbU, 0xbcf4bd7e3e500778U, 0x3dab5172U, 0x3c92d818be12d818U,
  0x3ed316a33e8fc8edU, 0xbdb78e1e3d12d818U, 0xbe5c44243cc3cacbU, 0xbcf4bd7ebd74bd7eU,
  0x3e49e9213d5c4424U, 0xbdab51723d2b5172U, 0xbeb47ef3be0cb9c2U, 0x3c92d8183e1f14c5U,
  0x3e869b6c3d74bd7eU, 0xbcf4bd7e3d869b6cU, 0xbeae609dbdf4bd7eU, 0x3cf4bd7e3e2b5172U,
  0x3e378e1e3d43cacbU, 0x3d9f14c53e18f66fU, 0xbea223f0be069b6cU, 0x3d12d8183de880d1U,
  0x3d12d818bcc3cacbU, 0x3e316fc83e92d818U, 0xbe3dac75bd5c4424U, 0x3c92d8183e12d818U,
  0xbdc3cacb3cc3cacbU, 0x3d9f14c53e5c4424U, 0xbcc3cacbbc92d818U, 0x3d5c4424bd43cacbU,
  0xbd74bd7e3e2b5172U, 0x3e0cb9c23dd00778U, 0x3d92d8183d2b5172U, 0xbd9f14c53c92d818U,
  0xbd9f14c53c43cacbU, 0x3d869b6c3d12d818U, 0x3ddc4424bd5c4424U, 0xbcf4bd7ebc92d818U,
  0x3e18f66fbc43cacbU, 0x3c43cacb3d5c4424U, 0x3d12d818bd43cacbU, 0xbe1f14c53bc3cacbU,
  0x3e1f14c5bd12d818U, 0xbcc3cacbbd43cacbU, 0xbe007d153d43cacbU, 0xbd43cacbbde880d1U,
  0x3e0cb9c2bdc3cacbU, 0xbddc44243cf4bd7eU, 0xbc92d818bde880d1U, 0x3db78e1e3d2b5172U,
  0x3e1f14c5be378e1eU, 0xbcf4bd7e3e1f14c5U, 0x3d2b5172be9f14c5U, 0x3d869b6c3c43cacbU,
  0x3d869b6cbe7adbd4U, 0x3e74bd7ebdd00778U, 0xbbc3cacb3e95e743U, 0xbe25331b3e95e743U,
  0x3e378e1ebdab5172U, 0x3db78e1ebe74bd7eU, 0xbd2b51723e807d15U, 0xbe89aa973e007d15U,
  0xbd12d8183d2b5172U, 0xbe43cacbbddc4424U, 0x3bc3cacb3e6e9f27U, 0x3e1f14c53bc3cacbU,
  0xbde880d13d43cacbU, 0x3d9f14c53e74bd7eU, 0x3e8cb9c2U, 0x3e316fc83bc3cacbU,
  0xbdd00778bd43cacbU, 0xbd9f14c5bbc3cacbU, 0x3dd00778be2b5172U, 0x3e3dac753c92d818U,
  0xbe12d818bc43cacbU, 0xbd2b5172bdab5172U, 0xbcf4bd7eU, 0xbe0cb9c23d43cacbU,
  0xbcf4bd7e3d5c4424U, 0x3cf4bd7e3de880d1U, 0x3df4bd7eU, 0xbe1f14c5bd92d818U,
  0xbe069b6c3d869b6cU, 0x3e316fc83d92d818U, 0x3d869b6cbd43cacbU, 0xbe9f14c5bbc3cacbU,
  0xbd2b5172be838c40U, 0x3e12d818bcf4bd7eU, 0xbdab51723df4bd7eU, 0xbec9e9213cf4bd7eU,
  0xbe069b6cbdb78e1eU, 0x3d74bd7ebc43cacbU, 0xbde880d13db78e1eU, 0xbe378e1e3c43cacbU,
  0xbdd00778be1f14c5U, 0x3e25331bbe007d15U, 0xbd43cacb3e007d15U, 0x3e316fc83bc3cacbU,
  0xbd9f14c5beae609dU, 0x3d9f14c53c92d818U, 0xbdc3cacb3e069b6cU, 0x3d43cacb3eb78e1eU,
  0xbdc3cacb3bc3cacbU, 0x3d92d818bdb78e1eU, 0xbe5007783db78e1eU, 0x3df4bd7e3e378e1eU,
  0xbe43cacb3d2b5172U, 0xbcc3cacb3dd00778U, 0xbd92d818bcf4bd7eU, 0x3ddc44243e2b5172U,
  0xbe838c403d12d818U, 0xbd12d818be62627bU, 0xbd9f14c5bcf4bd7eU, 0xbdf4bd7e3bc3cacbU,
  0xbd12d8183e2b5172U, 0x3d43cacb3e378e1eU, 0x3d74bd7e3c92d818U, 0x3d92d818be2b5172U,
  0xbe069b6c3e43cacbU, 0x3d9f14c53d869b6cU, 0x3dc3cacbbbc3cacbU, 0x3d5c4424bdb78e1eU,
  0x3bc3cacb3e5625ceU, 0xbe316fc83e62627bU, 0xbbc3cacb3dab5172U, 0x3d92d8183dd00778U,
  0xbd5c4424bc43cacbU, 0x3dab5172bc92d818U, 0xbde880d1be838c40U, 0x3d12d8183d12d818U,
  0x3dab51723d43cacbU, 0xbdc3cacbbbc3cacbU, 0xbe007d15bd2b5172U, 0xbddc44243d9f14c5U,
  0xbd869b6cbe5c4424U, 0x3db78e1ebdb78e1eU, 0xbe18f66f3e12d818U, 0xbdf4bd7e3e43cacbU,
  0xbe6880d1be007d15U, 0xbd869b6cbbc3cacbU, 0xbe869b6cbe069b6cU, 0xbdab5172bc43cacbU,
  0xbdf4bd7ebcc3cacbU, 0xbd869b6cbd43cacbU, 0xbe007d153d92d818U, 0xbe18f66f3ddc4424U,
  0xbe3dac75be316fc8U, 0xbde880d1bcc3cacbU, 0xbe12d818be3dac75U, 0xbd2b51723e500778U,
  0x3e1f14c5be069b6cU, 0xbd12d818bebdac75U, 0xbdab51723d43cacbU, 0xbcc3cacb3db78e1eU,
  0x3e12d8183cf4bd7eU, 0x3bc3cacbbe43cacbU, 0xbea842463e12d818U, 0xbe1f14c5bc43cacbU,
  0x3d43cacb3db78e1eU, 0xbd5c4424bd92d818U, 0xbe62627bbd74bd7eU, 0xbe0cb9c2bc43cacbU,
  0x3cc3cacb3cc3cacbU, 0xbd9f14c53c92d818U, 0xbe069b6c3e5625ceU, 0x3d92d8183db78e1eU,
  0xbc92d8183e2b5172U, 0x3e25331bbe43cacbU, 0xbd43cacb3dab5172U, 0xbd869b6cU,
  0x3e25331b3ddc4424U, 0xbdab5172bd5c4424U, 0x3cc3cacbbdc3cacbU, 0x3d9f14c5bde880d1U,
  0x3d2b51723cc3cacbU, 0x3c43cacbbe2b5172U, 0xbd92d818be0cb9c2U, 0x3df4bd7eU,
  0xbd9f14c53cc3cacbU, 0x3e3dac753cc3cacbU, 0x3cf4bd7e3dab5172U, 0xbd2b5172bdc3cacbU,
  0xbc92d818be2b5172U, 0xbd12d818bde880d1U, 0xbd9f14c53d9f14c5U, 0xbd92d8183dc3cacbU,
  0x3d12d818bdd00778U, 0x3d74bd7ebc43cacbU, 0xbe9f14c500000000U, 0xbe378e1e3e12d818U,
  0x3d92d818bcc3cacbU, 0x3e007d15bd74bd7eU, 0xbdd00778bc92d818U, 0xbe12d8183d43cacbU,
  0xbcc3cacb3e378e1eU, 0x3de880d13dab5172U, 0xbe95e7433db78e1eU, 0x3d869b6cU,
  0xbddc4424be3dac75U, 0x3e378e1ebdd00778U, 0xbe316fc83e8cb9c2U, 0x3e98f66f3c43cacbU,
  0x3e49e921bde880d1U, 0x3e069b6cbe49e921U, 0xbd869b6c3e007d15U, 0x3dc3cacb3e12d818U,
  0x3d5c44243de880d1U, 0xbc92d8183e807d15U, 0xbe069b6c3e95e743U, 0xbe316fc83df4bd7eU,
  0x3e0cb9c23e95e743U, 0xbc43cacb3e25331bU, 0x3e5007783e5c4424U, 0xbe1f14c5be8fc8edU,
  0xbcf4bd7e3ed625ceU, 0x3dab5172be12d818U, 0x3d5c44243e18f66fU, 0x3c92d8183ddc4424U,
  0xbd9f14c53e18f66fU, 0x3e43cacb3cc3cacbU, 0x3c92d8183d5c4424U, 0x3e007d153cc3cacbU,
  0x3cc3cacb3e378e1eU, 0x3cc3cacbbbc3cacbU, 0x3c43cacbbddc4424U, 0x3bc3cacbbe12d818U,
  0x3e8cb9c23e1f14c5U, 0x3d2b5172be18f66fU, 0xbd869b6cbdab5172U, 0xbdc3cacbbd92d818U,
  0x3cf4bd7ebd43cacbU, 0x3d9f14c5bcf4bd7eU, 0xbe25331bbe0cb9c2U, 0x3dab51723d43cacbU,
  0xbd9f14c5bcf4bd7eU, 0x3e5007783dab5172U, 0xbe95e743bc43cacbU, 0x3bc3cacbbe6e9f27U,
  0x3df4bd7e00000000U, 0x3d12d8183df4bd7eU, 0xbe869b6cbe0cb9c2U, 0xbdb78e1ebdd00778U,
  0xbcc3cacb3c43cacbU, 0x3e5c44243e18f66fU, 0xbc92d8183bc3cacbU, 0xbd74bd7ebe12d818U,
  0xbdc3cacbbd12d818U, 0xbd5c44243e12d818U, 0xbeab5172bbc3cacbU, 0xbc43cacb3e6880d1U,
  0xbe18f66fbd12d818U, 0xbd12d8183e49e921U, 0xbeb47ef33c43cacbU, 0xbd12d8183d9f14c5U,
  0xbdf4bd7ebd9f14c5U, 0xbd12d8183dd00778U, 0xbea842463d12d818U, 0xbcc3cacb3dd00778U,
  0xbe5625ce3c43cacbU, 0x3d43cacb3dd00778U, 0xbea842463d5c4424U, 0xbdf4bd7e3db78e1eU,
  0xbe62627b3d74bd7eU, 0x3e12d818be316fc8U, 0xbe8cb9c200000000U, 0xbe7adbd43d2b5172U,
  0xbe5c44243e43cacbU, 0x3e43cacbbe6880d1U, 0xbe1f14c5be1f14c5U, 0xbe8cb9c23c92d818U,
  0xbe8cb9c23e62627bU, 0x3e007d15be007d15U, 0xbd2b5172be98f66fU, 0xbe869b6c3d74bd7eU,
  0xbf0cb9c23e007d15U, 0x3ddc4424be378e1eU, 0xbe25331bbe25331bU, 0xbd12d8183de880d1U,
  0xbe98f66f3df4bd7eU, 0x3d2b5172bdf4bd7eU, 0xbcf4bd7ebe3dac75U, 0x3e0cb9c2bd43cacbU,
  0xbd9f14c5bc43cacbU, 0xbd92d818bbc3cacbU, 0x3d12d8183d43cacbU, 0xbcf4bd7ebe18f66fU,
  0xbdb78e1ebd92d818U, 0xbe12d818bc43cacbU, 0xbc43cacb00000000U, 0xbd9f14c53d9f14c5U,
  0x3e89aa97be1f14c5U, 0xbe069b6c3e807d15U, 0x3d2b51723d92d818U, 0xbc43cacb3ddc4424U,
  0x3e25331b3d9f14c5U, 0x3d869b6c3de880d1U, 0x3db78e1ebd2b5172U, 0xbe95e743be12d818U,
  0x3df4bd7e3d9f14c5U, 0xbd5c44243de880d1U, 0x3d74bd7ebd43cacbU, 0xbe007d153d74bd7eU,
  0x3d12d8183d9f14c5U, 0x3d12d8183e378e1eU, 0x3cf4bd7ebd43cacbU, 0x3d869b6c3d9f14c5U,
  0x3cf4bd7ebde880d1U, 0xbdc3cacb3d92d818U, 0xbbc3cacbbc92d818U, 0x3dd007783c92d818U,
  0x3c92d818be007d15U, 0xbe12d818be6880d1U, 0x3bc3cacb00000000U, 0x3ddc44243dc3cacbU,
  0xbe007d153cc3cacbU, 0xbe316fc8bbc3cacbU, 0x3bc3cacbbd9f14c5U, 0x3d5c44243d74bd7eU,
  0xbe007d15bd9f14c5U, 0xbd92d818bd12d818U, 0xbd43cacb3cc3cacbU, 0x3dc3cacb3d74bd7eU,
  0xbe3dac75be12d818U, 0xbcc3cacb3cc3cacbU, 0x3bc3cacbbe5c4424U, 0xbd9f14c53e2b5172U,
  0xbd9f14c5be49e921U, 0xbd12d8183e12d818U, 0x3d74bd7ebe500778U, 0xbe007d15bd74bd7eU,
  0xbd43cacbbdd00778U, 0x3d92d8183e807d15U, 0xbcc3cacbbe1f14c5U, 0xbe49e9213d869b6cU,
  0x3d43cacbbd12d818U, 0x3d2b51723e807d15U, 0xbe3dac75bdab5172U, 0xbe18f66fbd9f14c5U,
  0x3e316fc8bdab5172U, 0xbd5c44243e92d818U, 0x3c43cacb3d43cacbU, 0xbdab51723cc3cacbU,
  0x3e49e9213d74bd7eU, 0xbd869b6cbd869b6cU, 0xbe43cacb3e869b6cU, 0x3e43cacbbd43cacbU,
  0x3bc3cacbbd9f14c5U, 0xbdd00778bc43cacbU, 0xbdc3cacb3e89aa97U, 0x3e98f66fbd92d818U,
  0x3d5c4424bdb78e1eU, 0xbd74bd7ebe5625ceU, 0xbe18f66f3e2b5172U, 0x3e9f14c53d74bd7eU,
  0xbc92d818bd869b6cU, 0xbc92d818be007d15U, 0xbe5625ce3e25331bU, 0x3e316fc83d869b6cU,
  0xbe49e921be0cb9c2U, 0x3e378e1ebe12d818U, 0xbd74bd7e3e6880d1U, 0x3e43cacb3d2b5172U,
  0xbe378e1ebe6e9f27U, 0x3e7adbd4bd12d818U, 0x3c92d8183dab5172U, 0x3d43cacb3e12d818U,
  0xbe49e921be8cb9c2U, 0x3e6e9f273cc3cacbU, 0x3cc3cacbbdc3cacbU, 0xbc92d8183e25331bU,
  0xbe3dac75be3dac75U, 0x3e18f66f3e5625ceU, 0x3cc3cacbbe2b5172U, 0xbde880d13e007d15U,
  0xbe6880d1be92d818U, 0xbcf4bd7e3dab5172U, 0x3e1f14c53bc3cacbU, 0xbe378e1ebd5c4424U,
  0xbd869b6cbd92d818U, 0x3cf4bd7ebde880d1U, 0x3dd00778be25331bU, 0x3cf4bd7e3c92d818U,
  0xbd74bd7e3e12d818U, 0x3d2b5172bddc4424U, 0x3e0cb9c2be7adbd4U, 0x3dab51723c92d818U,
  0xbe0cb9c2bc92d818U, 0xbe5625ce3dc3cacbU, 0xbd2b51723d43cacbU, 0xbe2b5172be2b5172U,
  0x3e5007783df4bd7eU, 0xbe7adbd4bddc4424U, 0xbe0cb9c23e1f14c5U, 0x3dd007783d92d818U,
  0x3e069b6c3d869b6cU, 0xbd5c4424be7adbd4U, 0xbddc44243e18f66fU, 0x3e95e7433e6880d1U,
  0x3dd007783e2b5172U, 0xbc43cacbbe0cb9c2U, 0xbdd007783e49e921U, 0x3cf4bd7e3e069b6cU,
  0x3db78e1e3e2b5172U, 0x3d74bd7ebe3dac75U, 0x3d869b6c3e3dac75U, 0x3dc3cacb3e069b6cU,
  0xbe5c44243cf4bd7eU, 0xbcc3cacb3ddc4424U, 0x3c43cacb3e6e9f27U, 0xbe1f14c53e5625ceU,
  0xbde880d13d869b6cU, 0xbc43cacbbcf4bd7eU, 0xbd74bd7e3df4bd7eU, 0xbe49e9213e25331bU,
  0xbd12d8183d2b5172U, 0xbdab5172be3dac75U, 0xbd9f14c53d74bd7eU, 0xbe316fc83d9f14c5U,
  0x3d43cacbbc92d818U, 0xbe316fc8U, 0x3d12d8183d5c4424U, 0xbd9f14c53cc3cacbU,
  0xbc43cacbU, 0xbd74bd7ebdd00778U, 0x3e007d153df4bd7eU, 0x3d2b5172bc43cacbU,
  0x3bc3cacbbd12d818U, 0x3d12d818bc92d818U, 0x3ddc44243dd00778U, 0x3d74bd7e3e25331bU,
  0x3d43cacb3d12d818U, 0x3e12d818be378e1eU, 0x3e378e1e3d5c4424U, 0x3db78e1e3e500778U,
  0x3d43cacbbdf4bd7eU, 0x3de880d1bdc3cacbU, 0x3e18f66fbdd00778U, 0xbe069b6cbe069b6cU,
  0x3e6e9f27bddc4424U, 0xbde880d1be12d818U, 0x3dab51723d2b5172U, 0x3d43cacb3bc3cacbU,
  0xbd2b5172U, 0xbe1f14c5bd2b5172U, 0xbd869b6c3e069b6cU, 0xbe0cb9c2bc92d818U,
  0x3c92d8183e1f14c5U, 0x3ddc4424bc92d818U, 0xbe316fc83cf4bd7eU, 0x3cf4bd7e00000000U,
  0xbc43cacbbd5c4424U, 0xbcf4bd7ebe5625ceU, 0xbde880d13e0cb9c2U, 0xbbc3cacb3d74bd7eU,
  0xbe2b51723ddc4424U, 0x3e2b5172bd869b6cU, 0xbe007d153e869b6cU, 0xbd92d8183c92d818U,
  0xbe1f14c53e8fc8edU, 0xbc43cacbbe1f14c5U, 0xbde880d13e378e1eU, 0xbd2b51723db78e1eU,
  0xbc92d8183cf4bd7eU, 0xbe807d153d869b6cU, 0xbddc44243df4bd7eU, 0xbe1f14c5U,
  0xbe18f66f3d5c4424U, 0xbe069b6cbd43cacbU, 0xbd869b6cbc43cacbU, 0xbd9f14c53d9f14c5U,
  0x3bc3cacb3d12d818U, 0xbd43cacb3d74bd7eU, 0xbc92d818bc43cacbU, 0xbd92d818be869b6cU,
  0xbd869b6cbe378e1eU, 0xbc92d8183d869b6cU, 0x3d9f14c5be5c4424U, 0xbc92d818bd5c4424U,
  0x3de880d1be378e1eU, 0x3c92d818bd869b6cU, 0x3e378e1ebe069b6cU, 0xbdf4bd7ebbc3cacbU,
  0xbc92d818be62627bU, 0x3d74bd7ebe25331bU, 0x3df4bd7ebe378e1eU, 0x3d43cacbbeb47ef3U,
  0xbcc3cacb3c92d818U, 0xbde880d13bc3cacbU, 0xbcc3cacbbd5c4424U, 0xbdc3cacbbd5c4424U,
  0x3e0cb9c23cc3cacbU, 0xbe62627bbd43cacbU, 0xbd74bd7e3cc3cacbU, 0xbe0cb9c23bc3cacbU,
  0x3e2b5172U, 0xbc43cacb00000000U, 0xbdab51723d43cacbU, 0xbe0cb9c23d2b5172U,
  0xbc43cacb3e6e9f27U, 0x3de880d13cf4bd7eU, 0xbddc44243c43cacbU, 0xbe62627b3db78e1eU,
  0xbd92d8183eccf84dU, 0x3cc3cacb3db78e1eU, 0xbd2b51723dd00778U, 0x3bc3cacb3d2b5172U,
  0x3d869b6c3e807d15U, 0xbe069b6cbdab5172U, 0xbd12d8183d869b6cU, 0x3e12d818bd9f14c5U,
  0x3d12d8183e378e1eU, 0xbde880d1bde880d1U, 0xbd9f14c5bd92d818U, 0x3e62627bbe869b6cU,
